<pad>	0
<unk>	0
<s>	0
</s>	0
<hi>	0
<en>	0
<0x00>	0
<0x01>	0
<0x02>	0
<0x03>	0
<0x04>	0
<0x05>	0
<0x06>	0
<0x07>	0
<0x08>	0
<0x09>	0
<0x0A>	0
<0x0B>	0
<0x0C>	0
<0x0D>	0
<0x0E>	0
<0x0F>	0
<0x10>	0
<0x11>	0
<0x12>	0
<0x13>	0
<0x14>	0
<0x15>	0
<0x16>	0
<0x17>	0
<0x18>	0
<0x19>	0
<0x1A>	0
<0x1B>	0
<0x1C>	0
<0x1D>	0
<0x1E>	0
<0x1F>	0
<0x20>	0
<0x21>	0
<0x22>	0
<0x23>	0
<0x24>	0
<0x25>	0
<0x26>	0
<0x27>	0
<0x28>	0
<0x29>	0
<0x2A>	0
<0x2B>	0
<0x2C>	0
<0x2D>	0
<0x2E>	0
<0x2F>	0
<0x30>	0
<0x31>	0
<0x32>	0
<0x33>	0
<0x34>	0
<0x35>	0
<0x36>	0
<0x37>	0
<0x38>	0
<0x39>	0
<0x3A>	0
<0x3B>	0
<0x3C>	0
<0x3D>	0
<0x3E>	0
<0x3F>	0
<0x40>	0
<0x41>	0
<0x42>	0
<0x43>	0
<0x44>	0
<0x45>	0
<0x46>	0
<0x47>	0
<0x48>	0
<0x49>	0
<0x4A>	0
<0x4B>	0
<0x4C>	0
<0x4D>	0
<0x4E>	0
<0x4F>	0
<0x50>	0
<0x51>	0
<0x52>	0
<0x53>	0
<0x54>	0
<0x55>	0
<0x56>	0
<0x57>	0
<0x58>	0
<0x59>	0
<0x5A>	0
<0x5B>	0
<0x5C>	0
<0x5D>	0
<0x5E>	0
<0x5F>	0
<0x60>	0
<0x61>	0
<0x62>	0
<0x63>	0
<0x64>	0
<0x65>	0
<0x66>	0
<0x67>	0
<0x68>	0
<0x69>	0
<0x6A>	0
<0x6B>	0
<0x6C>	0
<0x6D>	0
<0x6E>	0
<0x6F>	0
<0x70>	0
<0x71>	0
<0x72>	0
<0x73>	0
<0x74>	0
<0x75>	0
<0x76>	0
<0x77>	0
<0x78>	0
<0x79>	0
<0x7A>	0
<0x7B>	0
<0x7C>	0
<0x7D>	0
<0x7E>	0
<0x7F>	0
<0x80>	0
<0x81>	0
<0x82>	0
<0x83>	0
<0x84>	0
<0x85>	0
<0x86>	0
<0x87>	0
<0x88>	0
<0x89>	0
<0x8A>	0
<0x8B>	0
<0x8C>	0
<0x8D>	0
<0x8E>	0
<0x8F>	0
<0x90>	0
<0x91>	0
<0x92>	0
<0x93>	0
<0x94>	0
<0x95>	0
<0x96>	0
<0x97>	0
<0x98>	0
<0x99>	0
<0x9A>	0
<0x9B>	0
<0x9C>	0
<0x9D>	0
<0x9E>	0
<0x9F>	0
<0xA0>	0
<0xA1>	0
<0xA2>	0
<0xA3>	0
<0xA4>	0
<0xA5>	0
<0xA6>	0
<0xA7>	0
<0xA8>	0
<0xA9>	0
<0xAA>	0
<0xAB>	0
<0xAC>	0
<0xAD>	0
<0xAE>	0
<0xAF>	0
<0xB0>	0
<0xB1>	0
<0xB2>	0
<0xB3>	0
<0xB4>	0
<0xB5>	0
<0xB6>	0
<0xB7>	0
<0xB8>	0
<0xB9>	0
<0xBA>	0
<0xBB>	0
<0xBC>	0
<0xBD>	0
<0xBE>	0
<0xBF>	0
<0xC0>	0
<0xC1>	0
<0xC2>	0
<0xC3>	0
<0xC4>	0
<0xC5>	0
<0xC6>	0
<0xC7>	0
<0xC8>	0
<0xC9>	0
<0xCA>	0
<0xCB>	0
<0xCC>	0
<0xCD>	0
<0xCE>	0
<0xCF>	0
<0xD0>	0
<0xD1>	0
<0xD2>	0
<0xD3>	0
<0xD4>	0
<0xD5>	0
<0xD6>	0
<0xD7>	0
<0xD8>	0
<0xD9>	0
<0xDA>	0
<0xDB>	0
<0xDC>	0
<0xDD>	0
<0xDE>	0
<0xDF>	0
<0xE0>	0
<0xE1>	0
<0xE2>	0
<0xE3>	0
<0xE4>	0
<0xE5>	0
<0xE6>	0
<0xE7>	0
<0xE8>	0
<0xE9>	0
<0xEA>	0
<0xEB>	0
<0xEC>	0
<0xED>	0
<0xEE>	0
<0xEF>	0
<0xF0>	0
<0xF1>	0
<0xF2>	0
<0xF3>	0
<0xF4>	0
<0xF5>	0
<0xF6>	0
<0xF7>	0
<0xF8>	0
<0xF9>	0
<0xFA>	0
<0xFB>	0
<0xFC>	0
<0xFD>	0
<0xFE>	0
<0xFF>	0
.	-3.9501
,	-3.97519
s	-3.97677
▁के	-4.29094
▁the	-4.2944
▁	-4.39654
▁में	-4.60337
▁है	-4.63698
▁की	-4.84921
।	-4.87638
▁to	-5.02919
▁को	-5.08156
▁a	-5.09056
▁से	-5.09953
▁and	-5.1055
▁of	-5.11296
▁in	-5.17541
▁और	-5.21727
▁का	-5.3047
-	-5.35902
ी	-5.48728
▁ने	-5.52865
▁पर	-5.56643
ों	-5.60089
ed	-5.60687
▁हैं	-5.6226
▁कि	-5.67333
ing	-5.7027
▁एक	-5.85581
▁is	-5.87122
न	-5.87499
▁key	-5.88144
t	-5.92007
▁भी	-5.92068
d	-5.9273
▁for	-5.93552
ल	-5.94414
▁(	-5.97963
र	-5.99342
क	-6.00838
▁mein	-6.02906
▁on	-6.05998
▁लिए	-6.08451
y	-6.10342
)	-6.10845
ा	-6.13899
म	-6.14823
▁कर	-6.14937
i	-6.15448
▁that	-6.16171
'	-6.16357
▁The	-6.19978
▁नहीं	-6.20556
▁इस	-6.20725
▁with	-6.31104
a	-6.31631
ने	-6.33056
e	-6.34904
▁हो	-6.36138
▁ही	-6.37581
▁किया	-6.38256
▁be	-6.39302
n	-6.40852
स	-6.4143
er	-6.43991
▁था	-6.45357
▁"	-6.46814
’	-6.49885
▁तो	-6.5132
ता	-6.51477
त	-6.5152
े	-6.51556
▁गया	-6.53047
▁as	-6.53435
▁यह	-6.53759
▁was	-6.56204
ly	-6.59273
▁has	-6.60725
ट	-6.61102
▁aur	-6.61909
ना	-6.6228
▁A	-6.63199
r	-6.63826
▁करने	-6.65179
▁साथ	-6.6566
▁it	-6.66272
re	-6.68081
▁अ	-6.70339
प	-6.7111
on	-6.71114
▁at	-6.71397
al	-6.72383
▁कहा	-6.72547
▁will	-6.7314
▁by	-6.74953
▁from	-6.76357
:	-6.76591
▁आ	-6.77142
▁I	-6.78656
▁kii	-6.78724
ं	-6.80471
in	-6.80666
▁haye	-6.81127
▁are	-6.82238
▁he	-6.82273
▁,	-6.83313
▁his	-6.84328
▁have	-6.85198
▁न	-6.85873
m	-6.87209
h	-6.87362
"	-6.877
o	-6.885
ज	-6.88896
▁जो	-6.89203
द	-6.91647
an	-6.92388
k	-6.92792
le	-6.93568
▁बाद	-6.93798
व	-6.9385
▁जा	-6.95485
▁अपने	-6.95577
ो	-6.95606
ह	-6.96171
g	-6.97514
▁-	-6.9872
▁an	-7.00312
▁रहे	-7.01122
▁ack	-7.02076
ar	-7.02091
▁said	-7.0239
ri	-7.04543
▁re	-7.0489
▁seey	-7.05138
▁दिया	-7.05157
▁this	-7.06124
▁19	-7.06537
▁।	-7.06989
ला	-7.07373
रा	-7.07729
th	-7.08576
▁S	-7.09176
कर	-7.09501
▁व	-7.09584
▁स	-7.09722
▁not	-7.10827
es	-7.1134
▁you	-7.11566
ब	-7.12447
b	-7.12961
ू	-7.12977
la	-7.15161
▁रहा	-7.15411
▁हुए	-7.16244
▁तक	-7.16731
श	-7.1709
ते	-7.17783
▁थे	-7.19052
▁थी	-7.19178
u	-7.19958
▁वह	-7.19967
I	-7.19968
na	-7.20478
li	-7.2079
p	-7.20847
▁.	-7.21658
▁रही	-7.2317
S	-7.23185
ित	-7.23927
▁उन्होंने	-7.23935
▁koo	-7.24173
▁they	-7.24346
▁गई	-7.24532
l	-7.24848
▁'	-7.25338
or	-7.25391
ta	-7.26464
▁their	-7.26842
▁प	-7.28298
ll	-7.28431
ि	-7.28469
ड	-7.29608
ग	-7.29674
▁कुछ	-7.29834
▁kaa	-7.29957
ली	-7.30431
▁also	-7.30781
en	-7.30871
it	-7.31391
नी	-7.31961
▁लेकिन	-7.32089
▁या	-7.325
il	-7.32778
ती	-7.32958
▁“	-7.33256
ियों	-7.33379
िक	-7.35168
ma	-7.36449
sh	-7.36549
ra	-7.37365
▁आप	-7.37596
ै	-7.37846
▁ब	-7.3794
▁प्र	-7.38637
▁been	-7.39048
st	-7.39315
फ	-7.3932
▁म	-7.41007
▁रूप	-7.41099
c	-7.41214
ya	-7.41283
री	-7.41325
ur	-7.41386
▁can	-7.41395
▁all	-7.42482
य	-7.42717
A	-7.42754
ne	-7.43272
▁up	-7.43488
▁who	-7.44245
▁दी	-7.44305
सी	-7.44799
▁पहले	-7.44981
ers	-7.45978
▁thaa	-7.46118
च	-7.47271
▁करते	-7.47478
▁C	-7.47623
मा	-7.47789
▁which	-7.49088
?	-7.49109
▁or	-7.49163
▁kiya	-7.49643
का	-7.49683
w	-7.49761
▁अपनी	-7.50234
▁कोई	-7.50438
▁we	-7.50712
ti	-7.50719
ण	-7.5139
▁In	-7.51603
el	-7.51714
▁अब	-7.51765
te	-7.52616
▁वे	-7.53073
▁had	-7.53211
ch	-7.53406
▁out	-7.53728
▁होने	-7.54084
▁लोगों	-7.54228
▁गए	-7.54394
ले	-7.54702
▁de	-7.54749
▁ma	-7.54946
▁पुलिस	-7.54978
at	-7.55329
ve	-7.5544
▁but	-7.55527
▁सरकार	-7.55578
▁बात	-7.55674
वा	-7.5596
▁क	-7.56605
ck	-7.56969
ई	-7.57118
▁sa	-7.57259
P	-7.57737
▁ग	-7.58047
ए	-7.58323
्स	-7.5849
▁He	-7.59048
ओं	-7.59129
▁जब	-7.59131
▁वाले	-7.599
▁B	-7.60263
▁किसी	-7.60425
▁ये	-7.6043
ce	-7.60754
▁liye	-7.60956
am	-7.61374
ation	-7.6151
िंग	-7.61639
ak	-7.61708
ें	-7.61831
▁gayaa	-7.61853
▁दो	-7.61893
▁one	-7.61922
▁इसके	-7.63204
▁वि	-7.63353
ड़	-7.63926
▁द्वारा	-7.64229
de	-7.64391
se	-7.64673
▁तरह	-7.65297
ु	-7.6602
▁हम	-7.66289
▁India	-7.66303
x	-7.6655
▁e	-7.67051
▁so	-7.67524
me	-7.67733
ad	-7.68198
▁her	-7.68822
vi	-7.69162
▁were	-7.69428
▁over	-7.69655
▁जाता	-7.70374
et	-7.70417
▁इन	-7.70567
C	-7.7111
ha	-7.71119
ंग	-7.71202
▁उनके	-7.71228
▁समय	-7.71281
ka	-7.71504
▁आज	-7.71739
▁पा	-7.7186
▁भारत	-7.72156
▁after	-7.72585
▁कई	-7.72842
f	-7.7306
▁ह	-7.73284
▁T	-7.73309
ंड	-7.73627
▁F	-7.73643
▁ए	-7.74514
▁बार	-7.74543
▁ra	-7.74766
▁कम	-7.74946
▁हुआ	-7.75957
▁2	-7.76042
ro	-7.76235
▁सिंह	-7.7644
ke	-7.76729
▁3	-7.76857
ख	-7.76996
▁more	-7.77269
va	-7.7754
ga	-7.78415
B	-7.78541
्	-7.787
M	-7.79666
▁द	-7.7968
▁hain	-7.79833
िया	-7.79999
्य	-7.80136
man	-7.80475
▁me	-7.80725
▁ज	-7.80795
D	-7.80981
▁काम	-7.81218
▁उ	-7.81665
▁It	-7.81892
▁your	-7.81938
▁1	-7.82004
▁its	-7.82305
▁G	-7.8266
▁बताया	-7.82697
थ	-7.8274
▁नाम	-7.83044
▁लेकर	-7.83046
▁about	-7.83047
▁उन्हें	-7.83212
ir	-7.83508
▁हुई	-7.83682
▁देश	-7.844
▁parr	-7.85271
▁K	-7.8543
▁5	-7.85499
▁दिन	-7.8561
ol	-7.8586
T	-7.86221
di	-7.86611
▁सभी	-7.86639
▁त	-7.86774
▁first	-7.86802
▁ले	-7.86817
▁बहुत	-7.87134
या	-7.87196
ter	-7.87627
;	-7.87664
ni	-7.87805
▁Ma	-7.8812
▁फिर	-7.8851
▁मैं	-7.88573
▁ney	-7.8864
▁सकता	-7.88676
▁क्या	-7.88856
▁time	-7.88911
/	-7.88935
ौ	-7.89606
pa	-7.89759
▁4	-7.89838
▁फिल्म	-7.89885
▁लोग	-7.90311
▁na	-7.90623
जी	-7.90637
ic	-7.90734
mi	-7.90864
▁सी	-7.91556
▁do	-7.91611
R	-7.92072
▁करना	-7.92119
▁हर	-7.93024
रे	-7.93527
z	-7.9357
▁two	-7.93672
▁P	-7.9427
▁roop	-7.94301
▁श	-7.94446
▁साल	-7.94659
▁होता	-7.94953
▁E	-7.95291
L	-7.9571
▁D	-7.96188
▁सा	-7.97109
▁मे	-7.97206
▁फ	-7.9727
▁जाने	-7.97313
▁इ	-7.97604
्या	-7.97695
▁di	-7.97787
!	-7.98103
▁नि	-7.98107
▁10	-7.98233
us	-7.98314
▁Ra	-7.98331
दा	-7.98569
ाई	-7.98894
▁जी	-7.98921
ate	-7.98971
▁con	-7.99032
un	-7.99097
▁see	-7.99258
▁घर	-7.99471
ng	-7.99632
▁सकते	-7.99639
as	-8.00115
▁un	-8.00642
▁लिया	-8.00767
▁ना	-8.01027
▁other	-8.01451
▁new	-8.01492
▁no	-8.01735
▁would	-8.01799
lo	-8.01878
ment	-8.01891
▁N	-8.0203
j	-8.02051
▁team	-8.02378
to	-8.02467
able	-8.03274
▁ba	-8.03603
▁vi	-8.03759
ity	-8.04257
के	-8.04281
जा	-8.04313
ः	-8.04454
wa	-8.04568
▁when	-8.04846
सा	-8.04855
▁टीम	-8.05103
▁like	-8.05107
▁होगा	-8.05274
▁against	-8.05524
टी	-8.05537
ent	-8.05565
▁O	-8.05585
▁ta	-8.05914
▁la	-8.06308
▁सं	-8.06594
▁दे	-8.06681
▁film	-8.07549
▁pa	-8.07791
▁18	-8.07967
▁ल	-8.08025
▁दौरान	-8.08108
पी	-8.08344
ीय	-8.08351
ia	-8.08371
▁she	-8.09168
ant	-8.09267
▁बीच	-8.09587
ul	-8.09596
▁बा	-8.09744
गा	-8.09795
▁M	-8.09849
भ	-8.10069
ee	-8.10372
▁कारण	-8.1038
v	-8.10384
▁पास	-8.10485
nd	-8.10563
▁मु	-8.10722
▁उनकी	-8.10977
▁मा	-8.11069
▁उसके	-8.11111
कार	-8.11186
id	-8.11231
4	-8.11524
वि	-8.12416
पुर	-8.12632
▁उस	-8.12736
▁वो	-8.13032
▁छ	-8.13361
▁6	-8.13544
▁सबसे	-8.14044
O	-8.14573
pe	-8.14704
▁ex	-8.15059
गी	-8.1519
G	-8.15235
▁co	-8.16001
▁दोनों	-8.16042
is	-8.16063
ba	-8.16151
▁उसे	-8.16152
वर	-8.16333
▁चाहिए	-8.164
▁क्षेत्र	-8.1655
▁people	-8.17
▁year	-8.17086
▁पी	-8.17236
ष	-8.175
▁Re	-8.17514
▁This	-8.17773
▁them	-8.17807
▁last	-8.17937
▁him	-8.18001
E	-8.18148
ज़	-8.18357
▁some	-8.18379
ive	-8.18386
▁पूर्व	-8.1872
”	-8.18797
▁अन्य	-8.18939
▁saath	-8.19152
ru	-8.19179
est	-8.19263
▁there	-8.19409
ॉ	-8.19461
▁आई	-8.19504
▁Ba	-8.19582
डी	-8.19631
एं	-8.20049
से	-8.20099
ंट	-8.20361
mo	-8.2038
um	-8.20384
tra	-8.20604
F	-8.20712
▁अधिक	-8.20887
▁way	-8.20994
▁दिल्ली	-8.21278
▁शुरू	-8.21295
▁ka	-8.21342
▁च	-8.2146
ion	-8.21483
▁into	-8.21533
▁b	-8.21749
▁करें	-8.22001
को	-8.22114
▁U	-8.22114
N	-8.22188
▁बना	-8.22326
sa	-8.22465
ot	-8.2247
▁भ	-8.22484
▁get	-8.23066
he	-8.23291
▁करता	-8.23295
▁make	-8.23508
ik	-8.23614
▁वाली	-8.23621
▁per	-8.23749
▁ख	-8.23906
ry	-8.23936
हा	-8.23951
स्ट	-8.24509
ting	-8.2505
im	-8.25191
▁joe	-8.25328
▁राज्य	-8.25333
▁सु	-8.25453
क्ष	-8.25703
▁प्रदेश	-8.25731
ver	-8.2574
▁कै	-8.25944
co	-8.26164
बा	-8.26304
▁We	-8.26375
ho	-8.26416
age	-8.26477
ति	-8.26497
▁off	-8.26622
ंद	-8.2671
aa	-8.26995
▁सब	-8.27033
▁ऐसे	-8.27076
▁बता	-8.2717
▁शामिल	-8.27211
▁भारतीय	-8.27364
20	-8.27562
▁अगर	-8.27603
▁तथा	-8.27692
▁एवं	-8.27727
),	-8.27857
▁मामले	-8.28156
han	-8.28296
▁pro	-8.28349
▁लगा	-8.28358
स्त	-8.28832
ist	-8.28841
बी	-8.28962
▁चुनाव	-8.2928
▁बे	-8.29591
▁आपको	-8.29628
▁अपना	-8.29645
1	-8.30051
▁कांग्रेस	-8.30055
ap	-8.3026
▁बारे	-8.30322
ag	-8.30445
ंस	-8.30531
▁होती	-8.30597
▁under	-8.30862
ge	-8.30867
da	-8.30879
र्	-8.31021
ut	-8.31239
ध	-8.31271
,”	-8.31463
▁our	-8.3157
▁गु	-8.3184
▁र	-8.31986
▁only	-8.32013
▁back	-8.32248
ja	-8.32477
▁ga	-8.32503
son	-8.32636
ud	-8.32671
▁just	-8.32839
▁pra	-8.32919
की	-8.32967
▁बन	-8.33171
▁सि	-8.33226
▁यहां	-8.33706
▁पार्टी	-8.33732
be	-8.33872
मी	-8.34037
no	-8.3413
ty	-8.34211
U	-8.34241
▁तीन	-8.34293
उ	-8.34425
▁man	-8.34544
▁if	-8.34646
▁any	-8.35313
▁Na	-8.35608
kh	-8.3584
▁show	-8.36086
▁mo	-8.36946
▁now	-8.36978
▁Indian	-8.36993
ine	-8.37499
▁t	-8.37559
ah	-8.37651
▁p	-8.37666
▁देने	-8.37722
▁work	-8.37765
▁unhone	-8.38073
िन	-8.38156
ओ	-8.38269
▁well	-8.38367
▁than	-8.38452
▁‘	-8.38558
▁H	-8.3856
▁12	-8.386
▁ओर	-8.3874
▁खिलाफ	-8.3879
टा	-8.38879
▁va	-8.38933
▁7	-8.38959
▁Mo	-8.39018
▁Ro	-8.39036
▁game	-8.39055
op	-8.39165
5	-8.39211
▁cha	-8.39351
▁कार्य	-8.39388
H	-8.39393
▁ऐसा	-8.3953
पा	-8.39573
▁बढ़	-8.39812
▁take	-8.39847
▁ha	-8.39882
lu	-8.40133
ance	-8.40169
ane	-8.40244
▁R	-8.40251
▁Sa	-8.40402
ton	-8.4062
मे	-8.40656
नि	-8.40738
▁made	-8.40747
▁प्रति	-8.40918
▁किए	-8.40974
ँ	-8.4098
▁st	-8.41084
0	-8.41274
▁जानकारी	-8.41459
▁रि	-8.42244
त्र	-8.42318
▁while	-8.42342
▁जैसे	-8.42369
▁yeh	-8.42596
▁k	-8.42709
रो	-8.42853
▁काफी	-8.42876
▁i	-8.42942
▁Ja	-8.42967
▁go	-8.43128
▁मिल	-8.4313
एस	-8.43584
▁what	-8.43765
tic	-8.44149
▁कुमार	-8.44266
▁could	-8.44523
,"	-8.44806
▁La	-8.44952
▁जारी	-8.45268
▁being	-8.4528
▁De	-8.45323
▁most	-8.4536
▁ja	-8.45541
▁government	-8.45645
▁उप	-8.45729
▁8	-8.45732
ran	-8.45893
ki	-8.45968
िल	-8.46
tt	-8.46237
▁three	-8.46457
▁वहीं	-8.46474
▁dwara	-8.46612
▁ला	-8.46623
▁भर	-8.468
▁Ha	-8.46826
▁चल	-8.46874
▁जान	-8.47032
ाय	-8.4713
▁ध	-8.47206
▁इसे	-8.47218
ster	-8.47257
mp	-8.47452
ड़ा	-8.48342
▁season	-8.48469
▁L	-8.48563
▁Ka	-8.48652
▁चार	-8.48665
▁An	-8.48858
▁So	-8.48921
▁15	-8.49006
▁W	-8.49094
▁us	-8.49464
▁जाएगा	-8.49509
▁my	-8.49529
K	-8.49589
्र	-8.49641
▁बी	-8.49643
प्र	-8.50151
▁c	-8.50203
▁देख	-8.50294
▁da	-8.50456
▁मुझे	-8.50478
▁ज्यादा	-8.50647
du	-8.50663
▁dis	-8.50719
दी	-8.50821
hi	-8.50844
▁need	-8.50875
▁वा	-8.51055
▁कु	-8.51313
▁pre	-8.51385
▁help	-8.51396
▁राज	-8.51781
%	-8.5199
go	-8.51994
र्ट	-8.52115
्यू	-8.52119
वी	-8.52241
ian	-8.52367
▁इससे	-8.52756
▁सो	-8.5294
▁रा	-8.52998
▁Vi	-8.5301
▁सामने	-8.5315
▁20	-8.53293
वे	-8.53338
▁ता	-8.5339
▁मंत्री	-8.53399
ान	-8.53771
V	-8.53811
▁ro	-8.53815
av	-8.53978
▁years	-8.54006
▁पूरी	-8.54035
W	-8.54107
र्स	-8.54205
▁बि	-8.54221
▁ni	-8.54477
दार	-8.54639
़	-8.54733
▁state	-8.54823
▁J	-8.5486
▁po	-8.55017
ted	-8.55328
▁जाती	-8.5534
ियां	-8.55457
▁क्योंकि	-8.55687
▁कह	-8.55749
▁bo	-8.56053
▁अभी	-8.56145
ary	-8.56248
and	-8.56264
▁ई	-8.56327
▁राम	-8.5647
र्ड	-8.56472
▁जीवन	-8.56504
▁मांग	-8.56991
▁स्व	-8.57003
▁during	-8.57077
▁win	-8.57217
▁जिसमें	-8.57318
ated	-8.57347
▁अनुसार	-8.57492
▁तब	-8.57678
▁शहर	-8.57843
▁11	-8.58065
▁should	-8.58155
ाइ	-8.58225
▁विभाग	-8.58441
▁As	-8.58602
▁उत्तर	-8.58811
▁bhee	-8.58945
up	-8.58958
▁ली	-8.59024
▁खेल	-8.59142
▁match	-8.5918
▁श्री	-8.59305
स्	-8.5979
ृ	-8.59925
▁एस	-8.59957
शा	-8.60198
▁Mi	-8.60203
▁even	-8.60236
▁:	-8.60292
▁गो	-8.60375
▁before	-8.60447
▁day	-8.6047
cha	-8.60506
▁To	-8.6078
▁अध्यक्ष	-8.6088
▁company	-8.60886
rs	-8.60977
▁होते	-8.61136
लो	-8.61203
▁कभी	-8.61324
▁उनका	-8.61392
▁where	-8.61412
▁महिला	-8.61516
लि	-8.61855
▁दर्ज	-8.61856
▁baad	-8.61892
▁f	-8.62034
▁part	-8.62169
▁sam	-8.62242
▁ho	-8.62335
bu	-8.62431
▁set	-8.62471
▁ओ	-8.62507
▁सकती	-8.6259
gi	-8.62614
मान	-8.6287
शन	-8.63015
ca	-8.63121
▁इसी	-8.63132
rd	-8.63178
▁अलग	-8.63579
▁good	-8.63735
▁मह	-8.63793
▁But	-8.6386
ठ	-8.63875
ाया	-8.63886
▁बाहर	-8.64012
▁लाख	-8.64264
▁Me	-8.64466
ven	-8.64712
kar	-8.65021
▁मो	-8.65157
hu	-8.65233
ana	-8.65258
▁मान	-8.65359
ai	-8.65363
▁यू	-8.6539
▁Se	-8.65437
▁Di	-8.6549
▁रे	-8.65506
▁Minister	-8.65508
▁मै	-8.65558
ger	-8.65726
▁आने	-8.65761
▁how	-8.6581
land	-8.6584
ies	-8.65892
ाव	-8.65893
▁मोदी	-8.65948
ay	-8.65962
क्स	-8.6601
▁परिवार	-8.66049
▁use	-8.66167
▁वर्ष	-8.66271
रण	-8.66288
2	-8.66374
▁9	-8.66463
▁taka	-8.66688
3	-8.66892
▁second	-8.67069
िस	-8.67137
do	-8.67188
▁रो	-8.6722
old	-8.67221
▁डी	-8.67236
▁मीडिया	-8.67357
▁such	-8.67387
▁For	-8.67575
▁विकास	-8.67591
ंक	-8.67621
▁गांव	-8.67743
ंत	-8.67909
ring	-8.6818
▁St	-8.68301
▁भाजपा	-8.68311
▁many	-8.68379
▁जांच	-8.68407
यर	-8.68962
▁घटना	-8.68971
▁हमारे	-8.69011
▁sha	-8.69049
▁होगी	-8.69094
00	-8.69095
bi	-8.69108
▁se	-8.69138
ff	-8.69273
▁ड	-8.69395
▁उन	-8.69414
▁आगे	-8.69526
▁place	-8.69701
ling	-8.69733
▁world	-8.70154
iya	-8.70225
▁जहां	-8.70298
▁may	-8.70471
red	-8.70548
▁नई	-8.70615
▁उसकी	-8.70673
▁इसलिए	-8.7074
▁आए	-8.70768
ाने	-8.7087
ron	-8.71018
टर	-8.71164
ये	-8.7128
...	-8.71305
▁very	-8.71348
आई	-8.71408
इ	-8.71408
▁app	-8.71666
▁दा	-8.71712
▁these	-8.71714
▁मन	-8.71747
▁भाग	-8.7179
▁डे	-8.7192
िका	-8.7194
tion	-8.72053
▁du	-8.72165
ani	-8.72243
▁आर	-8.72249
▁On	-8.72351
▁New	-8.72423
▁जिस	-8.72472
▁Pa	-8.72478
▁प्राप्त	-8.72492
▁si	-8.7254
ab	-8.72619
▁karane	-8.72688
▁बस	-8.72736
har	-8.734
▁through	-8.73734
▁इसमें	-8.73998
000	-8.74061
si	-8.74076
▁o	-8.7415
▁16	-8.74309
▁दूसरे	-8.74312
▁san	-8.74449
▁दें	-8.74847
tu	-8.74875
▁अनु	-8.74959
▁come	-8.74996
▁जीत	-8.75118
▁sp	-8.75155
▁बड़ी	-8.75222
▁स्कूल	-8.7527
mb	-8.75293
▁30	-8.75492
धा	-8.75556
ci	-8.75727
▁between	-8.75873
▁पानी	-8.76158
▁इसका	-8.7619
▁मि	-8.76217
ie	-8.76243
▁14	-8.76248
ight	-8.76373
▁fl	-8.76521
▁एन	-8.76681
ंज	-8.76817
▁आरोप	-8.76822
▁bi	-8.76994
▁Rs	-8.77045
▁बनाने	-8.77156
▁li	-8.77205
rt	-8.77332
▁आया	-8.77341
▁मुख्यमंत्री	-8.77354
▁However	-8.77418
▁best	-8.77753
▁मैच	-8.77771
nk	-8.77794
▁कंपनी	-8.77845
fa	-8.77927
▁उपयोग	-8.77935
ard	-8.7797
▁व्यक्ति	-8.77987
▁पता	-8.78005
▁पिछले	-8.78028
tro	-8.78058
▁मुख्य	-8.78154
▁बंद	-8.78303
▁17	-8.78369
ari	-8.78397
▁जिला	-8.78475
जन	-8.78491
▁Le	-8.78549
▁bu	-8.78666
▁हालांकि	-8.78897
▁)	-8.78905
फ़	-8.78951
▁Ga	-8.79026
▁?	-8.79154
▁जाते	-8.79218
▁look	-8.79237
▁दूर	-8.79239
▁13	-8.79309
▁अलावा	-8.795
ata	-8.79546
The	-8.79666
ेड	-8.79713
gu	-8.79751
▁ट्र	-8.79984
8	-8.80069
▁समझ	-8.80114
चा	-8.8026
bo	-8.80362
▁!	-8.80381
▁पाकिस्तान	-8.80428
▁thee	-8.80655
▁मेरे	-8.80724
▁V	-8.80733
▁यदि	-8.80783
▁आम	-8.80937
▁नजर	-8.80954
min	-8.81308
▁Man	-8.81426
शी	-8.81524
▁And	-8.81591
▁play	-8.81673
▁विशेष	-8.8168
अ	-8.81699
les	-8.8177
▁कार्यक्रम	-8.8177
▁comp	-8.81949
▁lo	-8.82038
मो	-8.82051
▁सेवा	-8.82348
▁diyaa	-8.82393
ड़ी	-8.82514
▁post	-8.82564
▁week	-8.82604
od	-8.82655
▁चि	-8.82686
▁बु	-8.82694
▁चला	-8.82776
om	-8.82833
त्	-8.82878
▁mu	-8.82918
▁le	-8.83007
6	-8.8308
▁right	-8.83138
▁स्थित	-8.83307
▁end	-8.83312
▁gu	-8.83324
▁country	-8.83429
▁No	-8.83433
▁हाथ	-8.83459
sha	-8.83493
▁खुद	-8.83571
▁down	-8.83689
▁here	-8.83792
▁सम	-8.8389
tri	-8.83989
▁बै	-8.84037
▁करती	-8.84204
nt	-8.84222
ji	-8.84222
rit	-8.84242
▁आपके	-8.84271
▁She	-8.84305
▁महा	-8.84518
▁हूं	-8.84554
▁दिल	-8.84571
ct	-8.84578
▁next	-8.84612
ास	-8.84624
ंच	-8.84837
▁अन	-8.84906
▁वीडियो	-8.85034
gan	-8.85171
▁jaataa	-8.85251
▁Co	-8.85274
▁Da	-8.85291
खा	-8.85291
▁जे	-8.85407
nch	-8.85546
▁सौ	-8.85565
▁प्रकार	-8.85668
▁डि	-8.85827
▁केंद्र	-8.85839
fi	-8.85884
ार	-8.85926
▁जाए	-8.85976
▁दिनों	-8.86001
▁hand	-8.86154
▁गा	-8.86271
▁know	-8.86375
रिया	-8.86458
▁Cha	-8.86462
▁दुनिया	-8.8653
▁pat	-8.86539
▁नेता	-8.86597
tan	-8.86662
▁2022	-8.86729
▁vaha	-8.86894
▁high	-8.86914
▁खा	-8.87018
▁Ta	-8.87041
▁pi	-8.87063
ating	-8.87066
ही	-8.87068
▁बड़े	-8.87148
▁आदि	-8.8725
▁long	-8.87267
▁want	-8.87451
▁पद	-8.87572
▁home	-8.87579
▁रह	-8.87624
ish	-8.87694
▁You	-8.87725
▁number	-8.87726
▁d	-8.87775
▁झ	-8.87924
▁जगह	-8.87971
ner	-8.87996
▁टी	-8.87999
▁star	-8.88065
ष्ट	-8.8815
▁मिला	-8.88201
▁top	-8.88207
su	-8.88282
pur	-8.88383
▁घ	-8.88409
▁जबकि	-8.88439
ेश	-8.8858
▁वाला	-8.88635
▁since	-8.88644
झ	-8.88677
▁दिए	-8.88686
▁Bo	-8.88708
▁ट	-8.88736
▁तैयार	-8.8887
▁Su	-8.88956
▁कहना	-8.88983
▁car	-8.89078
▁लिख	-8.89148
▁बैंक	-8.89277
▁support	-8.8938
▁four	-8.89419
▁रात	-8.89498
gg	-8.89666
▁video	-8.89669
▁then	-8.89875
▁&	-8.89885
▁केवल	-8.89917
यों	-8.89945
nn	-8.9023
▁–	-8.90386
पर	-8.90417
▁संबंध	-8.90484
king	-8.90499
▁ऑ	-8.9055
▁g	-8.90612
po	-8.90754
म्ब	-8.90854
स्क	-8.91059
▁हि	-8.91154
टे	-8.91179
▁around	-8.91302
we	-8.91316
▁both	-8.91386
▁उसने	-8.91386
▁sc	-8.91401
वन	-8.91461
▁बदल	-8.91473
▁राष्ट्रीय	-8.91583
्व	-8.91747
▁Li	-8.91749
▁same	-8.91806
▁Jo	-8.91819
tar	-8.91838
▁Be	-8.91842
ेल	-8.91936
▁World	-8.91991
▁added	-8.9204
shi	-8.92066
िट	-8.92253
▁वजह	-8.92329
▁देते	-8.92475
▁अधिकारी	-8.92588
▁जिसके	-8.92662
र्क	-8.92684
dh	-8.92951
▁सर	-8.92955
▁su	-8.92972
▁जाना	-8.93023
▁Delhi	-8.93094
▁खान	-8.93284
ल्	-8.93386
▁players	-8.93464
lan	-8.93631
▁Pro	-8.93667
der	-8.93718
▁रिपोर्ट	-8.9376
▁डाल	-8.93764
▁हा	-8.93802
जे	-8.93908
पाल	-8.93912
▁ne	-8.94066
▁record	-8.94091
▁पूरा	-8.94134
्ट	-8.94239
per	-8.94278
wi	-8.94326
घ	-8.94336
▁कार	-8.94348
7	-8.9449
▁life	-8.94536
रि	-8.94713
▁side	-8.94716
ow	-8.95051
bb	-8.95138
▁एम	-8.95156
▁25	-8.95183
▁मार	-8.95223
ang	-8.95252
▁They	-8.95304
▁पे	-8.95335
▁स्ट	-8.95355
tor	-8.95601
▁ca	-8.9566
▁police	-8.95669
▁much	-8.95726
fe	-8.95838
▁including	-8.95869
▁पड़	-8.96033
▁ti	-8.96095
ten	-8.96189
▁विश्व	-8.96283
ath	-8.96294
न्द	-8.96294
▁प्रदर्शन	-8.96357
tch	-8.96369
हर	-8.96435
yan	-8.96503
▁करके	-8.96537
▁apane	-8.96553
pp	-8.96629
▁fa	-8.96687
▁because	-8.96761
िए	-8.96857
▁शो	-8.96863
ations	-8.96917
ach	-8.96925
▁हे	-8.96968
▁media	-8.97005
▁बैठक	-8.9725
▁रहने	-8.97384
▁जिले	-8.97388
▁समाज	-8.97397
द्र	-8.97572
▁प्रधानमंत्री	-8.97623
▁मौत	-8.97867
▁धर्म	-8.98027
▁वहां	-8.98057
ेट	-8.98117
▁पहली	-8.98226
▁अव	-8.98309
▁पांच	-8.98328
▁कल	-8.98562
▁If	-8.98578
mit	-8.98605
आ	-8.98611
एम	-8.98621
▁सुरक्षा	-8.98713
▁नए	-8.98771
▁news	-8.98789
▁series	-8.98869
▁निकल	-8.99095
▁मदद	-8.99146
▁हमें	-8.99162
ous	-8.99307
▁Go	-8.9944
वार	-8.99557
आर	-8.99564
▁सुन	-8.99786
ree	-8.99922
▁Ho	-9.00134
ful	-9.0022
).	-9.00289
▁final	-9.0034
▁cent	-9.00615
र्म	-9.00916
ise	-9.00926
▁रख	-9.01046
▁क्र	-9.01066
▁योजना	-9.01075
▁खबर	-9.01094
▁going	-9.01096
▁स्थिति	-9.01232
▁Te	-9.01277
che	-9.01326
ीन	-9.01397
▁am	-9.01399
mer	-9.01438
▁विरोध	-9.01443
▁dee	-9.01469
▁curr	-9.0155
▁ध्यान	-9.01641
▁थ	-9.0168
line	-9.01688
▁अस्पताल	-9.0171
▁बड़ा	-9.01805
▁शर्मा	-9.02017
ेन	-9.02036
▁gaye	-9.02112
▁पु	-9.02135
▁बच्चों	-9.02204
▁ऐसी	-9.02233
▁इसकी	-9.02324
▁did	-9.024
▁Si	-9.02419
ction	-9.02422
ात	-9.02549
▁इं	-9.02623
म्प	-9.0263
▁few	-9.02671
▁जनता	-9.02694
▁य	-9.02701
▁ru	-9.02705
oo	-9.02866
▁report	-9.02876
क्	-9.03003
▁करेंगे	-9.03004
▁लगे	-9.03011
ेशन	-9.03017
▁hu	-9.03137
्रा	-9.03155
▁स्थान	-9.03189
▁gaee	-9.03272
gar	-9.033
za	-9.03368
ash	-9.03438
▁सोच	-9.0349
pi	-9.0366
▁Po	-9.03748
ोर	-9.03779
▁Singh	-9.03972
com	-9.0404
▁शि	-9.04054
bha	-9.04083
▁won	-9.04138
त्त	-9.04189
ok	-9.04191
▁उसका	-9.0424
ढ़	-9.0424
▁उठा	-9.04346
कों	-9.04409
▁पहुंच	-9.0442
मन	-9.04436
ph	-9.04453
रू	-9.04456
▁ऑफ	-9.04515
▁event	-9.04519
▁State	-9.04639
▁en	-9.04735
os	-9.04803
▁Ar	-9.04856
▁US	-9.04922
▁live	-9.05
▁mis	-9.05014
ft	-9.05028
ness	-9.05072
▁Ti	-9.05173
▁तरफ	-9.05189
▁Con	-9.05207
pt	-9.05236
▁24	-9.05284
▁बोल	-9.05312
▁every	-9.05363
▁bha	-9.05471
led	-9.05643
▁great	-9.05679
▁2023	-9.05689
▁शिक्षा	-9.05732
ther	-9.05881
year	-9.05895
-19	-9.05902
▁लिये	-9.05953
▁तहत	-9.05986
▁क्यों	-9.06222
▁हाल	-9.06295
▁मैंने	-9.0636
▁निर्माण	-9.0644
▁got	-9.06474
▁सिर्फ	-9.06483
▁प्रमुख	-9.06601
न्	-9.06647
▁मुताबिक	-9.06651
van	-9.06653
▁सह	-9.06675
▁रुपये	-9.06702
port	-9.06751
con	-9.06802
▁लेने	-9.06838
▁don	-9.06885
ture	-9.06915
िश	-9.07051
▁ad	-9.07093
▁अच्छा	-9.07168
ence	-9.07315
ure	-9.07526
tain	-9.07542
iyon	-9.07635
▁आधार	-9.07667
lic	-9.0767
tha	-9.07685
nce	-9.07772
▁निर्देश	-9.07823
▁still	-9.07909
वाद	-9.07926
▁school	-9.0795
▁News	-9.08025
one	-9.08046
▁फ़	-9.08085
▁यही	-9.08262
०	-9.08297
▁shamil	-9.08311
▁found	-9.08328
]	-9.08387
▁करीब	-9.08446
▁विचार	-9.08544
▁कैसे	-9.08578
▁2021	-9.08582
▁With	-9.08687
ara	-9.08795
▁took	-9.08799
▁सै	-9.0882
▁million	-9.08854
▁उपलब्ध	-9.08923
▁start	-9.08983
▁शादी	-9.09025
ugh	-9.09034
राज	-9.09037
▁देखा	-9.09061
▁case	-9.09069
▁head	-9.09092
र्ज	-9.09142
▁जिससे	-9.09164
vo	-9.09174
▁open	-9.09197
ps	-9.09207
J	-9.09245
ding	-9.09277
▁party	-9.09318
▁those	-9.0934
tal	-9.09387
▁बाल	-9.09409
▁change	-9.09426
बल	-9.09511
▁जिसे	-9.09514
io	-9.09536
मि	-9.09589
▁Ca	-9.09705
ेंगे	-9.09798
▁days	-9.09916
dha	-9.09943
▁पै	-9.1003
▁former	-9.10086
mu	-9.10186
▁Do	-9.10241
व्य	-9.10256
▁स्प	-9.10263
ving	-9.10299
▁मिली	-9.1033
▁डा	-9.10439
रों	-9.105
▁जन	-9.10575
▁नगर	-9.10583
फा	-9.10779
ुल	-9.10844
▁...	-9.10854
▁अप	-9.11116
द्ध	-9.11166
▁बह	-9.11169
▁2020	-9.11358
(	-9.1138
ाइट	-9.11592
बे	-9.11605
▁Lo	-9.11675
वाह	-9.11702
▁कोर्ट	-9.11714
▁अस	-9.11934
ld	-9.12049
9	-9.1214
▁fi	-9.12198
▁inter	-9.12248
▁छोड़	-9.12258
▁मौके	-9.12281
less	-9.12359
▁सवाल	-9.12473
ial	-9.12475
▁सड़क	-9.12552
em	-9.12574
▁सूचना	-9.12593
aj	-9.12613
▁लग	-9.1264
▁five	-9.12685
नो	-9.12831
hal	-9.12877
▁वै	-9.13069
दे	-9.13079
▁Z	-9.13123
▁गिर	-9.13182
▁ya	-9.13201
▁हजार	-9.13265
▁wo	-9.13294
▁कोशिश	-9.13302
ned	-9.13354
गर	-9.13424
▁market	-9.13443
ेंट	-9.13544
▁डॉ	-9.13599
hy	-9.13622
▁करोड़	-9.13647
ley	-9.13724
ward	-9.13786
▁गांधी	-9.13835
▁संख्या	-9.14003
taa	-9.14041
तर	-9.1407
ियन	-9.14162
▁Mu	-9.14248
▁चौ	-9.14259
▁एल	-9.14285
▁दल	-9.14323
▁पढ़	-9.14328
ियो	-9.14361
▁m	-9.14382
▁another	-9.14419
qui	-9.14428
▁run	-9.14476
▁seen	-9.14627
▁कुल	-9.14686
▁गयी	-9.14732
▁रंग	-9.14746
chi	-9.14799
▁तुम	-9.14812
▁कानून	-9.14817
सन	-9.14884
्म	-9.15121
▁Mar	-9.15202
▁रखा	-9.15269
ंब	-9.15291
dy	-9.15298
▁होना	-9.15303
▁स्	-9.15488
▁think	-9.15836
छ	-9.15919
▁लाल	-9.15963
▁love	-9.1605
िर	-9.16051
▁big	-9.16062
▁मौजूद	-9.16063
▁0	-9.16092
cing	-9.16273
▁लिखा	-9.16314
dd	-9.16382
▁पूरे	-9.16424
▁che	-9.1659
ign	-9.16657
▁निकाल	-9.16717
▁All	-9.16733
▁तौर	-9.16739
▁There	-9.16749
▁मंदिर	-9.16764
Y	-9.16797
rn	-9.16883
jan	-9.16985
▁50	-9.17175
mon	-9.17222
▁hi	-9.1735
▁जल	-9.17422
▁जिन	-9.17502
▁माध्यम	-9.17532
▁जि	-9.1754
▁gra	-9.17548
yu	-9.17725
▁स्तर	-9.17857
▁पि	-9.17894
▁return	-9.17972
ूर	-9.17994
uk	-9.18031
▁told	-9.18055
▁put	-9.18075
ेज	-9.18153
▁too	-9.1818
▁ri	-9.18191
▁हूँ	-9.1824
▁due	-9.18276
▁movie	-9.18322
▁today	-9.18389
▁बिना	-9.18634
the	-9.18651
हार	-9.18726
ative	-9.18738
ची	-9.18803
▁2019	-9.1882
▁order	-9.1887
▁पिता	-9.18944
हे	-9.18972
ेंद्र	-9.19138
▁उच्च	-9.19146
▁hoe	-9.19214
end	-9.19217
ko	-9.19329
▁सके	-9.1938
▁21	-9.19389
▁शा	-9.19563
▁लगता	-9.19565
▁कॉ	-9.19576
▁ar	-9.19659
esh	-9.19719
▁देव	-9.19752
▁बाजार	-9.19767
▁Fa	-9.19809
▁यादव	-9.19829
▁free	-9.19831
दर	-9.19944
श्	-9.19948
▁While	-9.19976
▁मेरी	-9.19983
▁सुबह	-9.20011
▁बयान	-9.20059
कल	-9.20065
▁pahale	-9.20154
."	-9.20177
▁मामला	-9.20185
▁naheen	-9.20266
▁came	-9.20335
▁six	-9.20403
▁क्रिकेट	-9.20632
qu	-9.20673
▁बो	-9.20685
▁face	-9.208
ator	-9.2082
्ल	-9.20992
▁वापस	-9.21016
ex	-9.21107
out	-9.21177
मेंट	-9.21296
डे	-9.21303
▁दूसरी	-9.21399
▁each	-9.2143
▁जाएगी	-9.2146
▁दु	-9.21535
mm	-9.21625
yo	-9.2171
▁Th	-9.21743
▁गिरफ्तार	-9.21753
▁बनाया	-9.21767
▁fans	-9.21833
▁Test	-9.22013
▁different	-9.2206
▁भाई	-9.22152
▁Cup	-9.22185
कि	-9.22225
▁विभिन्न	-9.2231
▁give	-9.22322
▁jo	-9.22324
यी	-9.22367
▁100	-9.22408
thi	-9.22465
भा	-9.22543
ंगी	-9.22633
▁own	-9.2272
▁pe	-9.22823
▁yaa	-9.22881
ye	-9.22923
ions	-9.22973
▁sign	-9.23025
▁चाहते	-9.23028
बर	-9.23053
ally	-9.23096
▁Pakistan	-9.23109
tin	-9.23123
▁सदस्य	-9.23208
▁lot	-9.23281
▁form	-9.23299
▁अधिकारियों	-9.23307
▁Ni	-9.23357
▁list	-9.23415
▁थीं	-9.23493
▁अमेरिका	-9.23546
▁पत्र	-9.23606
▁खास	-9.23634
हि	-9.23673
▁मां	-9.23705
yon	-9.2372
ship	-9.23846
▁हत्या	-9.23948
▁Raj	-9.23971
▁naam	-9.23999
▁al	-9.24009
▁pri	-9.24021
▁खरीद	-9.24065
▁men	-9.24111
▁कहते	-9.24115
▁भा	-9.24235
que	-9.24245
▁find	-9.24349
▁far	-9.24448
▁सही	-9.2449
ava	-9.24575
▁लगभग	-9.24615
ड़े	-9.24748
▁$	-9.24885
▁Wa	-9.2498
िय	-9.25031
स्त्र	-9.25058
▁Dr	-9.25076
▁परि	-9.25088
▁आग	-9.25228
ber	-9.2525
वाल	-9.25263
▁देखने	-9.25276
▁After	-9.25364
nu	-9.25433
शि	-9.25476
shan	-9.25484
▁रन	-9.25507
र्द	-9.25608
ig	-9.25658
▁role	-9.25791
▁name	-9.25806
▁ball	-9.2581
▁health	-9.25866
▁business	-9.25986
▁played	-9.26044
▁keep	-9.26164
▁hit	-9.26221
ov	-9.26296
▁offer	-9.263
▁दर	-9.26352
▁लाभ	-9.26397
▁प्रयास	-9.26407
▁बल्कि	-9.26526
▁across	-9.26671
▁पार	-9.26686
▁Ri	-9.26719
▁unhein	-9.2675
▁test	-9.26786
ze	-9.26794
▁प्रशासन	-9.2682
sion	-9.26836
ाद	-9.26836
चे	-9.26848
णा	-9.26853
gh	-9.26902
▁दक्षिण	-9.26903
ंप	-9.26941
▁[	-9.26943
▁चुके	-9.27089
▁social	-9.2712
राम	-9.27141
न्न	-9.2718
ev	-9.2727
▁official	-9.2732
war	-9.27393
▁बल	-9.27438
▁चर्चा	-9.27467
▁used	-9.27487
▁बच्चे	-9.27511
▁स्वास्थ्य	-9.27603
wan	-9.27637
▁power	-9.27649
▁लोक	-9.27851
िता	-9.27857
ual	-9.27863
गे	-9.27889
ाल	-9.2791
▁लो	-9.28089
▁latest	-9.2812
▁कार्रवाई	-9.28126
lin	-9.28162
▁runs	-9.28169
10	-9.28211
▁सहित	-9.28228
▁tri	-9.28255
ाइल	-9.28408
▁अच्छी	-9.28412
▁unake	-9.28431
ning	-9.28471
ced	-9.28568
▁club	-9.28606
▁goal	-9.28606
▁Al	-9.28671
▁भेज	-9.28706
▁लगातार	-9.28713
▁line	-9.28783
▁family	-9.28834
▁Ne	-9.28868
▁पक्ष	-9.2892
▁लड़	-9.29044
▁प्रो	-9.29064
▁शुरुआत	-9.29084
▁design	-9.29107
▁विधायक	-9.29169
▁close	-9.29202
▁What	-9.29332
▁स्क	-9.29345
▁मी	-9.29377
▁इस्तेमाल	-9.2939
गु	-9.29396
▁शिव	-9.29643
▁move	-9.29684
▁lu	-9.2969
▁group	-9.29739
यू	-9.29748
ging	-9.29785
▁remain	-9.29808
our	-9.29814
▁system	-9.29949
▁मुंबई	-9.30051
▁visit	-9.30084
▁पो	-9.30129
▁नौ	-9.30215
▁22	-9.30248
▁price	-9.30253
▁release	-9.30382
way	-9.30445
ण्ड	-9.30545
▁left	-9.30591
चार	-9.30723
aaya	-9.30804
▁South	-9.3081
▁Bu	-9.30841
iv	-9.30844
▁At	-9.30892
▁cr	-9.30926
▁court	-9.30938
▁सोशल	-9.30994
यो	-9.3117
▁होंगे	-9.31224
▁यात्रा	-9.31236
▁ठीक	-9.31244
▁इंडिया	-9.31296
▁Gu	-9.313
▁/	-9.31313
▁war	-9.31342
गो	-9.31357
▁शिकायत	-9.31453
▁लगी	-9.31469
▁Khan	-9.31537
ाना	-9.31642
▁real	-9.31648
▁महीने	-9.31689
धार	-9.31701
था	-9.31791
▁पत्नी	-9.31836
▁house	-9.32049
▁प्रेम	-9.32083
▁ju	-9.32091
▁कप	-9.32091
▁pass	-9.32096
नाथ	-9.32229
▁feel	-9.32268
▁deal	-9.32295
▁दिख	-9.32364
▁kha	-9.32441
ep	-9.32494
▁better	-9.32519
▁चा	-9.32541
▁Sha	-9.32729
▁lead	-9.32765
▁making	-9.32784
▁”	-9.32814
ढ	-9.32839
▁चलते	-9.3285
रु	-9.33011
▁month	-9.33153
au	-9.33193
ism	-9.3343
▁रखने	-9.33447
रत	-9.33537
▁जरूरत	-9.33552
▁ac	-9.3356
ities	-9.33616
dra	-9.33625
br	-9.33681
▁सू	-9.33733
▁जन्म	-9.33742
vin	-9.33792
▁website	-9.33919
▁taken	-9.34021
▁जवाब	-9.34057
▁given	-9.34155
धी	-9.3416
▁available	-9.34275
धि	-9.34287
ore	-9.34326
▁धन	-9.34338
▁लगाया	-9.34384
▁आदेश	-9.34455
ham	-9.34576
ati	-9.34682
time	-9.34752
▁crore	-9.34783
▁public	-9.34804
▁मध्य	-9.34826
▁व्यवस्था	-9.35019
ौर	-9.35042
ult	-9.35047
▁बिहार	-9.35071
▁करा	-9.35093
▁शेयर	-9.35194
18	-9.35221
ां	-9.35286
▁कहीं	-9.35384
▁ऊपर	-9.35482
▁experience	-9.35515
▁2018	-9.35531
▁प्रदान	-9.35532
▁23	-9.35536
▁provide	-9.35573
▁already	-9.35656
▁तेज	-9.35919
▁क्	-9.35955
ern	-9.36038
▁attack	-9.36044
ell	-9.36055
▁नही	-9.36058
▁पीछे	-9.36082
▁San	-9.36099
▁mi	-9.36354
▁किस	-9.36407
▁पोस्ट	-9.36408
▁land	-9.36486
tur	-9.36506
ala	-9.36697
▁बजे	-9.36803
ook	-9.36808
▁विधानसभा	-9.36813
▁ki	-9.37012
▁परीक्षा	-9.37038
र्ग	-9.37168
ens	-9.37282
▁शरीर	-9.3731
50	-9.37473
▁process	-9.37504
cu	-9.37538
ey	-9.37673
ient	-9.37695
▁away	-9.37711
▁Congress	-9.37802
▁समस्या	-9.37854
▁v	-9.37867
▁share	-9.37886
गत	-9.37917
ill	-9.37922
▁games	-9.37944
ek	-9.37986
▁1.	-9.38025
▁ban	-9.38045
डा	-9.38061
▁fun	-9.38063
▁याद	-9.3809
ney	-9.38127
▁become	-9.38166
ub	-9.38179
▁project	-9.38184
hit	-9.38197
gra	-9.38296
▁varsh	-9.38322
▁थाना	-9.38492
▁huaa	-9.38512
▁Pu	-9.38612
▁title	-9.38644
▁सेना	-9.38645
▁भाषा	-9.38674
जि	-9.38744
q	-9.38784
▁भगवान	-9.38787
▁महिलाओं	-9.3879
ेंस	-9.38826
▁—	-9.38845
▁aim	-9.38929
▁May	-9.39
▁#	-9.39048
ical	-9.39085
▁fight	-9.39205
▁pu	-9.39209
ali	-9.39216
▁women	-9.39327
▁संगठन	-9.39402
▁khel	-9.39446
सु	-9.39494
iz	-9.39536
▁दिखा	-9.39568
दान	-9.39635
back	-9.39654
ksh	-9.39687
act	-9.39782
▁फा	-9.39874
▁among	-9.39937
▁मिलने	-9.39948
▁राहुल	-9.40071
▁आयोजित	-9.40086
▁माना	-9.40231
▁level	-9.40262
▁गये	-9.40292
▁जु	-9.40356
ksha	-9.4047
kan	-9.405
▁According	-9.40532
▁सीट	-9.40561
स्था	-9.40622
▁पेश	-9.4081
30	-9.40875
dhi	-9.40877
▁w	-9.40929
▁रहते	-9.4124
▁ब्र	-9.41299
▁tra	-9.41326
▁sub	-9.41403
hee	-9.41423
▁dou	-9.41433
▁टे	-9.41578
▁प्रभाव	-9.41604
▁चुकी	-9.41608
▁sent	-9.41692
▁सरकारी	-9.41751
ज़ा	-9.41787
▁again	-9.41795
We	-9.41806
र्न	-9.41875
▁लि	-9.41895
▁प्यार	-9.41938
▁अवसर	-9.4195
▁announced	-9.42089
▁युवक	-9.4221
ल्ल	-9.42269
▁जल्द	-9.42291
so	-9.4233
▁आपकी	-9.42363
▁points	-9.42395
▁हमारी	-9.42395
▁चीन	-9.42416
▁१	-9.42423
▁बने	-9.42445
lla	-9.42533
▁without	-9.42653
▁ko	-9.42675
शु	-9.42726
ल्ड	-9.42726
मु	-9.42878
▁main	-9.42948
▁देता	-9.43011
▁आरोपी	-9.43031
▁पसंद	-9.4307
▁cricket	-9.43096
▁jaa	-9.43247
ite	-9.4326
▁संघ	-9.43268
▁several	-9.43324
▁एड	-9.43335
▁इतना	-9.43403
▁water	-9.43415
▁देर	-9.43459
▁बच	-9.43538
▁26	-9.43585
िव	-9.43627
▁सुविधा	-9.43672
maan	-9.43738
▁उसी	-9.43748
ice	-9.43752
▁might	-9.43802
▁कीमत	-9.43861
ments	-9.43873
्री	-9.43891
पन	-9.44023
▁सीमा	-9.44125
▁चु	-9.44229
▁रू	-9.44231
▁action	-9.44324
ाइड	-9.44352
day	-9.44428
▁गलत	-9.44487
nder	-9.44636
▁say	-9.44685
▁min	-9.44691
▁2017	-9.44786
▁विषय	-9.44901
ेस	-9.44973
स्थ	-9.45003
▁वक्त	-9.45036
ny	-9.45036
▁actor	-9.45045
▁raajya	-9.45054
lar	-9.45176
ल्स	-9.45191
arth	-9.45232
▁third	-9.45259
hat	-9.45287
वान	-9.45308
ग्	-9.45312
▁बनाए	-9.45355
▁सात	-9.45381
▁talk	-9.45404
mar	-9.45422
▁kshetra	-9.45468
▁League	-9.45523
den	-9.45528
▁Ad	-9.45557
bh	-9.45725
▁present	-9.4573
नों	-9.45736
ूल	-9.45767
▁रोक	-9.45772
लैंड	-9.45792
▁past	-9.45804
▁district	-9.45849
▁data	-9.45869
▁bring	-9.46007
▁went	-9.46065
▁question	-9.46145
▁call	-9.46158
▁बीजेपी	-9.4618
▁along	-9.46239
▁story	-9.46262
ition	-9.46269
nda	-9.46334
▁Ki	-9.46379
▁40	-9.46384
▁sur	-9.46387
▁major	-9.46523
▁statement	-9.46707
ors	-9.46714
▁फैसला	-9.46786
-1	-9.46884
▁BJP	-9.46892
▁Chief	-9.46981
ler	-9.46985
▁अर्थ	-9.46988
▁गंभीर	-9.46988
▁performance	-9.47012
▁held	-9.47016
▁England	-9.47019
▁important	-9.4702
▁meeting	-9.47034
▁jisamen	-9.47069
सि	-9.4712
र्थ	-9.47316
▁person	-9.47332
िम	-9.47387
ets	-9.47427
lam	-9.47449
ug	-9.47473
kha	-9.47483
▁called	-9.47497
▁Ke	-9.47503
▁कं	-9.47543
ून	-9.47576
टो	-9.47599
▁point	-9.47724
und	-9.47753
▁पहुंचे	-9.47767
rk	-9.47773
▁plan	-9.47811
क्रम	-9.47845
ase	-9.47863
▁पहचान	-9.4788
▁shahar	-9.4791
▁Pra	-9.4796
▁होकर	-9.4798
▁28	-9.47992
▁sta	-9.48011
▁पति	-9.48013
वास	-9.48032
▁further	-9.48038
raj	-9.48048
▁राय	-9.48098
▁देखते	-9.48109
▁अभि	-9.4816
▁सोमवार	-9.48311
▁टेस्ट	-9.48343
▁chi	-9.48346
▁hue	-9.48377
ctor	-9.48422
▁Mumbai	-9.48521
▁2016	-9.48588
कृत	-9.48657
▁फोन	-9.48676
▁following	-9.48757
▁टा	-9.48806
एल	-9.48825
▁पकड़	-9.48862
nal	-9.48924
▁says	-9.48934
▁pur	-9.48964
▁हिस्सा	-9.48965
form	-9.48993
ect	-9.49007
▁देना	-9.49101
▁महत्वपूर्ण	-9.49108
▁started	-9.49183
▁hard	-9.4931
जर	-9.49376
▁राष्ट्रपति	-9.49401
▁हमेशा	-9.49489
चर	-9.49652
▁com	-9.49677
▁Ru	-9.49678
▁har	-9.49685
▁फे	-9.49781
▁चुका	-9.498
▁kartaa	-9.49834
▁मेरा	-9.49844
णी	-9.49875
▁व्यापार	-9.49911
ming	-9.49922
▁wa	-9.49953
▁फि	-9.49967
▁decision	-9.49974
प्प	-9.49996
▁coach	-9.50051
row	-9.50053
▁गीत	-9.5006
▁char	-9.50088
▁recently	-9.50119
ral	-9.50149
युक्त	-9.50162
mor	-9.5034
म्	-9.50408
▁कोरोना	-9.50416
்	-9.50477
▁|	-9.50522
▁United	-9.50635
▁ख़	-9.50681
▁27	-9.50698
▁tu	-9.50701
▁When	-9.50715
▁sthit	-9.50718
▁बेहतर	-9.50837
▁follow	-9.50898
▁संयुक्त	-9.50903
vel	-9.50922
dar	-9.50934
ट्ट	-9.51023
फो	-9.51107
▁स्थानीय	-9.51132
▁Pe	-9.5119
▁things	-9.5126
▁yet	-9.51266
▁Har	-9.5127
mal	-9.51361
ika	-9.51393
▁released	-9.51416
ries	-9.51495
सर	-9.51495
▁station	-9.51503
▁जोड़	-9.51563
▁football	-9.51566
▁Am	-9.51629
▁वालों	-9.51632
ाम	-9.51653
▁विश्वविद्यालय	-9.51756
▁पड़ा	-9.51758
ju	-9.51766
▁दोस्त	-9.51877
val	-9.51879
▁u	-9.51919
▁ste	-9.52027
पो	-9.52038
▁asked	-9.5207
▁सहयोग	-9.52169
▁does	-9.52179
▁राशि	-9.52181
▁बैठ	-9.52223
▁always	-9.52273
▁cap	-9.52347
▁West	-9.52392
▁imp	-9.52537
▁short	-9.52551
men	-9.52563
ram	-9.52569
कारी	-9.52585
ॉल	-9.52655
▁दिखाई	-9.52679
▁include	-9.52705
cy	-9.52757
▁bar	-9.52772
▁Bha	-9.52782
▁Australia	-9.52806
▁X	-9.52967
▁ज़	-9.52995
▁ताकि	-9.53011
▁mil	-9.53017
स्प	-9.53021
▁नव	-9.53088
▁apani	-9.53142
वीं	-9.53265
▁sl	-9.53399
pped	-9.53432
फी	-9.53437
▁समिति	-9.53445
▁Google	-9.53489
▁stand	-9.53508
mission	-9.53541
▁player	-9.53555
▁Ko	-9.53559
▁प्रक्रिया	-9.53597
▁जून	-9.536
▁सचिव	-9.53609
▁वर्ग	-9.53624
▁dha	-9.53626
tter	-9.53659
ोन	-9.53674
▁सर्व	-9.53714
▁बोर्ड	-9.53721
▁Monday	-9.53812
▁Friday	-9.5389
▁नीचे	-9.54003
द्	-9.54127
▁शाह	-9.54155
▁continue	-9.54175
िस्ट	-9.54192
▁One	-9.54223
सं	-9.54363
▁घायल	-9.54375
यल	-9.54389
ग्र	-9.54492
िटी	-9.54529
▁पंजाब	-9.54561
▁फोटो	-9.54583
▁special	-9.54612
▁full	-9.54675
▁young	-9.54727
mba	-9.5485
मर	-9.54851
▁घोषणा	-9.54879
ेगा	-9.5492
part	-9.54988
▁फै	-9.55003
▁Twitter	-9.55011
▁read	-9.55018
rate	-9.55024
बू	-9.55081
▁expected	-9.55105
ku	-9.55112
▁break	-9.55116
▁information	-9.55137
▁city	-9.55169
▁पं	-9.55237
एफ	-9.55279
तन	-9.55326
▁जमा	-9.55355
▁अल	-9.55391
ban	-9.55393
▁book	-9.55396
▁वी	-9.55428
▁उम्मीद	-9.55449
▁trans	-9.5547
vaa	-9.55478
▁कमी	-9.55479
▁2.	-9.55608
▁प्रकाश	-9.557
कु	-9.55724
▁consider	-9.5574
▁अंत	-9.55836
▁ke	-9.55884
▁Sh	-9.55948
▁aeye	-9.55961
▁sh	-9.56069
▁देशों	-9.5609
▁ठ	-9.56116
▁months	-9.56209
▁air	-9.56278
iti	-9.56307
▁विवाद	-9.5636
▁stay	-9.56384
▁इतिहास	-9.56388
ड्र	-9.56412
▁भारी	-9.5643
▁नंबर	-9.56456
पूर्ण	-9.56499
▁National	-9.56599
काल	-9.56634
▁कौन	-9.56647
शे	-9.56699
▁आय	-9.56715
▁मार्ग	-9.5676
गल	-9.56805
▁pee	-9.56819
lt	-9.56876
ized	-9.56878
▁reported	-9.56967
▁मूल	-9.57038
▁able	-9.5711
▁संबंधित	-9.57167
्ज	-9.5719
▁total	-9.57214
med	-9.5729
▁tournament	-9.57301
ina	-9.57399
▁mar	-9.57401
▁hold	-9.57414
▁भूमिका	-9.5747
▁किसानों	-9.57475
wal	-9.57496
फ्र	-9.57557
▁दूसरा	-9.57678
▁believe	-9.57679
ंध	-9.57717
ide	-9.57755
▁playing	-9.5776
▁ku	-9.57862
▁शुक्रवार	-9.57935
▁हासिल	-9.57983
▁वाहन	-9.58004
तु	-9.58009
▁later	-9.58075
▁according	-9.58153
▁Pri	-9.58271
ants	-9.58361
▁kaee	-9.58384
par	-9.58393
▁शाम	-9.58399
▁banaa	-9.5841
san	-9.58423
▁अधिकार	-9.58451
ांत	-9.58454
ised	-9.58456
▁नया	-9.58549
▁शक्ति	-9.58579
▁बॉ	-9.5861
▁Pi	-9.58616
दीप	-9.58631
ress	-9.58639
▁clear	-9.58752
▁राष्ट्र	-9.58811
▁kar	-9.58852
▁छोटे	-9.58979
▁Sri	-9.58995
▁साफ	-9.59026
लू	-9.59169
▁यहाँ	-9.59301
▁सम्	-9.59335
ार्थ	-9.59335
▁प्रा	-9.59336
je	-9.59374
▁बढ़ा	-9.59456
▁upayog	-9.59552
▁minister	-9.59598
सार	-9.59643
▁2015	-9.59655
chan	-9.59713
▁पाया	-9.59874
▁लौट	-9.59897
▁राजनीतिक	-9.59977
▁comment	-9.59982
▁उम्मीदवार	-9.59987
चित	-9.60053
yaa	-9.60077
्न	-9.60109
▁recent	-9.60132
▁phone	-9.60191
▁must	-9.60209
▁je	-9.60316
▁Du	-9.60372
▁एंड	-9.60374
ability	-9.60442
lf	-9.60456
▁Kumar	-9.6046
ंगा	-9.60488
▁मंगलवार	-9.60498
▁cre	-9.60595
्त	-9.60622
▁em	-9.60629
ठा	-9.60645
▁Wednesday	-9.60709
ever	-9.6071
▁platform	-9.60715
▁view	-9.60724
▁केंद्रीय	-9.60797
▁fe	-9.60808
▁समर्थन	-9.60808
▁develop	-9.60814
▁having	-9.6087
▁पहला	-9.60901
ल्ट	-9.61023
▁His	-9.61091
▁body	-9.61181
▁2014	-9.61189
▁Sunday	-9.61345
▁अंतिम	-9.61354
▁Hu	-9.6137
▁रहता	-9.61371
गढ़	-9.61393
▁प्रयोग	-9.61408
ुर	-9.61443
▁Pre	-9.61466
▁रुपए	-9.61495
▁account	-9.61516
्रो	-9.61548
▁WWE	-9.61556
▁Tuesday	-9.61586
▁comes	-9.61589
▁हार	-9.61597
▁lekin	-9.61608
pan	-9.61632
▁strong	-9.61645
▁various	-9.61662
▁night	-9.61668
देव	-9.61687
▁never	-9.61759
▁watch	-9.61783
hor	-9.6181
▁अंक	-9.61812
▁working	-9.61886
▁अंदर	-9.62007
▁गाय	-9.62072
cent	-9.6209
▁अभियान	-9.62115
▁taking	-9.6217
निक	-9.62272
over	-9.62327
नगर	-9.62374
▁कदम	-9.62447
▁लेख	-9.62485
▁भू	-9.62516
▁उससे	-9.62517
▁deliver	-9.62535
▁poor	-9.62595
▁अदालत	-9.62612
ियम	-9.62654
▁रविवार	-9.62785
▁पुरुष	-9.6279
▁device	-9.62814
▁really	-9.6282
▁President	-9.62844
▁निवासी	-9.62858
▁मोह	-9.62882
ration	-9.62909
yog	-9.62929
ip	-9.62977
▁pick	-9.63056
▁bra	-9.63212
▁बुधवार	-9.63236
serv	-9.63241
▁kaam	-9.63262
▁ब्ल	-9.63264
▁फ्ल	-9.63271
▁vaale	-9.63514
एँ	-9.63554
▁मार्च	-9.63635
▁2011	-9.63699
▁बर्	-9.63745
▁international	-9.63889
करण	-9.63894
▁let	-9.63919
▁स्टेशन	-9.63921
▁आर्थिक	-9.63925
▁adhik	-9.63981
ious	-9.6404
▁Prime	-9.64063
▁God	-9.64078
प्त	-9.64089
▁31	-9.64117
▁मंत्रालय	-9.64148
▁हज़ार	-9.6416
वें	-9.64164
pos	-9.64191
▁Shi	-9.64214
▁term	-9.64222
are	-9.6423
▁2013	-9.64264
▁Thursday	-9.64425
▁2010	-9.64454
11	-9.64476
च्च	-9.64497
स्ट्र	-9.64592
▁प्रतिशत	-9.64631
ible	-9.64636
यां	-9.64665
▁नागरिक	-9.64729
नु	-9.64747
▁समूह	-9.64782
ुक	-9.64798
dic	-9.64808
▁election	-9.64881
desh	-9.64903
▁शनिवार	-9.65012
▁मानव	-9.65036
▁reason	-9.65056
▁नेताओं	-9.65059
▁That	-9.65175
▁बिजली	-9.65268
▁score	-9.65272
टन	-9.65341
qua	-9.65344
कर्ता	-9.65366
ियाँ	-9.65368
▁development	-9.65396
▁Ram	-9.65489
▁एक्स	-9.65526
ुआ	-9.65549
▁Fi	-9.65552
ष्	-9.65567
▁29	-9.65583
▁future	-9.6564
▁आयोजन	-9.65655
▁matches	-9.65669
▁using	-9.65674
▁par	-9.65685
▁host	-9.65701
▁online	-9.65748
▁आठ	-9.65752
put	-9.65768
▁2012	-9.65769
▁aff	-9.65787
az	-9.65808
▁बेहद	-9.65811
▁turn	-9.65843
▁करवा	-9.65882
▁hope	-9.65924
▁शायद	-9.65934
▁times	-9.65942
▁वही	-9.65952
▁तय	-9.65956
▁others	-9.65959
त्य	-9.65967
▁Ye	-9.66042
िज	-9.66104
पे	-9.66129
▁cost	-9.66149
▁खिलाड़ी	-9.66154
rish	-9.66187
▁known	-9.66204
▁अमेरिकी	-9.66234
▁मिले	-9.66268
▁join	-9.66294
▁Qu	-9.66424
▁teams	-9.66473
क़	-9.66489
▁users	-9.66553
▁कॉलेज	-9.66671
cre	-9.66764
▁बॉलीवुड	-9.66826
str	-9.66859
▁ट्रेन	-9.66994
▁interest	-9.67
▁career	-9.67033
▁Bi	-9.67054
▁unaki	-9.67091
▁जेल	-9.67103
▁Car	-9.67175
band	-9.67245
▁prati	-9.67285
▁1,	-9.67292
zi	-9.67373
ब्	-9.67521
ंदा	-9.67548
▁round	-9.67622
fer	-9.6769
▁वरिष्ठ	-9.67708
▁soon	-9.67716
▁मं	-9.67719
cc	-9.67766
▁cho	-9.67786
▁pari	-9.6793
▁law	-9.67976
▁service	-9.68047
▁नी	-9.68093
निया	-9.68112
sco	-9.68115
▁cover	-9.68147
side	-9.6818
dia	-9.68205
एन	-9.68255
▁लगाने	-9.68377
▁तस्वीर	-9.68385
▁shared	-9.68397
een	-9.68466
▁राजनीति	-9.68474
ric	-9.68594
▁आता	-9.68684
तः	-9.68696
▁भाव	-9.68745
▁ten	-9.68787
ong	-9.68788
▁सिर	-9.68824
▁aiss	-9.68873
▁rate	-9.68884
▁looking	-9.6895
र्च	-9.68962
▁अगले	-9.68965
▁छात्र	-9.69014
ose	-9.69112
भर	-9.69113
▁bee	-9.69139
▁spot	-9.6928
▁lost	-9.69414
▁Wi	-9.69424
▁युवा	-9.69453
▁done	-9.69529
▁members	-9.69545
▁समान	-9.69596
▁getting	-9.69611
▁दुकान	-9.69626
▁problem	-9.69636
▁भर्ती	-9.69636
▁fo	-9.69639
▁ग्र	-9.69662
▁अपराध	-9.69687
▁पंचायत	-9.69719
ush	-9.6974
▁dakshin	-9.69776
▁कश्मीर	-9.69807
▁किसान	-9.69822
वादी	-9.69833
_	-9.69836
12	-9.69898
▁जमीन	-9.69901
▁step	-9.69902
▁dar	-9.69904
ple	-9.69929
▁age	-9.6999
▁सांसद	-9.69993
wn	-9.70017
▁अनुभव	-9.70096
▁office	-9.70107
nic	-9.70144
खे	-9.70147
▁students	-9.70186
▁डॉक्टर	-9.70225
▁हटा	-9.70228
▁रेलवे	-9.70275
▁maan	-9.70354
▁पहन	-9.70358
▁Mr	-9.7037
ec	-9.70386
▁Je	-9.70402
▁कार्यालय	-9.70442
▁large	-9.70471
▁March	-9.7049
पति	-9.70494
▁बनी	-9.70637
▁बेटी	-9.70684
▁Pat	-9.70705
▁source	-9.70741
▁kiye	-9.7077
▁हमने	-9.70828
▁feature	-9.70888
वत	-9.70932
दि	-9.70942
ठी	-9.71016
▁मू	-9.71036
▁coming	-9.71054
देश	-9.71081
X	-9.71085
▁बिल	-9.71099
▁जिसका	-9.71129
nam	-9.71157
dan	-9.71198
var	-9.71224
▁हवा	-9.71272
▁ढ	-9.71329
tre	-9.71352
▁साध	-9.71386
adi	-9.7143
▁मजबूत	-9.71485
▁sthaan	-9.71508
▁fact	-9.71513
▁आवश्यकता	-9.71522
वेद	-9.71523
▁sabse	-9.71537
िप	-9.71539
75	-9.71607
▁earlier	-9.71628
▁local	-9.71641
न्ना	-9.71649
▁national	-9.71693
▁anu	-9.71724
▁beach	-9.71734
▁आइ	-9.71745
▁उपस्थित	-9.71751
▁निर्	-9.71755
▁baar	-9.71784
▁रहती	-9.7184
▁गि	-9.71878
▁बल्लेबाज	-9.719
लर	-9.7202
ged	-9.7211
▁आदमी	-9.72181
lock	-9.72211
▁सुधार	-9.72293
▁बारिश	-9.72324
▁option	-9.72325
▁पॉ	-9.72329
▁launch	-9.72377
ंडे	-9.72462
▁शब्द	-9.72538
nga	-9.72583
▁allow	-9.72604
▁पहुंचा	-9.72627
▁हमला	-9.72707
टिंग	-9.72732
फ्ट	-9.72736
cle	-9.72738
▁खोल	-9.72748
▁वर्तमान	-9.72842
न्स	-9.72852
▁matter	-9.72881
▁demand	-9.72898
▁likely	-9.72906
▁Un	-9.72909
▁आते	-9.72934
▁झा	-9.72948
▁light	-9.72952
by	-9.7297
▁नीति	-9.73073
▁shi	-9.73099
▁half	-9.73191
▁लें	-9.73215
▁nu	-9.73246
▁vishvavidyalaya	-9.73263
▁तरीके	-9.73283
▁फर्	-9.73284
▁Police	-9.73289
▁मर	-9.73328
ew	-9.73337
▁मौसम	-9.73357
▁gi	-9.73384
▁karate	-9.73622
▁कपूर	-9.73667
▁chief	-9.73692
▁आयोग	-9.73706
▁निर्णय	-9.73733
▁जय	-9.73739
▁वन	-9.73775
ंडा	-9.7387
भार	-9.73916
▁early	-9.73919
ome	-9.73984
हन	-9.74038
▁पूर्ण	-9.74039
▁पैदा	-9.74065
▁Saturday	-9.74091
▁act	-9.74172
ब्ब	-9.74223
▁Super	-9.74243
▁Ex	-9.74252
▁Modi	-9.74287
▁उठ	-9.74313
▁nir	-9.74336
▁छात्रों	-9.74353
▁ज्ञान	-9.74363
▁cases	-9.74442
17	-9.74473
▁खुश	-9.74474
▁loss	-9.74481
▁dauran	-9.74494
▁death	-9.74495
▁control	-9.74502
▁माल	-9.74552
▁TV	-9.74654
▁जैसी	-9.74723
▁Court	-9.7478
▁song	-9.74797
▁jaba	-9.74801
hen	-9.74837
▁track	-9.74857
लिया	-9.74934
▁गर्म	-9.74941
▁rest	-9.74984
▁director	-9.74993
▁charge	-9.75026
▁कप्तान	-9.751
िंद	-9.7512
▁screen	-9.75148
सो	-9.75153
▁Par	-9.75208
▁China	-9.75221
▁संगीत	-9.75252
▁Pradesh	-9.7527
▁previous	-9.75288
▁old	-9.75428
▁poorv	-9.75456
▁once	-9.75473
▁करेगा	-9.75497
भाव	-9.75607
▁मौ	-9.75613
ue	-9.75643
▁bank	-9.75682
▁small	-9.75684
▁प्रधान	-9.75835
▁दिवस	-9.75876
पोर्ट	-9.75918
▁ut	-9.75931
▁आपका	-9.75957
▁कहानी	-9.75986
▁तेल	-9.7603
nish	-9.76035
▁स्पष्ट	-9.76045
▁model	-9.76095
ट्र	-9.76114
▁Kar	-9.76122
▁result	-9.76139
▁saying	-9.76173
▁heart	-9.76193
▁क्षेत्रों	-9.76194
▁सामान्य	-9.76354
सू	-9.76401
▁कराया	-9.76422
▁samay	-9.76463
ेक्ट	-9.76483
▁shuru	-9.76491
एंगे	-9.76511
▁champion	-9.76518
▁Government	-9.76528
▁pay	-9.76543
▁बावजूद	-9.76575
▁बातचीत	-9.76603
▁नरेंद्र	-9.76604
▁कब	-9.7662
ाबाद	-9.76687
▁दरअसल	-9.76705
▁moment	-9.76715
ल्ला	-9.7672
run	-9.76756
▁money	-9.76815
▁gen	-9.7682
▁आवेदन	-9.76822
▁छह	-9.76824
▁near	-9.76826
ST	-9.76883
▁currently	-9.76897
daa	-9.76905
वल	-9.76916
mark	-9.76955
्ड	-9.7701
▁लड़की	-9.77074
▁content	-9.77078
▁technology	-9.77136
धान	-9.7715
▁Com	-9.7719
▁area	-9.77191
vol	-9.77199
hon	-9.77223
▁सामाजिक	-9.77267
र्त	-9.77279
▁enter	-9.77317
▁access	-9.77323
▁खुल	-9.77324
यन	-9.77328
ker	-9.77333
vid	-9.77334
▁पुस्तक	-9.77335
▁services	-9.77382
डि	-9.77463
fo	-9.77545
▁घंटे	-9.77554
▁प्रस्ताव	-9.77563
क्षित	-9.7762
mber	-9.77632
▁सत्ता	-9.77637
▁निवेश	-9.77718
15	-9.77768
ग्रह	-9.77811
ेस्ट	-9.77886
▁security	-9.77928
▁लागू	-9.77935
बि	-9.77939
▁हॉ	-9.77949
▁Bollywood	-9.77949
▁(19	-9.77954
▁चले	-9.77986
▁something	-9.78047
▁नदी	-9.78059
ियर	-9.78118
▁IPL	-9.78214
▁anya	-9.78219
त्व	-9.78276
▁finish	-9.78362
gen	-9.78376
▁जनवरी	-9.7842
16	-9.78448
▁seven	-9.78502
▁पुत्र	-9.78524
▁सुख	-9.78542
▁लेते	-9.78548
▁picture	-9.78649
▁together	-9.78663
ब्र	-9.78666
ोड	-9.7867
▁निजी	-9.78709
िड	-9.78733
▁मई	-9.7875
▁विदेश	-9.78798
▁जरूरी	-9.78811
▁add	-9.78828
▁उनसे	-9.7883
▁विजय	-9.7883
▁चे	-9.78832
▁दिशा	-9.78864
▁personal	-9.7898
▁music	-9.79093
▁गुरु	-9.79095
▁पूजा	-9.79154
▁कट	-9.7916
▁June	-9.79191
डो	-9.79233
▁संसद	-9.79265
▁leader	-9.79301
▁rashtriya	-9.79439
mate	-9.79445
क्त	-9.79477
▁प्रभावित	-9.79483
-20	-9.79566
ified	-9.79566
▁माता	-9.79606
▁Sp	-9.79622
ाब	-9.79653
▁quarter	-9.79684
ालय	-9.797
▁हों	-9.79754
▁leg	-9.79805
▁रक्षा	-9.79825
▁Va	-9.79828
▁character	-9.79846
▁situation	-9.79875
▁cause	-9.79911
▁नुकसान	-9.80001
▁जाय	-9.80037
्वा	-9.80053
▁टो	-9.80118
dal	-9.80128
▁जाएंगे	-9.80129
▁एफ	-9.80206
▁mark	-9.80239
▁अच्छे	-9.80242
▁bad	-9.80252
▁Or	-9.80287
round	-9.80331
▁why	-9.80338
▁Day	-9.8034
▁April	-9.80348
▁पीएम	-9.80364
▁रोड	-9.80392
60	-9.80403
▁jeevan	-9.80409
▁whether	-9.80419
▁children	-9.80433
▁शव	-9.80437
▁सत	-9.80496
ड्ड	-9.80513
▁swa	-9.80538
▁जुड़े	-9.80573
क्शन	-9.80596
▁पड़ता	-9.80713
▁राजस्थान	-9.80717
23	-9.80721
ou	-9.80726
▁learn	-9.80765
ification	-9.80788
▁Ju	-9.80846
▁praapt	-9.80868
▁नोट	-9.80881
▁Sam	-9.80885
▁सम्मान	-9.80888
▁concern	-9.80973
bor	-9.80974
▁college	-9.8108
▁met	-9.81088
्रे	-9.81165
▁खो	-9.8128
▁चू	-9.81317
▁Apple	-9.81354
▁couple	-9.81366
▁road	-9.81397
▁मगर	-9.81406
▁issue	-9.81419
▁संभावना	-9.81509
▁आवाज	-9.81513
▁focus	-9.8165
▁jise	-9.81655
▁भविष्य	-9.81681
▁card	-9.81712
tory	-9.81792
▁gha	-9.81796
स्ती	-9.81806
pic	-9.81843
▁खत्म	-9.81882
▁field	-9.81959
▁date	-9.82023
▁wickets	-9.82038
▁पाए	-9.82039
▁honey	-9.82047
▁तेजी	-9.82054
बार	-9.82066
▁captain	-9.8207
▁रिलीज	-9.821
▁टि	-9.82148
pro	-9.82162
▁सारे	-9.82179
ीकरण	-9.82217
्‍	-9.82292
▁little	-9.82405
fu	-9.82405
▁condition	-9.82423
▁मोबाइल	-9.82437
▁वैसे	-9.82444
ंडर	-9.82484
▁fra	-9.82484
▁incident	-9.82495
▁shot	-9.82496
tel	-9.82528
ama	-9.82634
▁link	-9.82669
haan	-9.82679
oc	-9.82687
▁Now	-9.82734
▁उम्र	-9.82742
▁My	-9.82744
▁राजा	-9.82793
▁class	-9.82803
न्त	-9.82879
हरा	-9.82916
▁ahead	-9.82929
▁president	-9.82988
▁Act	-9.83012
▁जैसा	-9.83128
▁claim	-9.83161
▁2008	-9.83233
बो	-9.83237
▁Tra	-9.83274
▁2009	-9.83452
bar	-9.83466
low	-9.835
स्व	-9.83544
▁popular	-9.83564
vision	-9.83625
▁bat	-9.83718
▁industry	-9.83725
▁नेतृत्व	-9.83732
▁region	-9.83785
▁बनने	-9.83803
▁challenge	-9.83893
▁युद्ध	-9.83893
▁टीवी	-9.83897
▁मत	-9.83912
▁phir	-9.83928
ट्स	-9.83981
▁kuchh	-9.84077
रेट	-9.84192
▁बेटे	-9.84225
riya	-9.84244
ency	-9.8428
if	-9.84293
▁behind	-9.84313
▁प्रवेश	-9.84348
▁less	-9.84412
ंगे	-9.84422
▁Here	-9.84453
▁सीएम	-9.84462
▁ise	-9.84465
▁कार्ड	-9.8451
▁ऐ	-9.84523
▁improve	-9.84548
▁स्वयं	-9.84578
▁super	-9.8458
यु	-9.84595
ॉट	-9.84604
▁उद्योग	-9.84659
▁हु	-9.84684
▁chance	-9.84736
▁हिंदी	-9.84741
▁Shah	-9.8475
▁Pan	-9.84841
▁site	-9.84866
▁गृह	-9.84867
▁माह	-9.84949
19	-9.84952
ping	-9.84993
▁food	-9.85039
▁जुलाई	-9.8505
▁officials	-9.85065
▁उत्	-9.85078
▁Africa	-9.85096
tta	-9.85097
▁सच	-9.8518
▁परिणाम	-9.85185
▁रिकॉर्ड	-9.8526
▁front	-9.85286
▁forward	-9.85315
इस	-9.85318
▁मना	-9.85394
▁अप्रैल	-9.85416
▁Fe	-9.85445
cess	-9.85448
▁companies	-9.85461
ख्	-9.85489
▁sure	-9.85539
▁स्टार	-9.85598
▁दस	-9.85605
gal	-9.85625
65	-9.85633
▁विश्वास	-9.85639
▁इलाज	-9.85643
▁देवी	-9.85649
▁effort	-9.85722
▁teen	-9.85751
▁बेच	-9.85769
▁January	-9.85781
▁सामना	-9.85815
rry	-9.85818
▁योग	-9.85835
▁ob	-9.85954
99	-9.86
पु	-9.86043
चल	-9.86094
▁सभा	-9.861
▁परेशान	-9.86134
▁led	-9.86157
▁वर्	-9.86163
▁=	-9.86237
70	-9.86244
▁रोग	-9.86316
▁पीड़ित	-9.86363
▁job	-9.86374
▁अगस्त	-9.86382
▁July	-9.86399
▁scored	-9.86431
जित	-9.86435
▁मैदान	-9.86456
धे	-9.86479
▁रॉ	-9.86527
▁जै	-9.8654
▁position	-9.8654
af	-9.8658
▁देकर	-9.86596
▁कर्मचारियों	-9.86615
cial	-9.86624
▁select	-9.86645
lon	-9.86679
दर्श	-9.86681
▁within	-9.86708
bit	-9.86798
▁करे	-9.86862
▁स्थापित	-9.86879
▁आती	-9.86898
▁received	-9.86929
▁sangeet	-9.86939
▁didn	-9.86983
pre	-9.87
▁कराने	-9.87029
▁ago	-9.87162
▁reports	-9.87199
▁उतर	-9.87214
▁mukhya	-9.87221
▁गुजरात	-9.87268
▁पैर	-9.87272
▁२	-9.8729
क्र	-9.87331
▁परिषद	-9.87349
▁निगम	-9.87359
ack	-9.87432
▁expect	-9.87462
▁सत्र	-9.87472
▁ever	-9.87475
▁चै	-9.87478
ज्ज	-9.87496
ution	-9.87507
▁तोड़	-9.87591
▁चाहता	-9.87604
▁पू	-9.8766
▁countries	-9.87661
▁single	-9.87665
▁ski	-9.87707
▁हरियाणा	-9.87737
ved	-9.8776
▁based	-9.87762
▁*	-9.87787
▁seva	-9.87869
वाई	-9.87884
▁पुरस्कार	-9.87935
▁निभा	-9.87936
▁किये	-9.87954
▁least	-9.87975
▁ge	-9.88087
▁न्यायालय	-9.88139
▁Bra	-9.88195
▁Hi	-9.88213
▁brand	-9.8832
▁दावा	-9.88347
long	-9.88362
▁lakh	-9.88369
▁Will	-9.88397
▁features	-9.8849
ez	-9.88506
▁global	-9.88528
▁जानते	-9.88572
▁पूछ	-9.88617
▁stop	-9.88634
▁unit	-9.88634
▁समाप्त	-9.88661
ida	-9.88685
▁upcoming	-9.88841
▁टै	-9.88849
▁tweet	-9.88887
roll	-9.88913
bra	-9.88918
gin	-9.88938
▁Tri	-9.89031
▁वोट	-9.89082
paschim	-9.89124
▁खेत	-9.89125
▁चरण	-9.89161
▁fire	-9.89203
of	-9.89233
▁उसमें	-9.89237
▁tour	-9.89271
cal	-9.89302
▁though	-9.89374
▁cut	-9.89386
▁इलाके	-9.89397
▁low	-9.89408
▁आतंकवाद	-9.89412
AT	-9.89431
▁डर	-9.89433
▁possible	-9.89622
▁pan	-9.89624
▁कला	-9.89628
▁suggest	-9.8963
▁सजा	-9.89641
▁Sur	-9.89671
▁port	-9.8969
hin	-9.89691
▁भीतर	-9.89703
▁जहाँ	-9.8977
▁travel	-9.89794
▁board	-9.89818
▁album	-9.89894
wo	-9.89901
25	-9.89909
▁न्याय	-9.89927
▁ऑस्ट्रेलिया	-9.89941
95	-9.89943
▁यानी	-9.90036
▁मुश्किल	-9.90042
▁ग्राम	-9.90085
▁वायरल	-9.90128
▁शिक्षक	-9.9016
▁rule	-9.9017
▁course	-9.90253
▁लु	-9.9028
▁fast	-9.90284
▁hours	-9.90374
▁हाई	-9.90406
▁tea	-9.90407
▁प्रत्येक	-9.90449
र्व	-9.90503
▁period	-9.90504
▁चाहे	-9.90523
▁December	-9.90543
▁गुरुवार	-9.90549
▁बहु	-9.90554
▁ell	-9.90562
▁डो	-9.90573
kaar	-9.9076
▁vote	-9.90822
▁पत्रकार	-9.90833
▁खोज	-9.9089
▁liya	-9.90951
lly	-9.90984
▁usa	-9.9101
▁संस्थान	-9.91057
bil	-9.91103
▁ट्वीट	-9.91148
▁Sharma	-9.91228
log	-9.91244
▁percent	-9.91287
▁सूची	-9.91298
▁तलाश	-9.91359
-2	-9.91413
▁संत	-9.91528
लेट	-9.91569
▁Not	-9.91631
▁पैसे	-9.91632
रूप	-9.91641
▁September	-9.91646
▁success	-9.91655
खी	-9.91667
ज्ञा	-9.9168
len	-9.91685
▁दि	-9.91733
dro	-9.91751
▁खराब	-9.9176
▁Per	-9.91814
▁campaign	-9.91821
▁समेत	-9.91854
▁girl	-9.91873
लाल	-9.91877
▁check	-9.91891
vya	-9.91903
cul	-9.91904
▁आपने	-9.91958
▁wi	-9.91979
▁कविता	-9.92074
▁60	-9.92133
▁स्वीकार	-9.92171
▁Ya	-9.92188
ising	-9.92194
▁घट	-9.92279
▁target	-9.92299
▁isake	-9.923
PS	-9.92341
▁idea	-9.9242
▁championship	-9.92533
▁सफलता	-9.92576
▁current	-9.92595
tak	-9.92661
ियत	-9.92807
▁review	-9.92812
▁विकेट	-9.92915
द्द	-9.92974
▁प्ले	-9.93021
▁लाइन	-9.93087
शील	-9.93107
िये	-9.93166
▁eight	-9.93227
▁stage	-9.93237
▁खर्च	-9.93248
▁officer	-9.93271
▁seat	-9.93319
▁देती	-9.93346
▁साइ	-9.93355
▁सलाह	-9.93359
क्टर	-9.93361
अप	-9.93396
ware	-9.93419
▁चित्र	-9.93481
▁जाकर	-9.93482
lay	-9.93524
use	-9.93526
22	-9.9356
ox	-9.93586
hil	-9.93586
cer	-9.9359
▁certain	-9.9368
▁मामलों	-9.93688
मंत्र	-9.93717
िक्स	-9.93721
ाइन	-9.93777
▁candidate	-9.93777
▁bit	-9.93832
▁सप्ताह	-9.93834
▁critic	-9.93857
count	-9.93858
▁यूपी	-9.93867
▁विज्ञान	-9.93879
▁serve	-9.93931
▁प्रस्तुत	-9.94004
▁आवश्यक	-9.94006
tern	-9.9401
योग	-9.94026
21	-9.94059
▁jaari	-9.9416
▁वेबसाइट	-9.94167
▁शराब	-9.94194
my	-9.94234
फे	-9.94237
▁Q	-9.94246
hik	-9.94268
▁बदलाव	-9.94322
▁eye	-9.94363
▁इतनी	-9.94404
ac	-9.9444
struct	-9.94455
▁ji	-9.94482
▁अतिरिक्त	-9.94492
जीत	-9.94511
▁रस	-9.94551
▁ang	-9.9457
स्टर	-9.94589
र्ष	-9.94684
▁सिद्ध	-9.94755
gent	-9.94833
▁भि	-9.9484
▁कंपनियों	-9.9486
▁साबित	-9.94943
cur	-9.94976
▁hospital	-9.94991
plo	-9.95003
haa	-9.95035
▁कृष्ण	-9.95059
▁बाबा	-9.95061
र्प	-9.95215
▁swe	-9.95235
▁आंदोलन	-9.95237
▁ensure	-9.95354
It	-9.95366
न्या	-9.95368
▁happen	-9.95382
▁फल	-9.95392
▁poll	-9.9548
▁Ali	-9.95514
▁राज्यों	-9.95578
stitution	-9.95583
▁तु	-9.95695
▁हमले	-9.95758
▁High	-9.95763
▁aar	-9.95965
▁Gi	-9.95979
▁दौर	-9.96002
▁October	-9.96054
▁चौक	-9.9606
ॉन	-9.96077
▁साहित्य	-9.96079
late	-9.96134
▁तकनीक	-9.96143
▁शांति	-9.96166
लिंग	-9.96184
▁भूमि	-9.96209
off	-9.96216
▁बद	-9.96235
▁अंतर	-9.96259
▁accused	-9.9627
▁केन्द्र	-9.96277
▁Bro	-9.96294
aran	-9.96306
३	-9.96311
nge	-9.96316
▁देखकर	-9.96422
न्ह	-9.9647
▁perform	-9.96473
▁सुना	-9.96492
▁defeat	-9.96501
▁याचिका	-9.96511
▁doing	-9.96526
stream	-9.96575
▁War	-9.96584
क्षा	-9.966
▁लॉ	-9.96601
ाइज	-9.96641
48	-9.96656
pir	-9.96658
र्ण	-9.96658
गन	-9.96671
▁रहेगा	-9.96693
धर	-9.96719
▁debut	-9.96788
▁grow	-9.96791
cker	-9.96796
dom	-9.96831
▁Facebook	-9.96844
▁decided	-9.96917
ॉक	-9.96966
▁सफल	-9.96975
40	-9.96994
▁enough	-9.9707
▁product	-9.97089
▁mean	-9.97096
▁पट	-9.97196
्वे	-9.97219
than	-9.97227
▁खाने	-9.97239
▁अध्ययन	-9.97263
▁network	-9.97365
▁सुप्रीम	-9.97414
▁अक्सर	-9.97448
▁issues	-9.97535
▁protect	-9.97569
▁री	-9.97653
ंव	-9.97722
▁below	-9.97773
▁aaee	-9.97786
▁August	-9.97818
dhya	-9.97831
▁reach	-9.97854
▁COVID	-9.97868
▁general	-9.9788
▁Chi	-9.97953
▁कृषि	-9.97961
▁Air	-9.97965
▁गरीब	-9.97988
49	-9.98011
▁care	-9.98039
मैन	-9.98129
▁तभी	-9.98131
▁माँ	-9.98162
दास	-9.98177
▁दिसंबर	-9.98223
▁हमारा	-9.98226
जो	-9.98233
धु	-9.98241
▁समारोह	-9.98308
▁लीग	-9.98316
क्ति	-9.98319
▁non	-9.98322
▁press	-9.98338
▁train	-9.98413
▁Cricket	-9.98418
bert	-9.9846
hra	-9.98504
▁camera	-9.98511
▁fan	-9.98601
▁पहल	-9.98613
▁table	-9.98624
jo	-9.98624
▁क्षमता	-9.9863
▁understand	-9.98647
▁These	-9.98672
▁details	-9.98682
>	-9.98707
▁सलमान	-9.98793
▁shuruat	-9.98863
▁products	-9.98873
▁ग्रामीण	-9.98884
▁quality	-9.98894
▁space	-9.98903
char	-9.98926
▁रूस	-9.98936
▁परियोजना	-9.98937
east	-9.98961
▁limit	-9.9902
▁anti	-9.99071
▁चीज	-9.99186
star	-9.99199
▁En	-9.9922
▁जोर	-9.99242
ble	-9.99253
ize	-9.99262
▁जाये	-9.99288
▁chha	-9.9929
▁sal	-9.99294
▁रै	-9.99379
▁कारोबार	-9.99424
▁असर	-9.9944
▁vs	-9.99503
▁सत्य	-9.99519
▁लोकसभा	-9.99527
based	-9.99559
pping	-9.99627
▁फरवरी	-9.9963
▁रखते	-9.99662
▁मतलब	-9.99707
▁Lu	-9.99739
▁राजधानी	-9.99741
हो	-9.99743
▁बातें	-9.99755
▁saw	-9.99774
ense	-9.99778
▁towards	-9.99874
▁पहुंची	-9.99924
13	-9.99961
▁protest	-9.99975
▁ver	-9.99981
ेगी	-10.0002
37	-10.0003
▁उत्पादन	-10.0007
▁गोल	-10.0008
▁mool	-10.001
▁trade	-10.0016
gue	-10.0022
▁2007	-10.0022
pl	-10.0026
▁son	-10.0028
▁कही	-10.003
▁आस	-10.0032
▁sadasya	-10.0034
IT	-10.0036
▁पाल	-10.0039
▁पश्चिम	-10.0043
▁leaders	-10.0047
▁दवा	-10.0048
▁Sun	-10.0055
▁political	-10.0065
weight	-10.0071
▁doesn	-10.0073
▁address	-10.008
▁November	-10.008
▁revealed	-10.0082
▁organ	-10.0088
▁entire	-10.0088
म्म	-10.0089
▁batter	-10.0095
▁itihas	-10.0096
▁तुलना	-10.0098
▁however	-10.0098
ल्प	-10.0101
▁एच	-10.0107
▁जग	-10.0107
▁International	-10.0113
lk	-10.0114
▁ghar	-10.0116
▁भावना	-10.0116
▁until	-10.0116
श्व	-10.0121
द्व	-10.0123
▁गैर	-10.0132
▁human	-10.0134
▁speak	-10.0141
▁अनुमति	-10.0143
▁तर	-10.0143
▁35	-10.0147
▁चयन	-10.0149
cip	-10.0151
▁एयर	-10.0153
ष्ठ	-10.0154
▁spec	-10.0169
▁minutes	-10.0175
▁leave	-10.0178
▁श्र	-10.0184
▁मौका	-10.0187
गण	-10.0189
▁cor	-10.0194
▁create	-10.0195
▁American	-10.0197
▁फिल्मों	-10.0201
▁दोष	-10.0202
▁vishva	-10.0205
▁buy	-10.0208
PC	-10.0209
▁pen	-10.0209
▁शानदार	-10.021
बु	-10.021
▁रोज	-10.0211
▁Ste	-10.0217
▁increase	-10.0217
▁research	-10.022
ray	-10.0221
▁महसूस	-10.0227
▁छोटी	-10.0227
▁assist	-10.0228
▁सीरीज	-10.0229
▁संभव	-10.0232
▁अरब	-10.0234
▁गेंदबाज	-10.024
्यु	-10.0241
▁How	-10.0241
▁Instagram	-10.0242
▁bhaag	-10.0253
▁जू	-10.0254
▁Punjab	-10.0255
▁vishesh	-10.0257
▁gar	-10.0269
▁mon	-10.0274
▁history	-10.0277
▁उनको	-10.0279
38	-10.028
चन	-10.0281
एच	-10.0282
▁जरिए	-10.0287
▁छि	-10.0287
ॅ	-10.0288
▁क्लब	-10.0289
▁वर्षों	-10.029
▁jee	-10.0291
▁जुट	-10.0296
▁जिसकी	-10.0308
रियल	-10.0309
▁block	-10.0309
▁मृत्यु	-10.0311
▁मिलता	-10.0311
get	-10.0317
▁City	-10.0322
▁Star	-10.0324
▁आनंद	-10.0326
▁अली	-10.0327
berg	-10.0327
▁अनेक	-10.0331
▁मरीज	-10.0337
▁safe	-10.0341
▁winning	-10.0343
kin	-10.0344
ef	-10.0353
▁sm	-10.0353
▁फिलहाल	-10.0356
▁मूल्य	-10.0357
▁खूब	-10.0367
▁जवान	-10.0367
▁saal	-10.0367
▁सुर	-10.0371
▁image	-10.0374
▁सहायता	-10.0376
प्ट	-10.038
▁billion	-10.0382
55	-10.0382
▁मुक्त	-10.0383
▁tell	-10.0386
car	-10.0395
▁staff	-10.0398
▁Meanwhile	-10.0404
▁growth	-10.0404
▁cumm	-10.0407
▁हल	-10.0407
▁रचना	-10.0408
▁sanyukt	-10.0413
▁kind	-10.0413
▁कर्मचारी	-10.0424
▁cur	-10.0433
▁संस्था	-10.0435
▁Ed	-10.0444
85	-10.0445
▁जिन्होंने	-10.0445
▁hot	-10.0445
५	-10.0446
ोप	-10.0451
▁community	-10.0455
karan	-10.0458
▁महाराष्ट्र	-10.046
▁लक्ष्य	-10.0467
▁चाह	-10.0467
+	-10.0469
▁घो	-10.047
▁लखनऊ	-10.047
▁above	-10.0477
▁आखिर	-10.0481
▁fall	-10.0494
▁version	-10.051
▁hui	-10.0511
▁Union	-10.0517
▁pahali	-10.0518
▁नौकरी	-10.0518
▁बचा	-10.0519
14	-10.0524
▁senior	-10.0525
▁display	-10.0534
▁potential	-10.0534
▁Kohli	-10.0535
▁मिनट	-10.0539
▁wide	-10.054
In	-10.0547
में	-10.0549
▁Bank	-10.0556
▁विपक्ष	-10.0557
हू	-10.056
▁mind	-10.0563
▁proper	-10.0563
▁represent	-10.058
▁स्थल	-10.0588
kat	-10.0588
▁late	-10.0589
▁घाट	-10.0589
च्छ	-10.0592
▁2006	-10.0593
▁चिंता	-10.0593
▁बिग	-10.0594
▁Commission	-10.0599
▁launched	-10.0601
▁uttar	-10.0601
▁चैनल	-10.0602
kon	-10.0605
▁दम	-10.0606
▁प्रबंधन	-10.0606
▁Sho	-10.0617
▁El	-10.0619
▁spa	-10.0619
42	-10.0633
छा	-10.0636
▁parivaar	-10.0638
▁जाति	-10.0641
▁operation	-10.0646
▁कू	-10.0648
▁February	-10.0653
▁प्रसाद	-10.0653
▁wait	-10.0655
▁अर्	-10.0655
बंध	-10.0658
▁बहन	-10.066
rent	-10.0668
▁वित्त	-10.0668
▁लै	-10.0673
▁शासन	-10.0677
ूँ	-10.0677
▁quite	-10.0678
▁areas	-10.0679
▁hii	-10.0685
▁himself	-10.0691
▁thought	-10.0692
▁राव	-10.0695
▁village	-10.0696
▁PM	-10.0696
▁americi	-10.0707
▁नवंबर	-10.071
bin	-10.0716
▁अक्टूबर	-10.072
▁लगाए	-10.0722
▁सौंप	-10.0722
▁हिन्दी	-10.0724
▁दर्द	-10.0725
▁innings	-10.0726
bal	-10.0727
▁पूछा	-10.0742
cus	-10.0747
▁नर	-10.0749
▁सार्वजनिक	-10.075
▁सितंबर	-10.0754
▁मिस	-10.0754
▁समाचार	-10.0762
44	-10.0766
▁chu	-10.0768
▁John	-10.0776
ेन्द्र	-10.0778
▁मस	-10.0782
72	-10.0786
▁सदस्यों	-10.0787
▁america	-10.079
▁संजय	-10.0793
▁समुदाय	-10.0795
▁ODI	-10.0795
▁अमर	-10.0799
▁प्रश्न	-10.0799
▁Mc	-10.0801
▁ऑनलाइन	-10.0803
▁Bar	-10.0805
▁pla	-10.0807
▁huge	-10.0808
key	-10.0808
रोध	-10.0811
▁मशीन	-10.0813
हु	-10.0821
▁उत्पाद	-10.0822
39	-10.0824
▁photo	-10.0826
▁bowler	-10.0829
▁ye	-10.0829
oper	-10.0831
light	-10.0836
▁kaary	-10.0839
▁iPhone	-10.0844
▁education	-10.0845
alaya	-10.0858
▁मिलेगा	-10.0858
▁financial	-10.086
▁Hindi	-10.0863
zz	-10.0867
वां	-10.0869
▁meet	-10.0872
▁claimed	-10.0882
cor	-10.0886
▁University	-10.0886
▁Y	-10.0889
▁janm	-10.0892
▁engine	-10.09
ताओं	-10.0903
▁actress	-10.0906
▁चोट	-10.0907
▁प्राथमिक	-10.0912
▁लंबे	-10.0917
पूर्व	-10.0917
▁box	-10.0927
▁बर	-10.0928
▁करेगी	-10.0928
▁gold	-10.0929
▁para	-10.0929
▁Can	-10.0931
▁auto	-10.0932
▁anta	-10.0932
pra	-10.0934
▁woman	-10.0944
▁nation	-10.0944
ED	-10.0947
▁geet	-10.0948
रिक	-10.0953
गार	-10.0954
▁gave	-10.0955
▁thing	-10.096
▁enjoy	-10.0961
दारी	-10.0961
▁bur	-10.0966
▁ground	-10.0975
▁मुस्लिम	-10.098
▁maha	-10.098
▁प्रचार	-10.0982
▁बू	-10.0997
elect	-10.1004
zo	-10.1008
▁leading	-10.1009
ific	-10.1009
▁Some	-10.1012
▁beat	-10.102
ties	-10.102
▁pad	-10.1026
▁बताते	-10.1034
hir	-10.1035
dam	-10.1036
▁धीरे	-10.1037
▁वृद्धि	-10.1039
▁application	-10.1043
४	-10.1045
▁आसपास	-10.1058
▁Open	-10.1064
▁गोली	-10.1065
▁jaanaa	-10.1065
47	-10.1066
ेयर	-10.1069
▁fit	-10.1082
▁amount	-10.1083
▁राहत	-10.1084
▁county	-10.1086
▁leag	-10.1086
▁wrote	-10.1087
▁सवार	-10.1096
-3	-10.1101
▁samooh	-10.1103
▁capital	-10.1106
▁pack	-10.1111
Ma	-10.1111
▁विदेशी	-10.1113
▁update	-10.1116
▁प्रतियोगिता	-10.113
▁फैसले	-10.1133
▁Play	-10.1138
▁means	-10.1145
▁hotaa	-10.1146
▁उद्देश्य	-10.1156
▁स्वागत	-10.1158
▁वहाँ	-10.1162
▁योग्य	-10.1163
▁प्रकाशित	-10.1168
▁चुन	-10.1168
AR	-10.1169
▁search	-10.117
▁sho	-10.117
▁अपील	-10.1174
▁रेल	-10.1177
स्ता	-10.1178
▁section	-10.1178
▁लेना	-10.118
▁appear	-10.1184
▁ब्रा	-10.1185
▁फूल	-10.119
▁बढ़ाने	-10.1191
▁विस्तार	-10.1192
▁building	-10.1197
▁जीव	-10.1197
▁kahaa	-10.12
▁strike	-10.1202
▁similar	-10.1204
▁stated	-10.1204
▁award	-10.1205
▁art	-10.1206
▁Of	-10.1208
krit	-10.1208
▁जिन्हें	-10.1212
▁contract	-10.1214
▁arm	-10.1224
▁earn	-10.1233
न्द्र	-10.1233
▁often	-10.1244
▁इक	-10.1246
▁इनमें	-10.1247
comm	-10.1251
▁संपर्क	-10.1252
क्ल	-10.1255
▁हालत	-10.1259
▁पहुँच	-10.1262
▁def	-10.1264
▁बैठे	-10.1268
pati	-10.1268
▁Also	-10.1279
▁league	-10.1281
94	-10.1282
dri	-10.1282
▁wicket	-10.1284
ference	-10.1284
dee	-10.1284
▁जरूर	-10.1285
SE	-10.1287
▁benefit	-10.1291
▁suffer	-10.1294
▁खड़े	-10.1297
▁gri	-10.1301
▁नियम	-10.1302
▁sector	-10.1306
▁ईरान	-10.1311
91	-10.1317
ident	-10.1323
▁आहे	-10.1323
▁vehicle	-10.1324
verse	-10.1329
▁seem	-10.133
दु	-10.1331
▁दू	-10.1335
▁॥	-10.1341
कुल	-10.1345
uro	-10.1347
▁मंच	-10.135
▁पार्क	-10.1353
▁everyone	-10.1354
▁रु	-10.1359
▁डाय	-10.1361
93	-10.1365
88	-10.1367
ball	-10.1367
▁father	-10.1373
▁affect	-10.1373
▁agency	-10.1376
AN	-10.1377
▁बनाई	-10.1378
▁lagbhag	-10.138
▁victory	-10.1381
89	-10.1381
▁विमान	-10.1388
chit	-10.1391
▁Ku	-10.1392
▁draw	-10.1397
▁touch	-10.1399
▁puraskar	-10.14
▁तैयारी	-10.1404
जू	-10.1416
ford	-10.1416
▁positive	-10.1417
६	-10.1419
▁गौर	-10.1419
▁den	-10.1421
▁mobile	-10.1438
▁Sc	-10.1438
▁सारी	-10.1448
▁अहम	-10.145
▁difficult	-10.1451
▁बाइक	-10.1455
▁Tamil	-10.1461
▁देंगे	-10.147
▁smartphone	-10.1471
43	-10.1489
▁impact	-10.1491
pal	-10.1494
▁मुद्दे	-10.1496
▁जुड़	-10.1496
veen	-10.1499
र्ब	-10.15
िकल	-10.1504
for	-10.151
▁इंग्लैंड	-10.1512
▁विकल्प	-10.1512
76	-10.1514
▁सूत्रों	-10.1514
्यो	-10.1517
▁परिवर्तन	-10.1518
श्र	-10.1519
▁संग	-10.1523
IC	-10.1523
dhan	-10.1523
▁बंगाल	-10.1526
▁Dev	-10.1526
▁connect	-10.1532
▁80	-10.1533
▁गेंद	-10.1536
▁squad	-10.1537
▁तुरंत	-10.1538
▁especially	-10.1544
हित	-10.1545
▁achieve	-10.1549
▁rank	-10.1552
86	-10.1555
▁North	-10.1561
▁32	-10.1565
ium	-10.1565
52	-10.1572
▁trying	-10.1573
fully	-10.1575
▁आंख	-10.1576
▁respect	-10.158
▁मुलाकात	-10.1582
▁पेट	-10.1584
▁Red	-10.1585
▁धारा	-10.1586
▁वीर	-10.1587
▁almost	-10.1589
ound	-10.1591
▁भवन	-10.1603
56	-10.1605
▁समा	-10.1605
▁भेजा	-10.1607
▁Col	-10.1609
ूं	-10.1611
▁न्यू	-10.1615
१	-10.1616
▁Mah	-10.162
ाधिकार	-10.1624
▁गाँव	-10.1628
▁interview	-10.1628
▁firm	-10.1632
ON	-10.1637
▁अचानक	-10.1638
पुरा	-10.164
▁yuu	-10.1641
▁डिग्री	-10.1657
▁save	-10.1657
ura	-10.1659
▁function	-10.1659
▁पड़े	-10.166
▁ठाकुर	-10.166
▁Inter	-10.1661
▁friends	-10.1661
▁लेखक	-10.1663
now	-10.1665
▁@	-10.1666
▁इनके	-10.1667
▁महान	-10.1674
▁Bangladesh	-10.1676
▁पालन	-10.168
▁bla	-10.1685
▁Follow	-10.1685
▁विद्यालय	-10.1693
▁vo	-10.1698
84	-10.17
▁सामग्री	-10.1705
abad	-10.1711
्लो	-10.1715
▁भोजन	-10.1729
ैक्ट	-10.1729
▁इस्लाम	-10.1733
▁इन्	-10.1733
▁became	-10.1736
शाला	-10.1739
▁चाहती	-10.1739
▁sports	-10.1739
lip	-10.1741
▁injury	-10.1749
▁Bri	-10.1753
▁rahey	-10.1754
▁attend	-10.1761
▁jahan	-10.1763
▁bri	-10.1766
▁Champion	-10.1767
▁सूर्य	-10.177
▁पाने	-10.1776
▁episode	-10.1777
लु	-10.1778
TA	-10.1778
▁200	-10.178
▁pramukh	-10.1792
▁bunn	-10.1802
▁मॉ	-10.1804
डर	-10.1806
▁सुपर	-10.1816
▁Lanka	-10.1825
▁प्रथम	-10.1847
▁worth	-10.1852
▁परिजनों	-10.1856
▁church	-10.1857
▁partner	-10.1861
▁तमाम	-10.1863
▁ओवर	-10.1863
ify	-10.1866
▁विकसित	-10.1867
▁till	-10.187
ग़	-10.187
ller	-10.1873
▁सुरक्षित	-10.1881
▁Don	-10.1881
46	-10.1885
द्य	-10.1888
▁cross	-10.19
▁प्रतिनिधि	-10.1901
▁करनी	-10.1902
▁टूट	-10.1904
MA	-10.1909
pu	-10.191
▁value	-10.1911
▁opening	-10.1912
▁आये	-10.1917
▁drive	-10.1919
▁घोषित	-10.1919
▁आसान	-10.192
▁mid	-10.1925
▁संघर्ष	-10.1925
▁walk	-10.1926
▁child	-10.1927
ध्या	-10.1928
▁brought	-10.1931
िष्	-10.1933
▁करियर	-10.1935
ject	-10.1936
▁बजट	-10.1937
▁मालिक	-10.194
GB	-10.1945
▁article	-10.1947
▁paas	-10.1947
yaan	-10.1952
night	-10.1959
▁tax	-10.1962
▁गति	-10.1972
▁Even	-10.1974
▁टिकट	-10.1974
▁सीख	-10.1975
▁skin	-10.1985
▁By	-10.1987
▁shiksha	-10.199
▁सां	-10.1996
cro	-10.1998
▁individual	-10.2
▁मिलकर	-10.2002
67	-10.2003
भाग	-10.2003
▁base	-10.2009
▁Cr	-10.2013
ி	-10.2013
▁unakaa	-10.2017
▁आधारित	-10.2017
▁मात्रा	-10.2019
77	-10.2021
▁competition	-10.2022
kal	-10.2022
▁Mor	-10.2024
▁दशक	-10.2035
▁significant	-10.2037
▁successful	-10.2044
83	-10.2048
▁ऊ	-10.206
▁plans	-10.2064
▁Ve	-10.2066
▁मुख	-10.2068
त्तर	-10.2068
▁mother	-10.2068
▁march	-10.2071
▁black	-10.2081
▁अमित	-10.2086
▁विवाह	-10.2094
▁बाकी	-10.2095
▁pull	-10.2098
▁member	-10.21
▁हिस्से	-10.2113
▁Jan	-10.2113
nagar	-10.2115
▁अंग	-10.2117
▁cla	-10.2118
▁store	-10.2118
71	-10.212
▁pain	-10.212
▁मनुष्य	-10.2121
क्षण	-10.2122
▁production	-10.2124
भूत	-10.2124
▁cal	-10.213
▁Director	-10.213
▁strength	-10.2131
▁70	-10.2131
▁require	-10.2132
▁सिं	-10.2136
▁एक्ट्रेस	-10.2137
▁मुकाबले	-10.2147
▁दर्शन	-10.2148
ॉय	-10.2151
▁rain	-10.2151
▁निदेशक	-10.2152
▁उतार	-10.2153
▁Mal	-10.2154
▁fail	-10.2154
▁sabhi	-10.2155
78	-10.2155
▁relationship	-10.2159
चि	-10.216
▁जम्मू	-10.2164
▁पुराने	-10.2165
▁स्थापना	-10.2169
final	-10.217
istic	-10.2173
▁गुण	-10.2174
66	-10.2176
▁private	-10.2178
▁देखें	-10.2179
पत्ति	-10.218
▁शीर्ष	-10.2182
▁shall	-10.2189
▁क़	-10.219
▁sin	-10.2198
82	-10.2201
▁प्रभारी	-10.2205
▁spoke	-10.2205
त्ता	-10.221
68	-10.2211
▁चंद्र	-10.2218
▁program	-10.2229
like	-10.2233
▁results	-10.2235
ttle	-10.2237
▁Ph	-10.2239
्टी	-10.2239
लिन	-10.2244
▁user	-10.2247
▁वस्तु	-10.2252
▁mrityu	-10.2258
24	-10.2259
▁जिनमें	-10.2259
▁2000	-10.2262
▁pada	-10.2262
87	-10.2269
▁अंग्रेजी	-10.2272
▁During	-10.228
▁build	-10.2282
hara	-10.2283
▁attempt	-10.2285
▁प्रमाण	-10.2288
▁try	-10.2291
under	-10.2295
▁सुंदर	-10.2298
▁नो	-10.2298
▁अभिनेता	-10.23
९	-10.2309
▁होटल	-10.231
▁etc	-10.2311
win	-10.2313
वाला	-10.2317
▁फुटबॉल	-10.2322
▁45	-10.2323
OS	-10.2324
▁भ्रष्टाचार	-10.2328
ute	-10.2328
▁semi	-10.233
▁doctor	-10.2331
इन	-10.2333
▁door	-10.2334
force	-10.2341
▁चौधरी	-10.2345
▁risk	-10.2349
NA	-10.235
▁message	-10.2353
▁sangh	-10.2362
ेश्वर	-10.2368
▁jeet	-10.2368
▁shrinkhala	-10.238
▁note	-10.2381
▁कड़ी	-10.2383
▁Championship	-10.2388
साथ	-10.2391
▁दबाव	-10.2396
▁department	-10.2397
▁nirmaan	-10.2397
▁approach	-10.2398
▁range	-10.2399
▁टू	-10.2399
▁इतने	-10.2403
▁Gandhi	-10.2406
oon	-10.2412
▁रवि	-10.2417
▁nor	-10.2418
▁Centre	-10.242
▁अंतरराष्ट्रीय	-10.2426
lish	-10.2428
▁imm	-10.2429
57	-10.2431
▁दुख	-10.2434
▁exam	-10.2438
▁जल्दी	-10.2443
▁cast	-10.2443
▁चाल	-10.2454
▁भूल	-10.2455
62	-10.2456
▁सहायक	-10.2458
▁मित्र	-10.2459
73	-10.2461
▁छा	-10.2466
▁outside	-10.2473
▁आयु	-10.2475
▁defend	-10.2475
▁चिकित्सा	-10.2477
▁Rahul	-10.248
80	-10.2481
▁jaane	-10.2485
▁चालक	-10.2485
▁भुगतान	-10.2489
▁aine	-10.2489
▁उदाहरण	-10.2492
▁regular	-10.2492
▁सम्मेलन	-10.2493
्ति	-10.2497
▁जमकर	-10.2499
▁despite	-10.2503
field	-10.2504
▁हाउस	-10.2504
▁tii	-10.2507
51	-10.251
kram	-10.2511
▁arrested	-10.2512
▁inside	-10.2513
▁ग्रे	-10.2517
▁fell	-10.252
▁खु	-10.2527
ably	-10.253
▁तीसरे	-10.2531
▁लाने	-10.2535
क्का	-10.2536
▁रखी	-10.2538
▁कर्म	-10.2538
▁everything	-10.2539
▁भक्त	-10.2542
▁कौ	-10.2543
▁कलाकार	-10.2543
▁मनो	-10.2544
▁भीड़	-10.255
▁paid	-10.2552
▁particular	-10.2552
▁complete	-10.2554
▁digital	-10.2557
▁dekh	-10.2558
▁कोहली	-10.2559
▁pandemic	-10.2562
▁सामान	-10.2562
▁संस्कृति	-10.2564
▁Lord	-10.2574
▁room	-10.2575
ET	-10.2576
yam	-10.2578
▁खाना	-10.2588
▁sakata	-10.2589
▁रखना	-10.2589
▁90	-10.2591
▁चीनी	-10.2595
ND	-10.2603
▁pradarshan	-10.2604
53	-10.2605
▁threat	-10.2608
▁Office	-10.261
craft	-10.2614
lp	-10.262
▁गैस	-10.2637
▁extra	-10.2637
▁मंडल	-10.2639
▁session	-10.2643
▁karna	-10.265
▁डिजाइन	-10.2652
▁खिलाड़ियों	-10.2663
▁contest	-10.2664
▁policy	-10.2666
▁seems	-10.2669
ैया	-10.2669
▁कितना	-10.2672
▁English	-10.2672
63	-10.2674
▁चोरी	-10.2676
▁push	-10.2676
▁Department	-10.2682
▁प्रणाली	-10.2683
▁Char	-10.269
▁bhoo	-10.2696
▁Zealand	-10.2709
▁average	-10.2713
▁सुनवाई	-10.2713
▁channel	-10.2718
▁थोड़ा	-10.272
▁शोध	-10.2721
ग्न	-10.2723
▁ढा	-10.2725
▁Kapoor	-10.2726
▁alleged	-10.2729
▁फैंस	-10.2734
▁पूछताछ	-10.2735
मंत्री	-10.2738
▁Ministry	-10.2751
▁जंगल	-10.2754
▁management	-10.2756
▁Premier	-10.2758
mic	-10.2759
▁updates	-10.2767
ɔ	-10.2769
▁सुनिश्चित	-10.2773
spec	-10.2775
▁नियंत्रण	-10.2777
▁morning	-10.2786
79	-10.2793
▁higher	-10.2795
▁Team	-10.2796
▁invest	-10.2799
▁Amazon	-10.2802
▁ready	-10.2803
▁संकेत	-10.2808
▁issued	-10.2808
▁चली	-10.281
▁Group	-10.281
▁उपकरण	-10.2813
▁भु	-10.2817
▁tech	-10.282
▁शिकार	-10.2823
▁चंद	-10.2824
▁wife	-10.283
cel	-10.2833
MC	-10.2835
▁पारी	-10.2841
▁net	-10.2842
▁फीसदी	-10.2843
▁उनमें	-10.2843
▁yuddh	-10.2843
▁दौड़	-10.2844
▁वैज्ञानिक	-10.2848
लाई	-10.2855
क्क	-10.2857
▁2005	-10.2859
down	-10.286
▁जिंदगी	-10.2863
▁Tu	-10.2863
▁अल्	-10.2864
This	-10.2867
▁खंड	-10.2869
ंघ	-10.287
▁सारा	-10.2871
▁आउट	-10.2877
▁daily	-10.2879
▁medical	-10.2882
▁ट्विटर	-10.2884
▁अवैध	-10.2884
▁मृतक	-10.2885
▁easy	-10.2896
59	-10.2897
pper	-10.2902
▁begin	-10.2907
▁पैसा	-10.2907
▁House	-10.2907
▁सीधे	-10.2911
▁directed	-10.2912
▁ऊर्जा	-10.2923
▁dead	-10.2926
▁occasion	-10.2926
▁self	-10.2931
▁ऑफिस	-10.2933
▁Party	-10.2937
▁गुजर	-10.2939
▁आत्म	-10.2946
▁पुल	-10.2948
▁रिश्ते	-10.2952
▁race	-10.2952
▁gain	-10.2953
▁camp	-10.2956
▁request	-10.296
▁confirmed	-10.2968
▁happy	-10.2968
▁गुप्ता	-10.2968
▁शुभ	-10.2968
Q	-10.2971
▁फाइनल	-10.2972
▁pressure	-10.2973
▁खड़ा	-10.2976
ê	-10.2977
▁आवास	-10.2978
▁scheme	-10.2979
▁विशेषज्ञ	-10.2982
▁white	-10.2984
▁stock	-10.2986
▁customers	-10.2987
01	-10.2998
cho	-10.2999
▁Android	-10.3
jit	-10.3004
▁गाड़ी	-10.3006
▁समुद्र	-10.3015
▁Women	-10.3017
▁effect	-10.3022
▁addition	-10.3023
ung	-10.3024
▁Shri	-10.3024
▁park	-10.3026
▁kaaran	-10.3036
▁biggest	-10.3036
▁programme	-10.3041
74	-10.3043
▁घु	-10.3043
gram	-10.3043
▁(2	-10.3043
▁training	-10.3051
69	-10.3052
▁मॉडल	-10.3052
मय	-10.3052
aen	-10.3052
▁AI	-10.3052
▁maintain	-10.3053
well	-10.3055
▁Today	-10.3057
▁fourth	-10.3058
▁हिमाचल	-10.3059
ɛ	-10.3066
range	-10.3076
▁प्रेस	-10.3078
▁karyakram	-10.3081
▁dan	-10.3085
▁reduce	-10.3093
▁खुशी	-10.3095
▁असल	-10.3098
▁रुक	-10.3099
ांक	-10.3104
▁ham	-10.3105
डब्ल्यू	-10.3109
▁Covid	-10.3109
▁सैनिक	-10.3113
▁Ben	-10.3113
▁study	-10.3115
81	-10.3121
▁तैनात	-10.3121
▁दायर	-10.3125
▁दूध	-10.3126
▁whole	-10.3133
▁Sar	-10.3137
▁एजेंसी	-10.3144
▁आरोपियों	-10.3147
▁perfect	-10.3149
▁दुर्	-10.315
▁वास्तव	-10.3162
&	-10.3167
▁donon	-10.317
म्भ	-10.317
▁मेडिकल	-10.3172
▁कार्यकर्ताओं	-10.3174
▁छात्रा	-10.3174
print	-10.3175
▁rhaa	-10.3175
▁निर्धारित	-10.3176
डेंट	-10.3177
▁हवाई	-10.3178
▁कस	-10.3178
▁deep	-10.3181
▁sun	-10.3188
▁followed	-10.3191
▁page	-10.3191
fin	-10.3201
▁wanted	-10.3202
▁भले	-10.3205
Â	-10.3207
▁संदर्भ	-10.3214
▁संबोधित	-10.3214
▁provided	-10.3218
maker	-10.3225
▁पहाड़	-10.3225
▁रास्ते	-10.3225
▁+	-10.3227
▁opportunity	-10.3227
▁mag	-10.323
▁mode	-10.3234
शंकर	-10.324
▁तत्काल	-10.3242
FC	-10.3249
45	-10.3253
▁संग्रह	-10.326
▁व्यक्त	-10.3263
▁related	-10.3266
▁धो	-10.3267
▁श्रृंखला	-10.3269
▁banaaya	-10.327
▁व्यवहार	-10.3272
▁प्रतिक्रिया	-10.3275
▁Read	-10.3276
▁apana	-10.3277
abhi	-10.3286
▁App	-10.3287
▁फसल	-10.3294
▁योगी	-10.3297
यंत्र	-10.3302
▁boy	-10.3302
▁हित	-10.3309
▁विराट	-10.331
க	-10.3311
▁Em	-10.3311
▁दोपहर	-10.3315
▁discuss	-10.3317
▁निश्चित	-10.3319
षा	-10.3321
▁एशिया	-10.3322
▁हिंसा	-10.3326
▁500	-10.3326
▁thank	-10.3326
vaad	-10.3327
▁त्रि	-10.3334
play	-10.3335
▁संपत्ति	-10.3336
▁measure	-10.3338
▁response	-10.3341
▁उन्	-10.3344
▁प्रशिक्षण	-10.3352
▁मतदान	-10.3355
▁कवि	-10.336
board	-10.3362
▁भय	-10.3363
rup	-10.3371
▁अहमद	-10.3374
▁establish	-10.338
▁घरेलू	-10.338
▁हाथों	-10.3382
दो	-10.3384
▁Che	-10.3385
▁giving	-10.3391
akon	-10.3396
▁vaali	-10.3404
▁2004	-10.3406
▁double	-10.3414
▁coll	-10.3414
▁degree	-10.3416
▁मजदूर	-10.3417
ridge	-10.3418
▁हथियार	-10.3426
▁sell	-10.3429
▁भग	-10.3429
▁cannot	-10.343
▁professional	-10.3431
▁रज	-10.3431
▁36	-10.3433
▁उसको	-10.3439
▁$1	-10.3444
शिप	-10.3445
▁बनाकर	-10.3448
जनक	-10.345
▁pair	-10.3451
▁बीते	-10.346
कर्मियों	-10.3463
khar	-10.3464
61	-10.3464
▁समझा	-10.3467
▁इच्छा	-10.3473
बद्ध	-10.3474
▁नज़र	-10.3477
▁परिसर	-10.3477
ER	-10.3479
▁फायदा	-10.3479
▁fee	-10.3482
▁Chris	-10.3484
ेक्स	-10.3486
▁आधिकारिक	-10.3488
पात	-10.3497
▁तीनों	-10.3502
▁स्टोर	-10.3503
▁जिसने	-10.3507
▁custom	-10.3507
फॉर्म	-10.3513
▁hair	-10.3514
▁बरामद	-10.3523
▁Kan	-10.3524
▁Cor	-10.3524
▁Bengal	-10.3526
गंज	-10.3527
▁kid	-10.3528
▁Her	-10.353
▁vikas	-10.3533
▁Vijay	-10.3538
८	-10.3539
▁feed	-10.354
▁gla	-10.3542
▁television	-10.3542
▁पाई	-10.3542
▁व्यवसाय	-10.3547
▁York	-10.3551
▁answer	-10.3554
▁General	-10.3555
CA	-10.3555
वृत्त	-10.3563
▁33	-10.3564
▁प्रबंध	-10.3577
▁बजाय	-10.3582
ology	-10.3582
▁rakhaa	-10.3584
▁Real	-10.3584
▁investment	-10.3584
▁महत्व	-10.3587
▁रखें	-10.359
▁मिलती	-10.3593
▁इन्हें	-10.3595
▁पड़ी	-10.3596
▁सक्रिय	-10.3602
▁तत्व	-10.3602
▁pace	-10.3602
▁common	-10.3603
—	-10.3606
▁Microsoft	-10.3608
▁आकर	-10.3617
▁चलने	-10.3622
▁अवधि	-10.3623
▁संदेश	-10.3623
▁रहेंगे	-10.3629
▁language	-10.363
▁oil	-10.3635
dhu	-10.3637
▁मानना	-10.3641
▁expert	-10.3645
▁गंगा	-10.3649
घर	-10.3655
▁published	-10.3656
▁हां	-10.3656
ज्ञ	-10.3657
▁कमजोर	-10.3659
▁खेला	-10.3663
▁जाएं	-10.3667
rang	-10.3675
▁अंतर्राष्ट्रीय	-10.3689
इयों	-10.369
▁रोकने	-10.3694
▁Shar	-10.3699
▁failed	-10.37
▁हिंदू	-10.3701
▁बेस	-10.3704
▁गौरतलब	-10.3706
▁Kha	-10.3707
▁Ver	-10.371
▁पढ़ें	-10.3717
सिंह	-10.3718
▁vyutpatti	-10.3719
▁बीमार	-10.3722
ठे	-10.3723
endra	-10.3725
▁न्यूज	-10.3727
ऊ	-10.3731
▁audience	-10.3736
▁sambandh	-10.3737
▁कार्यों	-10.3738
▁धार्मिक	-10.374
▁उचित	-10.3741
▁town	-10.3742
▁filed	-10.3744
वॉ	-10.3744
▁हादसे	-10.3745
▁specific	-10.3746
▁फ्रांस	-10.375
वंश	-10.3751
▁समीक्षा	-10.376
▁logon	-10.3763
▁Board	-10.377
▁चेहरे	-10.3771
ular	-10.3775
▁बीमारी	-10.3775
▁उपचार	-10.3778
▁चुनौती	-10.3778
▁कल्याण	-10.3784
▁ended	-10.3787
▁Central	-10.3788
शाली	-10.3789
▁tarah	-10.3791
RA	-10.3793
▁interesting	-10.3796
▁सिस्टम	-10.3802
डीए	-10.3803
▁आसानी	-10.3806
box	-10.3814
▁दाम	-10.3818
▁Hindu	-10.3818
मिन	-10.3819
▁अंदाज	-10.3819
▁लोकप्रिय	-10.3819
▁विधि	-10.382
▁चलता	-10.3821
▁via	-10.3827
▁dashak	-10.383
▁division	-10.3832
▁talent	-10.3835
▁collect	-10.3837
▁Tha	-10.3837
▁जिम्मेदारी	-10.3839
▁प्ल	-10.3845
▁multiple	-10.3846
▁जैन	-10.3852
▁इंतजार	-10.3859
08	-10.3865
rum	-10.3866
▁जापान	-10.3868
26	-10.3871
▁daughter	-10.3873
यें	-10.3873
lum	-10.3875
▁लड़ाई	-10.3876
▁मिलेगी	-10.3877
▁East	-10.3877
▁hotey	-10.3879
▁friend	-10.388
▁निर्माता	-10.3883
▁opt	-10.3884
▁शॉ	-10.3888
▁झु	-10.3888
▁कहने	-10.3888
BC	-10.3889
▁नाग	-10.389
▁type	-10.3893
▁खेले	-10.39
▁driver	-10.39
▁वकील	-10.3906
▁clean	-10.3907
▁Mark	-10.3908
▁began	-10.3909
▁extend	-10.3911
▁batting	-10.3912
▁send	-10.3917
▁reached	-10.3918
▁प्रतिबंध	-10.3923
▁लगने	-10.3924
▁घूम	-10.3924
▁पेड़	-10.3925
mination	-10.3933
temp	-10.3935
▁प्रवक्ता	-10.3936
▁highest	-10.3937
▁From	-10.3938
▁gaanv	-10.394
▁either	-10.3943
▁laa	-10.3944
▁पेट्रोल	-10.3944
▁अशोक	-10.3945
मंडल	-10.3951
▁समाधान	-10.3957
▁Health	-10.3959
▁cup	-10.3961
ल्क	-10.3971
▁बिक्री	-10.3971
▁व्युत्पत्ति	-10.3973
▁रखे	-10.3975
▁kill	-10.3976
▁sar	-10.3976
जु	-10.3981
▁34	-10.3983
▁संभाल	-10.3994
▁write	-10.3994
▁Australian	-10.4005
▁running	-10.4014
▁updated	-10.4015
▁prevent	-10.4017
▁killed	-10.402
▁treatment	-10.4024
▁janwari	-10.4026
▁Trump	-10.4026
▁हेतु	-10.4029
▁छूट	-10.4029
▁बोले	-10.4033
▁Val	-10.4035
▁फंस	-10.4039
▁कॉल	-10.4043
▁बंध	-10.4051
▁implement	-10.4061
▁टॉ	-10.4074
▁संकट	-10.4078
▁परीक्षण	-10.408
▁figure	-10.4083
▁स्वामी	-10.4084
▁मोहम्मद	-10.4084
▁gre	-10.4088
▁तू	-10.4088
▁कमरे	-10.4089
▁अजय	-10.409
▁मौजूदा	-10.409
ात्मक	-10.4094
▁credit	-10.4097
▁accept	-10.4101
▁wish	-10.4113
arch	-10.412
▁starting	-10.4123
▁contain	-10.4124
७	-10.4126
▁notice	-10.4127
ulation	-10.4134
▁kewal	-10.4134
deep	-10.4135
▁green	-10.4136
▁Mon	-10.4138
▁गाने	-10.4139
▁disc	-10.414
▁युग	-10.414
▁टाइम	-10.4146
▁involved	-10.4147
▁नै	-10.4148
▁खूबसूरत	-10.4149
DA	-10.4149
▁Gra	-10.4156
▁managed	-10.4157
▁speed	-10.4165
▁registered	-10.4169
▁named	-10.4169
▁fine	-10.4171
▁foot	-10.4171
▁जर्मन	-10.4172
▁nine	-10.4174
▁pahala	-10.4175
▁broke	-10.4176
CC	-10.4178
▁recommend	-10.4185
▁व्यक्तिगत	-10.4192
▁khu	-10.4193
▁centre	-10.4195
ə	-10.4209
डिया	-10.4213
२	-10.4214
▁summer	-10.4215
▁योगदान	-10.4216
▁पाठ	-10.4221
lik	-10.423
▁spread	-10.423
▁कथा	-10.4231
▁sound	-10.4233
▁इंसान	-10.4237
▁परेशानी	-10.4242
▁factor	-10.4255
▁author	-10.4263
▁रहना	-10.4264
▁अथवा	-10.4267
▁शीर्षक	-10.4271
ken	-10.4272
ध्यक्ष	-10.4275
07	-10.4279
é	-10.4279
▁दिखाया	-10.4285
टेल	-10.4288
▁chunaav	-10.4289
sky	-10.429
▁receive	-10.4294
▁मकान	-10.4297
▁तस्वीरें	-10.4298
▁una	-10.4302
▁rock	-10.4303
▁प्रियंका	-10.431
▁तनाव	-10.4313
पत्र	-10.4316
▁कितने	-10.4317
त्मक	-10.4319
ES	-10.4323
▁document	-10.4324
▁मुसलमान	-10.4331
▁central	-10.4332
▁Chinese	-10.4332
▁brother	-10.4335
▁workers	-10.4338
▁मीटर	-10.4342
▁turned	-10.4343
▁sheersh	-10.4344
▁anything	-10.4346
▁ऐतिहासिक	-10.435
▁Get	-10.4353
▁refer	-10.4354
jee	-10.4355
▁समस्याओं	-10.4359
▁रैली	-10.4362
▁nothing	-10.4367
▁इंटरनेट	-10.4372
▁chaar	-10.4374
▁उड़	-10.4375
▁डॉलर	-10.4376
▁मानसिक	-10.4384
▁ekal	-10.4386
▁Sen	-10.4387
▁श्रेणी	-10.4391
28	-10.4392
▁antarrashtriya	-10.4395
▁हालात	-10.4397
▁नियुक्त	-10.4398
▁lad	-10.4399
▁फैल	-10.4399
▁serious	-10.4403
▁Ven	-10.4406
▁मिश्र	-10.4409
▁जॉन	-10.4409
▁pustak	-10.4411
▁solution	-10.4412
NG	-10.4412
ल्फ	-10.4413
09	-10.4416
▁cru	-10.4423
05	-10.4424
▁explain	-10.4426
▁MP	-10.4429
▁economic	-10.4435
▁please	-10.4436
▁David	-10.4437
ूंगा	-10.4438
▁प्रसिद्ध	-10.4447
▁juuna	-10.4447
▁appearance	-10.4448
bul	-10.4457
▁Sports	-10.4462
clo	-10.4463
▁vigyaan	-10.4466
▁साहब	-10.4469
500	-10.4469
tional	-10.447
कृति	-10.4475
▁sitambar	-10.4475
▁सकें	-10.4477
▁पटेल	-10.4477
▁posted	-10.4478
▁खाते	-10.4481
▁octuber	-10.4482
▁madhyam	-10.4485
▁ग्ल	-10.449
वेश	-10.449
▁पोल	-10.4496
▁jaati	-10.4496
▁mahila	-10.4497
stone	-10.4498
▁middle	-10.4501
▁आपूर्ति	-10.4502
▁slow	-10.4505
▁prove	-10.4508
▁ठंड	-10.4508
▁उपाय	-10.4514
27	-10.4515
▁Yo	-10.4517
▁investigation	-10.452
▁तट	-10.4526
▁साझा	-10.4526
▁style	-10.453
▁आखिरी	-10.4536
▁Earlier	-10.4536
atmak	-10.4537
▁energy	-10.4547
श्त	-10.4548
▁winner	-10.4548
gro	-10.4549
RS	-10.4549
ncies	-10.4561
▁दृष्टि	-10.4563
▁टैक्स	-10.4565
▁मिलते	-10.4566
▁अन्त	-10.4567
वीर	-10.4572
point	-10.4573
ट्ठ	-10.4576
▁आईपीएल	-10.4577
▁क्वा	-10.4579
▁Chennai	-10.4583
▁south	-10.4587
ization	-10.4588
▁James	-10.459
▁सेंटर	-10.4592
▁Both	-10.4596
▁someone	-10.4596
kumar	-10.4601
▁मात्र	-10.4602
▁Hyderabad	-10.4607
▁सफाई	-10.4615
wood	-10.4618
▁carry	-10.4621
▁किरदार	-10.4621
▁कथित	-10.4624
▁दौरे	-10.4629
cycl	-10.463
▁ज़रूर	-10.4631
▁लुक	-10.4633
▁खाली	-10.4636
▁पदों	-10.4639
ख़	-10.4639
▁allowed	-10.464
▁अभिनेत्री	-10.4641
ृत	-10.4643
▁contact	-10.4644
ception	-10.4645
▁scheduled	-10.4646
▁carrier	-10.465
▁मान्यता	-10.465
▁hoti	-10.4652
▁khela	-10.4655
▁consist	-10.4656
▁rich	-10.4657
▁software	-10.4658
35	-10.4659
▁वर्षीय	-10.4661
▁sea	-10.4662
▁conference	-10.4664
nny	-10.4664
ு	-10.4665
▁बुला	-10.4669
▁कार्यकर्ता	-10.4672
▁चर्च	-10.4673
वानी	-10.4674
▁khilaadi	-10.4676
▁agast	-10.4683
90	-10.4687
▁सीबीआई	-10.4691
06	-10.4697
▁reportedly	-10.4697
▁खुलासा	-10.47
▁ब्लॉग	-10.4702
▁witness	-10.4705
▁spend	-10.4706
▁रहेगी	-10.4707
▁nadee	-10.4709
▁continued	-10.4714
▁Big	-10.4716
▁glo	-10.4719
▁उधर	-10.4721
▁पदार्थ	-10.4723
▁pitch	-10.4725
▁created	-10.4729
▁required	-10.4731
▁स्थानों	-10.4732
▁पशु	-10.4733
श्च	-10.4738
▁युवाओं	-10.4739
▁पंच	-10.4741
▁plant	-10.4742
▁Royal	-10.4744
▁disease	-10.4747
▁बोला	-10.4749
▁Uttar	-10.4755
▁माहौल	-10.4761
▁bowl	-10.4762
▁replace	-10.4763
▁Service	-10.4765
▁Live	-10.4766
▁देखना	-10.4769
▁ग्रामीणों	-10.477
▁themselves	-10.4772
▁टिप्पणी	-10.4774
▁prepare	-10.4774
▁मजबूर	-10.4775
▁import	-10.4775
▁आकार	-10.4776
▁नियमित	-10.4778
▁वर्मा	-10.478
▁खाद्य	-10.4781
▁julaai	-10.4783
▁choice	-10.4787
▁transfer	-10.4794
▁इंजीनियर	-10.4796
janm	-10.4799
▁adding	-10.4805
▁असम	-10.4806
नारायण	-10.481
▁antim	-10.4811
▁नाराज	-10.4818
▁लगाई	-10.482
▁रोहित	-10.4821
Z	-10.4824
▁बुरा	-10.483
▁Since	-10.483
▁पर्यावरण	-10.4832
▁आधुनिक	-10.4832
▁stra	-10.4832
▁looked	-10.4832
▁गुणवत्ता	-10.4835
▁bill	-10.4837
▁Iran	-10.4838
HA	-10.4848
बीएस	-10.4851
▁सोने	-10.4861
02	-10.4865
▁ब्रह्म	-10.4866
▁Code	-10.4868
▁Cho	-10.487
▁व्यापक	-10.4871
▁maee	-10.4872
▁जुड़ी	-10.4872
▁केजरीवाल	-10.4873
▁पुष्टि	-10.4874
cast	-10.4877
ग्राफ	-10.4883
▁कमेटी	-10.4887
▁code	-10.4888
▁practice	-10.4888
▁लूट	-10.4896
▁mentioned	-10.4897
ान्त	-10.4899
▁roman	-10.49
▁badal	-10.4903
▁अनिल	-10.4907
▁lower	-10.4912
▁छत्तीसगढ़	-10.4914
▁grand	-10.4917
▁activities	-10.4921
▁रेखा	-10.4925
▁effective	-10.4927
▁johnn	-10.4928
▁aprail	-10.4928
▁original	-10.4935
▁छोटा	-10.4935
▁bag	-10.4936
▁bowling	-10.4942
▁kept	-10.4945
▁बचाने	-10.4946
▁कितनी	-10.4948
▁दुर्घटना	-10.4953
▁जायेगा	-10.4954
▁navambar	-10.4955
▁कठिन	-10.4955
गाह	-10.4955
▁सक्षम	-10.4955
▁ट्रक	-10.4955
▁पुनर्	-10.4957
▁पाँच	-10.4965
▁foreign	-10.4967
▁पटना	-10.4979
He	-10.4984
▁बढ़ती	-10.499
▁damage	-10.499
▁जिनके	-10.5004
▁khilaf	-10.5006
vish	-10.5011
▁example	-10.5011
▁ड्राइव	-10.5011
where	-10.5016
▁झूठ	-10.5016
▁Manchester	-10.5017
▁प्लान	-10.5018
▁स्टे	-10.502
▁नेशनल	-10.5022
work	-10.5025
▁बधाई	-10.5026
▁पुरानी	-10.5029
क्की	-10.5031
▁2003	-10.5033
क्व	-10.5036
▁sport	-10.5039
▁agree	-10.5052
▁Sabha	-10.5053
▁currier	-10.5063
▁shooting	-10.5063
झा	-10.5064
▁blood	-10.5064
▁गठबंधन	-10.5066
▁ज़ि	-10.5067
वासियों	-10.5071
▁Paul	-10.5075
▁जिलों	-10.5077
▁प्रतिभा	-10.508
▁coronavirus	-10.5081
▁थोड़ी	-10.5091
▁अफ्रीका	-10.5093
▁natural	-10.5096
▁Gujarat	-10.5097
▁बांध	-10.5104
body	-10.5113
▁ग्रुप	-10.5113
▁gone	-10.5114
▁environment	-10.5117
ivity	-10.5119
▁Karnataka	-10.5119
▁2002	-10.5119
▁finally	-10.512
▁resident	-10.5122
▁जला	-10.5127
▁battle	-10.5129
▁पश्चिमी	-10.5129
▁सपा	-10.513
▁मधु	-10.513
▁टूर्नामेंट	-10.5137
▁setting	-10.5139
▁German	-10.5143
▁रुप	-10.5144
▁सूचीबद्ध	-10.5149
▁चेक	-10.5152
▁मुंह	-10.5152
CP	-10.5152
ordin	-10.5159
्रेट	-10.5161
▁बाग	-10.5168
bound	-10.5173
▁Maharashtra	-10.5175
rated	-10.5184
षित	-10.5188
▁Narendra	-10.5189
▁multi	-10.5193
▁बरस	-10.5194
▁अखबार	-10.5195
▁रोल	-10.5196
▁शब्दों	-10.52
▁progress	-10.5207
▁railway	-10.5208
▁jaise	-10.5209
▁mix	-10.5209
pradaan	-10.521
▁victim	-10.5212
▁download	-10.5212
▁वायरस	-10.5214
▁फ़िल्म	-10.5226
akshi	-10.5227
▁Bharat	-10.5232
▁raised	-10.5236
▁पहुंचने	-10.5238
▁authorities	-10.5241
▁nearly	-10.5242
▁Stadium	-10.5246
▁ICC	-10.525
बाजी	-10.5251
RO	-10.5251
▁joined	-10.5252
▁इंटर	-10.5259
▁अधिकांश	-10.526
▁औ	-10.5262
▁kendra	-10.5262
▁lack	-10.5265
न्ध	-10.5269
▁fresh	-10.5272
▁जनरल	-10.5272
▁surprise	-10.5287
▁रोजगार	-10.5287
▁इलाकों	-10.5291
▁इनकी	-10.5291
▁लॉन्च	-10.5293
minate	-10.5293
29	-10.5296
▁Secretary	-10.5298
▁supply	-10.5307
▁रास्ता	-10.5308
▁उठाया	-10.5311
▁कुं	-10.5312
▁बिल्कुल	-10.5313
▁Samsung	-10.5316
▁Miss	-10.5318
▁सम्मानित	-10.5322
▁क्लिक	-10.5322
▁CM	-10.5326
▁web	-10.5327
▁दलित	-10.5329
▁श्रम	-10.5331
hood	-10.5337
▁itself	-10.5345
▁मेहनत	-10.5363
▁written	-10.5366
acy	-10.5368
▁journey	-10.5373
▁पत्थर	-10.5375
▁गर्भ	-10.5376
▁instead	-10.5381
▁किताब	-10.5386
▁सिटी	-10.5399
ऊं	-10.5401
▁वित्तीय	-10.5405
मुख	-10.5406
▁कपड़े	-10.5415
▁rise	-10.5418
▁फोर	-10.542
▁भो	-10.5422
▁पढ़ाई	-10.5422
▁north	-10.5425
▁फेसबुक	-10.5425
▁koee	-10.5425
▁Yadav	-10.5436
▁Var	-10.5441
▁secure	-10.5442
▁respond	-10.5446
▁avoid	-10.5447
▁bahut	-10.545
▁खेलने	-10.5452
▁sthaapana	-10.5453
▁2001	-10.5459
▁आशा	-10.546
▁letter	-10.5465
▁ज्यादातर	-10.5466
▁scene	-10.5467
▁Men	-10.5469
03	-10.5469
▁karati	-10.5471
▁गठन	-10.5471
▁मारे	-10.5474
▁Assam	-10.5483
▁आतंकी	-10.5483
▁किशोर	-10.5483
▁Our	-10.5484
gate	-10.5484
▁attention	-10.5488
▁चढ़	-10.549
▁employ	-10.5491
▁पृष्ठ	-10.5492
▁initial	-10.5495
▁CEO	-10.5498
ऋ	-10.5499
▁included	-10.5509
▁jiska	-10.5512
▁जगत	-10.5512
circ	-10.5513
्हा	-10.5513
▁उत्साह	-10.5515
▁क्यू	-10.5516
▁माइ	-10.552
▁ईश्वर	-10.5523
▁ज्योति	-10.5525
▁material	-10.5535
▁Kashmir	-10.554
▁छोड़कर	-10.5549
zen	-10.5551
▁Kerala	-10.5552
▁massive	-10.5556
ically	-10.5557
▁किताबें	-10.5563
▁ट्रांस	-10.5566
▁appeared	-10.5571
▁enable	-10.5571
▁sold	-10.5574
▁वायु	-10.5576
▁बीज	-10.5578
▁tried	-10.5579
▁डांस	-10.558
▁mill	-10.5582
▁हंस	-10.5585
▁Business	-10.5587
▁suit	-10.5588
अलग	-10.5589
▁file	-10.5592
▁संस्करण	-10.5593
▁franchise	-10.5597
▁tee	-10.5598
▁जिम्मेदार	-10.5598
▁Under	-10.56
NT	-10.5604
▁disambar	-10.5605
▁drug	-10.5605
▁manager	-10.5605
graph	-10.5605
▁highlight	-10.5611
▁आत्मा	-10.5614
▁भोपाल	-10.5615
▁ठहर	-10.5616
▁Home	-10.5617
▁regarding	-10.5618
▁expressed	-10.5621
▁promise	-10.5621
▁Virat	-10.5622
▁Let	-10.5625
ऑ	-10.5626
▁Comp	-10.5626
▁fill	-10.5631
▁vartamaan	-10.5633
cra	-10.5636
CO	-10.5639
▁निशान	-10.564
भि	-10.5644
लाइन	-10.5652
▁कक्षा	-10.5652
▁committee	-10.5665
▁standard	-10.5671
▁gun	-10.5672
▁ताकत	-10.5683
▁decade	-10.5686
▁kyonki	-10.5691
▁शूटिंग	-10.5691
▁इंडियन	-10.5693
script	-10.5693
▁Olympic	-10.5697
मेट	-10.5698
▁Your	-10.5701
▁Russia	-10.5706
ë	-10.5711
▁knock	-10.5712
▁farmers	-10.5713
▁connection	-10.5715
▁तापमान	-10.5717
▁Gar	-10.5723
ا	-10.5728
▁NBA	-10.5728
बोध	-10.573
▁advance	-10.5737
▁german	-10.5737
▁increased	-10.5739
room	-10.5742
▁Lok	-10.5744
योजन	-10.5746
▁drop	-10.575
▁install	-10.5751
▁object	-10.5756
▁नीतीश	-10.5758
▁नियमों	-10.5761
TC	-10.5761
▁उक्त	-10.5762
▁utpaad	-10.5763
▁अनुमान	-10.5766
▁अंतर्गत	-10.5772
▁true	-10.5773
▁prajaati	-10.5774
▁अंध	-10.5776
▁adhyayan	-10.5778
▁Last	-10.5779
▁संचालन	-10.578
▁पड़ेगा	-10.578
▁तथ्य	-10.5784
▁ongoing	-10.579
▁रणनीति	-10.579
▁parties	-10.5792
▁pahunch	-10.5792
▁निशाना	-10.5801
▁धमकी	-10.5806
▁एसपी	-10.5811
▁लगाकर	-10.5815
▁active	-10.5816
▁heavy	-10.5817
▁dollar	-10.5823
ME	-10.5827
▁वर्ल्ड	-10.5832
▁दर्शकों	-10.5837
▁गेम	-10.5839
▁बराबर	-10.5845
▁देगा	-10.5849
▁फरार	-10.585
▁Israel	-10.5851
▁राह	-10.5851
▁Rohit	-10.5854
▁conducted	-10.5857
▁लगती	-10.5862
्चर	-10.5863
▁गिरावट	-10.5868
isation	-10.5869
▁badh	-10.587
▁नोटिस	-10.5873
▁आगामी	-10.588
▁Over	-10.5882
ग्राम	-10.5891
▁धोनी	-10.5895
▁Yu	-10.5896
▁विज्ञापन	-10.5897
▁Watch	-10.5897
▁Black	-10.5903
▁Windows	-10.591
head	-10.5911
04	-10.5917
▁मानते	-10.5919
▁treat	-10.5933
▁complaint	-10.5936
▁lagaa	-10.5944
RE	-10.5944
▁फेंक	-10.5945
▁actually	-10.5945
▁ट्रैक	-10.5958
▁UFC	-10.5958
▁jile	-10.596
▁विशाल	-10.5964
▁वास्तविक	-10.5967
▁satra	-10.5973
▁लंबी	-10.5974
्ज़	-10.5974
▁drama	-10.5976
▁चोर	-10.5977
PL	-10.5981
▁करार	-10.5983
▁2024	-10.5991
▁grant	-10.5992
▁parents	-10.5993
▁remove	-10.5997
▁paper	-10.6001
▁happened	-10.6007
TE	-10.6007
▁Assembly	-10.6013
▁vaccine	-10.6018
▁purchase	-10.6021
▁internet	-10.6022
▁महाराज	-10.6032
▁बढ	-10.6032
िस्तान	-10.6034
▁offering	-10.6035
▁उत्पन्न	-10.6041
▁Supreme	-10.6046
▁format	-10.6046
▁vee	-10.6049
कॉम	-10.6052
▁subject	-10.6055
▁collection	-10.6066
▁celebrate	-10.6068
▁completed	-10.6069
▁plea	-10.6072
▁शख्स	-10.6074
▁voice	-10.6075
▁किनारे	-10.6077
wise	-10.6077
▁MLA	-10.6085
▁baahar	-10.6088
▁दस्तावेज	-10.6092
▁चौहान	-10.6093
▁डेटा	-10.6099
▁electric	-10.6103
▁नेटवर्क	-10.6104
▁नवीन	-10.6107
▁Rajasthan	-10.6112
▁prior	-10.6114
▁मिश्रा	-10.6114
▁लिंक	-10.6117
▁पत्रकारों	-10.6122
bhav	-10.6127
్	-10.6127
▁पर्याप्त	-10.6127
DC	-10.6128
▁दिये	-10.6133
▁jinhone	-10.6133
▁आराम	-10.6134
▁सैन्य	-10.6137
▁opinion	-10.6143
▁उत्पादों	-10.6145
▁Bill	-10.6151
सीए	-10.6154
▁एल्बम	-10.6155
▁झारखंड	-10.617
▁London	-10.6173
ollywood	-10.6175
▁Council	-10.6176
▁dream	-10.6178
▁वेतन	-10.6182
▁तिवारी	-10.6184
▁rather	-10.6184
▁fear	-10.6189
▁कर्नाटक	-10.6197
▁domestic	-10.6205
▁सख्त	-10.6206
▁आँख	-10.621
▁प्राकृतिक	-10.6213
▁फैला	-10.6218
▁varg	-10.622
▁soochi	-10.6221
▁arrive	-10.6225
▁goes	-10.6229
▁unique	-10.6229
▁घेर	-10.6233
▁prakaashit	-10.6242
▁appeal	-10.6242
▁partnership	-10.6243
▁farwari	-10.6245
▁trip	-10.6249
▁श्रीलंका	-10.6253
▁simple	-10.6253
cious	-10.6255
▁anyone	-10.6274
▁दाखिल	-10.6274
▁नील	-10.6276
▁Just	-10.6277
▁आलोचना	-10.6282
▁Blue	-10.6283
▁Committee	-10.6285
▁legend	-10.6286
▁उपाध्यक्ष	-10.6292
▁produced	-10.6294
▁Who	-10.6299
्रेस	-10.6299
EC	-10.6301
▁परन्तु	-10.6302
5,000	-10.6304
▁मुद्दों	-10.6305
▁physical	-10.6306
▁स्टेट	-10.6307
▁purush	-10.631
▁तिर	-10.6314
trick	-10.6318
▁संक्रमण	-10.6323
▁location	-10.6323
▁अग्र	-10.6325
▁यात्रियों	-10.6326
▁बॉक्स	-10.6327
▁peace	-10.6334
▁sadak	-10.6337
▁edition	-10.6337
▁बजा	-10.6338
▁चैंपियनशिप	-10.6339
▁महिलाएं	-10.634
NC	-10.6352
•	-10.6355
▁stories	-10.6355
▁सन्	-10.6357
▁pm	-10.6358
▁खिला	-10.6359
spinner	-10.6359
▁border	-10.6364
▁overall	-10.6368
▁loan	-10.6369
▁अधिनियम	-10.6371
भाषा	-10.6375
▁consumer	-10.6376
▁Za	-10.6378
▁सीजन	-10.638
32	-10.6382
▁compared	-10.6386
▁साइट	-10.6388
▁injured	-10.6388
▁owner	-10.6398
▁शहीद	-10.6399
▁additional	-10.6401
▁felt	-10.6405
▁Mur	-10.6406
▁अग्रवाल	-10.6407
ü	-10.6409
▁safety	-10.641
▁employees	-10.6412
▁click	-10.6412
▁124	-10.6413
31	-10.6414
▁अक्षय	-10.6416
▁हिसाब	-10.6422
▁संविधान	-10.6424
▁quick	-10.6425
order	-10.6427
98	-10.6427
▁लागत	-10.6429
▁clash	-10.6429
▁bhaarat	-10.6434
▁काउंटी	-10.6435
▁रक्त	-10.6436
96	-10.6446
▁वार्ड	-10.6447
▁1990	-10.645
▁Asia	-10.6451
▁रोशन	-10.6455
▁movement	-10.6458
▁बदमाश	-10.6461
▁allegedly	-10.6463
ological	-10.6465
▁sangrah	-10.6465
▁तारीख	-10.6467
▁politics	-10.6468
▁तहसील	-10.6468
▁French	-10.647
▁स्त्री	-10.647
ŋ	-10.6471
▁दुर्लभ	-10.6471
क्रि	-10.6475
▁बच्ची	-10.6478
▁Justice	-10.6482
▁adhikaar	-10.6484
▁shoot	-10.6484
नायक	-10.6486
▁खतरा	-10.6486
▁wonder	-10.6491
OR	-10.6495
▁मचा	-10.6502
!!	-10.6502
▁society	-10.6503
▁living	-10.651
▁basis	-10.6514
▁presence	-10.6518
▁सुनील	-10.652
▁बेहतरीन	-10.6525
▁economy	-10.6534
▁chhod	-10.6536
▁ग्रहण	-10.6536
▁ग्राहकों	-10.654
▁UK	-10.6541
▁cell	-10.6541
▁Islam	-10.6542
poli	-10.6546
▁Indies	-10.6552
ाचार्य	-10.6558
▁परिवहन	-10.6561
▁scoring	-10.6561
▁tele	-10.6568
▁Despite	-10.6569
aiss	-10.657
▁चुना	-10.6571
▁comfort	-10.6574
▁built	-10.6576
▁batsman	-10.6576
▁आबादी	-10.6584
▁fair	-10.6584
▁चाय	-10.6585
pho	-10.6591
▁दीपक	-10.6596
▁विजेता	-10.6598
▁engage	-10.6599
keeper	-10.6601
▁प्रकृति	-10.6604
▁पेशेवर	-10.661
▁street	-10.6622
duction	-10.6623
▁cricketer	-10.6628
▁बचाव	-10.6631
▁catch	-10.6631
▁प्रांत	-10.6632
▁सचिन	-10.6634
▁Kings	-10.6634
▁informed	-10.6643
36	-10.6656
▁अखिलेश	-10.6658
▁flow	-10.666
▁मुद्रा	-10.6661
▁बढ़ावा	-10.6661
▁Why	-10.6671
match	-10.6675
▁legal	-10.6682
शाह	-10.6688
▁military	-10.6688
▁राजीव	-10.6688
▁computer	-10.6691
▁immediately	-10.6694
▁madhya	-10.6697
zar	-10.6699
▁detail	-10.6699
▁express	-10.6706
▁niyukt	-10.6709
▁अर्थव्यवस्था	-10.6713
▁trust	-10.6713
▁straight	-10.6713
स्को	-10.6717
▁300	-10.6718
▁समर्थक	-10.6725
▁सिनेमा	-10.6726
▁संसाधन	-10.6731
▁ज्	-10.674
▁beautiful	-10.674
view	-10.6743
▁Bhu	-10.6743
▁uchch	-10.675
ender	-10.6752
▁regard	-10.6762
▁revenue	-10.6765
▁स्क्रीन	-10.6767
karta	-10.6774
97	-10.6777
ville	-10.6782
इंट	-10.6785
<	-10.6792
▁Michael	-10.6794
▁losing	-10.6795
▁परंपरा	-10.6796
▁नाटक	-10.6798
▁Post	-10.6804
▁attract	-10.6809
ப	-10.6813
ட	-10.6814
33	-10.6817
र्ध	-10.6819
▁चक्र	-10.6819
▁नक्सल	-10.6821
▁लड़कियों	-10.6826
▁Check	-10.6832
▁color	-10.6843
▁kick	-10.6845
▁wrong	-10.6849
▁baind	-10.6849
▁paanch	-10.6854
▁announcement	-10.6861
▁इमारत	-10.6871
▁शुल्क	-10.6873
▁लाइफ	-10.6873
▁पीठ	-10.6877
जन्म	-10.6878
▁Port	-10.6883
ऊँ	-10.6887
▁throughout	-10.6888
▁यूनिवर्सिटी	-10.6891
▁Dhoni	-10.6897
▁वैश्विक	-10.6898
▁alag	-10.6899
▁medal	-10.6903
▁जागरूक	-10.6916
▁Russian	-10.6916
▁conduct	-10.6916
▁फ्री	-10.6916
▁दौरा	-10.6923
▁लिस्ट	-10.6924
कर्मी	-10.6924
▁uttari	-10.6931
व्ह	-10.6932
▁ऑटो	-10.6934
▁skipper	-10.6935
▁&#124;	-10.6938
▁खड़ी	-10.6938
▁struggle	-10.6947
▁उत्तराखंड	-10.6948
▁कोलकाता	-10.6948
▁restrict	-10.696
▁भरोसा	-10.6966
▁sanskaran	-10.6966
▁task	-10.697
▁खींच	-10.6971
▁लगते	-10.6972
▁विवरण	-10.6979
▁Galaxy	-10.6983
▁pratiyogita	-10.6983
▁संरक्षण	-10.6983
▁शेर	-10.6992
▁normal	-10.6996
power	-10.6997
▁सुझाव	-10.6997
▁स्वतंत्रता	-10.6997
▁1999	-10.6997
▁weekend	-10.7
▁स्टेडियम	-10.7002
▁वितरण	-10.7002
▁दिमाग	-10.7002
▁पत्रिका	-10.7004
▁किलोमीटर	-10.7014
92	-10.7018
ेक्शन	-10.7021
▁Speaking	-10.7021
press	-10.7022
▁रेड	-10.7023
▁योजनाओं	-10.7028
▁citizen	-10.7028
▁वजन	-10.7029
ाऊ	-10.7033
▁Although	-10.7033
▁Former	-10.7036
▁दीवार	-10.7037
▁flight	-10.7037
▁युवती	-10.704
▁एक्टर	-10.7041
▁dusare	-10.7046
▁ब्रिटेन	-10.7051
▁लंदन	-10.7054
▁घुस	-10.7059
▁providing	-10.7059
▁machine	-10.7066
▁प्रजाति	-10.7068
▁खुले	-10.707
▁बुरी	-10.707
▁maarg	-10.707
▁People	-10.7073
▁खून	-10.7074
▁ब्रिटिश	-10.7077
▁क्षेत्रीय	-10.7079
ர	-10.7091
▁chhote	-10.7091
▁else	-10.7092
▁Reddy	-10.7093
▁trend	-10.71
▁बांग्लादेश	-10.7103
▁Maha	-10.7104
▁budget	-10.7117
क्के	-10.712
▁praarambhik	-10.7124
▁Korea	-10.7126
▁अंजाम	-10.7126
▁रद्द	-10.7128
▁निधन	-10.713
▁मंजूरी	-10.7131
▁isaki	-10.7131
▁text	-10.714
▁न्यायाधीश	-10.7142
▁फुट	-10.7144
▁judge	-10.7147
▁Telugu	-10.7156
▁sthaaniya	-10.7159
▁cinema	-10.7159
▁जताई	-10.7163
▁command	-10.7164
▁महासचिव	-10.7166
▁गतिविधियों	-10.7169
▁परंतु	-10.7172
▁America	-10.7172
▁उड़ान	-10.7174
stitute	-10.7175
▁स्वतंत्र	-10.7179
▁counter	-10.7185
▁मुख्यालय	-10.7188
▁प्रतिनिधित्व	-10.7189
▁jeetaa	-10.719
▁कार्यवाही	-10.7193
▁जितना	-10.7201
▁पात्र	-10.7201
▁ओपन	-10.7203
▁मार्क	-10.7206
▁गहरा	-10.7211
▁temple	-10.7213
▁बुद्धि	-10.7214
▁क्रिया	-10.7225
▁necessary	-10.7235
▁shop	-10.7238
▁samaapt	-10.7239
▁email	-10.7239
▁जाहिर	-10.7239
▁Movie	-10.7241
tribute	-10.7242
▁हस्ताक्षर	-10.7244
▁राज्यपाल	-10.7248
▁मास्टर	-10.7251
▁dinn	-10.7252
▁welcome	-10.7253
▁पाठक	-10.7256
▁boost	-10.7259
▁promote	-10.726
▁cash	-10.726
▁प्रगति	-10.7261
ꞌ	-10.7264
▁कोविड	-10.7272
▁प्राण	-10.7273
▁Chandra	-10.7278
▁चांद	-10.7279
▁murder	-10.7289
▁chau	-10.729
▁किन्तु	-10.7291
पीएस	-10.7292
▁अकाउंट	-10.7292
▁phase	-10.7296
▁धन्यवाद	-10.7298
▁Madrid	-10.7298
▁मार्केट	-10.7301
▁हिन्दू	-10.7301
▁rival	-10.7309
▁सम्बन्ध	-10.7312
▁कौशल	-10.7314
▁aakar	-10.7315
▁ममता	-10.7324
▁payment	-10.7324
▁depend	-10.7327
▁अभ्यास	-10.7334
भूमि	-10.7335
▁contribute	-10.7335
▁ऐप	-10.7339
▁शिमला	-10.7343
▁अनुसंधान	-10.7348
▁पृथ्वी	-10.735
▁Bengaluru	-10.7353
▁उपभोक्ता	-10.7361
▁वनडे	-10.7362
▁अरुण	-10.7367
▁वार्ता	-10.737
▁quickly	-10.7372
▁dweep	-10.7373
▁aayojit	-10.7384
▁मिशन	-10.7394
▁planning	-10.7398
▁निकट	-10.7402
▁सफेद	-10.7404
▁एक्सप्रेस	-10.7411
▁throw	-10.7411
▁crucial	-10.7414
▁मनाया	-10.7416
▁pretty	-10.7417
▁handle	-10.7419
▁daur	-10.7437
▁opposition	-10.7438
▁fashion	-10.7442
▁size	-10.7444
▁senaa	-10.7444
▁jisak	-10.7445
▁radio	-10.7455
▁ढंग	-10.746
▁Exp	-10.7462
▁विशिष्ट	-10.7464
▁शिविर	-10.7469
▁हाँ	-10.7469
▁पुस्तकें	-10.7469
PO	-10.7472
▁अफसर	-10.7476
▁त्वचा	-10.7478
▁शर्त	-10.7481
▁उल्लेखनीय	-10.7486
▁मूर्ति	-10.7487
▁bund	-10.7488
▁राजेश	-10.7488
▁हफ्ते	-10.7495
▁बच्चा	-10.7495
▁धारण	-10.7495
पीसी	-10.7496
▁smart	-10.7497
▁completely	-10.7499
▁Development	-10.7504
वंत	-10.7516
▁administration	-10.752
▁इधर	-10.7521
▁prabhaav	-10.7526
▁kalaa	-10.7526
▁Grand	-10.7528
▁separate	-10.7528
▁THE	-10.7535
▁चमक	-10.7537
▁औसत	-10.7539
▁प्रयुक्त	-10.7546
▁मनोज	-10.7549
▁ऋण	-10.7551
▁फार्म	-10.7557
▁vaalaa	-10.7557
▁टक्कर	-10.7559
▁बेटा	-10.756
▁School	-10.7562
▁कैंसर	-10.757
▁उल्लेख	-10.7575
▁शांत	-10.758
▁YouTube	-10.7586
▁चाहिये	-10.7596
▁peshevar	-10.7599
▁aich	-10.7604
▁मशहूर	-10.7605
▁लंबा	-10.7605
▁स्वरूप	-10.7611
▁Alex	-10.7611
ா	-10.7614
▁spirit	-10.7614
▁sense	-10.7619
▁European	-10.762
▁petition	-10.7623
▁डिजिटल	-10.7629
▁शैली	-10.7632
▁jabaki	-10.7638
▁सर्वश्रेष्ठ	-10.764
▁चेतावनी	-10.7651
▁Gold	-10.7653
▁मंडी	-10.7658
▁snaatak	-10.766
▁purpose	-10.766
▁doubleu	-10.7664
▁Kolkata	-10.7669
▁cities	-10.7671
▁हाईकोर्ट	-10.7671
एनए	-10.7674
▁लाया	-10.7675
▁crowd	-10.7684
▁आदर्श	-10.7688
▁discussion	-10.7688
▁dress	-10.7694
▁Step	-10.7694
India	-10.7696
▁shock	-10.77
▁easily	-10.7707
▁मारपीट	-10.7714
▁isamen	-10.7715
▁exchange	-10.7718
▁संवाददाता	-10.7721
▁पवित्र	-10.7723
▁shift	-10.7723
▁husband	-10.7727
▁Ltd	-10.773
▁adhyaksh	-10.7731
▁Film	-10.7732
▁hundred	-10.7733
▁probably	-10.7733
▁केरल	-10.7736
▁difference	-10.7748
phone	-10.7752
घात	-10.7752
▁badey	-10.7752
▁कामयाब	-10.7753
▁ज़्यादा	-10.7757
▁ऐलान	-10.7765
▁प्रत्याशी	-10.7776
▁प्राचीन	-10.7778
▁kanada	-10.7781
▁anusaar	-10.7787
इंग	-10.7798
▁Nav	-10.7808
▁shatabdi	-10.7811
▁हुये	-10.7814
▁डूब	-10.7815
▁दूसरों	-10.7821
▁तुम्हारे	-10.7823
▁colour	-10.7823
▁बाढ़	-10.7825
▁निर्भर	-10.7832
▁परमाणु	-10.7834
▁करवाया	-10.7835
▁आशंका	-10.7838
बर्ग	-10.784
▁स्वच्छ	-10.784
▁इंस्टाग्राम	-10.7842
▁क्लास	-10.7842
▁Out	-10.7842
▁ब्लॉक	-10.7843
▁स्नातक	-10.7847
▁श्रद्धा	-10.7855
▁commission	-10.7857
▁लिमिटेड	-10.7862
▁farm	-10.7863
▁मुकाबला	-10.7868
▁Park	-10.7871
▁तारीफ	-10.7876
▁शाहरुख	-10.7878
▁blue	-10.7878
▁UP	-10.7878
▁Other	-10.7881
▁status	-10.7885
▁XI	-10.7888
▁सपना	-10.7893
▁दृश्य	-10.79
▁150	-10.7905
▁crime	-10.7914
▁micro	-10.7914
▁द्वीप	-10.7921
ुअल	-10.7923
▁शारीरिक	-10.7925
▁स्वस्थ	-10.7926
▁artist	-10.7929
▁theatre	-10.793
▁लोकतंत्र	-10.7934
▁मिट्टी	-10.794
▁ब्लैक	-10.7942
▁तर्क	-10.7944
▁increasing	-10.7959
▁essential	-10.7965
▁हृदय	-10.7965
▁दर्शा	-10.7966
▁जयपुर	-10.7966
▁kissy	-10.7969
▁मंगल	-10.7974
▁वर्णन	-10.7975
▁direction	-10.7978
▁aind	-10.7983
▁अमृत	-10.7984
▁शाखा	-10.7988
▁Update	-10.7992
▁Japan	-10.7999
▁तिथि	-10.8
▁उर्फ	-10.8005
▁remember	-10.8009
▁prakaar	-10.8009
▁हिरासत	-10.8011
▁कनाडा	-10.8011
▁largest	-10.8021
▁फायदे	-10.8024
▁occur	-10.8026
▁कपिल	-10.8028
▁wall	-10.803
▁गेट	-10.8036
▁Association	-10.8036
▁Every	-10.8036
▁भाषण	-10.8038
▁भूख	-10.8048
▁lose	-10.8049
▁organization	-10.805
▁impressive	-10.8051
▁लड़के	-10.8057
▁First	-10.8065
▁विवेक	-10.8071
▁सदन	-10.8076
▁1980	-10.8076
▁उद्घाटन	-10.8076
tric	-10.8078
▁अर्जुन	-10.8082
▁इंडस्ट्री	-10.8082
▁प्रभु	-10.8084
▁Europe	-10.8086
▁expand	-10.809
▁लेंगे	-10.8098
▁Ahmed	-10.8104
▁चिकित्सक	-10.8109
▁छाप	-10.812
▁stress	-10.8123
▁1996	-10.8123
▁equal	-10.8128
▁संस्कार	-10.8135
▁sthaapit	-10.8144
▁आरक्षण	-10.8145
▁choose	-10.815
▁Free	-10.8156
▁उल्लंघन	-10.8156
▁bru	-10.8164
▁भट्ट	-10.8168
▁लिहाज	-10.8175
▁pratyek	-10.8181
▁प्रौद्योगिकी	-10.8183
▁अतिथि	-10.8185
▁टेक	-10.8187
▁तरीका	-10.8187
▁निराश	-10.8189
▁newyork	-10.8189
▁शुक्ल	-10.8189
ம	-10.8191
▁Muslim	-10.8191
▁धूम	-10.8192
▁violence	-10.8205
▁NFL	-10.8207
▁dikhaai	-10.8209
▁स्मार्टफोन	-10.8211
▁quote	-10.8215
▁सकेंगे	-10.8215
▁लहर	-10.8216
▁सागर	-10.8229
▁virus	-10.8229
▁Power	-10.8238
▁giant	-10.824
▁White	-10.8242
गांव	-10.8243
▁मोटर	-10.8244
place	-10.8248
▁advantage	-10.8248
▁monitor	-10.8248
▁सूत्र	-10.8249
▁दिलचस्प	-10.825
▁साउथ	-10.825
▁प्रोजेक्ट	-10.8252
▁generation	-10.8256
▁vyakti	-10.8266
▁सीमित	-10.8268
▁आकाश	-10.8268
▁Asian	-10.8269
break	-10.8271
प्रीत	-10.8274
▁Research	-10.8276
▁francis	-10.8276
▁निर्वाचन	-10.8283
▁Smith	-10.8284
▁यात्री	-10.8286
▁1998	-10.8292
▁invite	-10.8297
▁यूरोप	-10.8303
▁एसोसिएशन	-10.8307
▁exercise	-10.8311
▁startup	-10.8314
▁wedding	-10.8315
▁ब्रांड	-10.8333
▁अरविंद	-10.8341
▁बच्चन	-10.8343
▁tahat	-10.8352
▁प्रेरित	-10.8355
▁festival	-10.8361
▁टॉप	-10.8369
▁associate	-10.8371
▁अधीक्षक	-10.8375
▁leaving	-10.8375
▁thousand	-10.8377
▁स्कोर	-10.8377
▁panel	-10.8381
▁लक्ष्मी	-10.8387
मणि	-10.839
▁leey	-10.8406
▁karein	-10.8415
▁संचालित	-10.8417
▁rid	-10.8424
▁Nepal	-10.8424
▁आत्महत्या	-10.8435
▁nature	-10.8438
▁declared	-10.8445
▁आमतौर	-10.8463
▁गणेश	-10.8469
▁Institute	-10.8473
▁minute	-10.8473
▁caught	-10.8474
▁initiative	-10.8477
▁emerge	-10.848
▁सिद्धांत	-10.8486
▁एंटी	-10.8488
▁इस्तीफा	-10.8489
▁facing	-10.8492
▁Nadu	-10.8492
▁bhoomika	-10.8493
▁मालूम	-10.8501
▁amid	-10.8504
▁syn	-10.8504
▁dropped	-10.8505
▁पर्यटन	-10.8507
▁accident	-10.8511
▁प्रावधान	-10.8513
▁Green	-10.8517
▁कंप्यूटर	-10.8533
▁सकारात्मक	-10.8533
▁fifth	-10.8533
▁Education	-10.8539
▁टु	-10.8542
▁agreement	-10.8543
▁teacher	-10.8546
▁items	-10.8561
▁category	-10.857
▁शर्म	-10.8573
▁खारिज	-10.8576
ानंद	-10.8579
▁identified	-10.8582
▁traffic	-10.8586
▁हैदराबाद	-10.8586
▁haalaanki	-10.8588
▁reveal	-10.8588
▁त्याग	-10.8589
▁hearing	-10.859
house	-10.8593
▁चढ़ा	-10.8595
एसआई	-10.8595
▁vibhinn	-10.8598
▁प्रतीक	-10.8599
औ	-10.8602
▁सांस्कृतिक	-10.8606
▁encounter	-10.8606
▁British	-10.8608
▁capacity	-10.8616
▁शेख	-10.8621
▁shaadi	-10.8622
▁participate	-10.8623
▁reserve	-10.8624
▁professor	-10.8631
भूषण	-10.8633
dicate	-10.8652
पंथ	-10.8664
▁समाजवादी	-10.8666
▁ख़बर	-10.8666
▁कालेज	-10.8666
▁निवास	-10.8668
▁दिक्कत	-10.867
▁civil	-10.8672
▁delay	-10.8672
▁basic	-10.8677
▁annual	-10.8685
▁जरुर	-10.869
▁चेन्नई	-10.869
▁सोनिया	-10.8695
▁College	-10.8698
▁Jesus	-10.8709
▁स्रोत	-10.8714
▁शिवसेना	-10.8715
▁ट्रंप	-10.8716
▁Series	-10.8728
த	-10.8731
▁predict	-10.8741
▁Ethics	-10.8742
▁Hospital	-10.8746
▁draft	-10.8746
▁Afghanistan	-10.8748
▁Please	-10.8748
▁british	-10.8748
▁संशोधन	-10.8754
▁surface	-10.8756
▁ticket	-10.8758
▁मतदाता	-10.8759
▁दोबारा	-10.8762
▁slo	-10.8763
▁Final	-10.8763
▁राजकुमार	-10.8766
▁sustain	-10.8769
▁मध्यप्रदेश	-10.8771
▁सहमति	-10.8773
▁Telangana	-10.8775
▁तुम्हें	-10.8775
▁राकेश	-10.8783
▁opponent	-10.8785
फील्ड	-10.8787
▁अनुकूल	-10.8787
▁promotion	-10.8787
▁कॉन्	-10.8788
▁विद्या	-10.8795
▁traditional	-10.8795
▁शुद्ध	-10.88
▁viral	-10.8811
▁pratinidhitva	-10.8812
▁दैनिक	-10.8812
▁Another	-10.8825
▁alongside	-10.8836
▁investors	-10.8837
▁मनीष	-10.8851
▁weapon	-10.8852
▁usake	-10.8853
▁excellent	-10.8856
▁स्टाफ	-10.886
▁मस्जिद	-10.8864
[	-10.8867
▁बचपन	-10.8871
▁beginning	-10.8879
▁निर्यात	-10.8879
▁अगली	-10.8879
▁student	-10.888
▁cancer	-10.8883
▁संपादक	-10.8889
▁Washington	-10.8891
▁haih	-10.8894
▁aitihaasik	-10.8898
▁व्यक्तियों	-10.8902
▁France	-10.8902
▁ओलंपिक	-10.8904
▁नियुक्ति	-10.8912
कृष्ण	-10.8918
▁मुकदमा	-10.8919
▁Krishna	-10.8929
▁ausat	-10.893
▁guide	-10.8935
▁construction	-10.8936
▁Thank	-10.8936
▁Phil	-10.8939
▁मुद्दा	-10.8942
sert	-10.895
▁किस्म	-10.8952
▁Two	-10.8959
▁passenger	-10.8965
▁इंजन	-10.8967
ibility	-10.8972
▁District	-10.8974
▁विस्फोट	-10.8982
▁इलेक्ट्र	-10.8986
▁infrastructure	-10.8986
▁महीनों	-10.8986
▁Capital	-10.8988
▁Though	-10.8993
▁चार्ज	-10.8998
▁decide	-10.9
▁यूरोपीय	-10.9002
▁बाबू	-10.9007
▁चीज़	-10.9008
▁संसार	-10.9009
ل	-10.9016
मैं	-10.9018
▁method	-10.9018
▁प्रोफेसर	-10.9024
▁Corporation	-10.9029
▁अनुरोध	-10.9039
▁सिविल	-10.9039
▁wild	-10.9043
ntegr	-10.9064
▁दिग्गज	-10.9065
▁favourite	-10.9068
▁फॉर	-10.9074
▁discover	-10.9077
DNPA	-10.9078
▁खिताब	-10.9078
▁Barcelona	-10.9084
▁angreji	-10.9086
▁jump	-10.9088
▁whi	-10.9092
▁schedule	-10.9093
▁settle	-10.9095
▁सर्विस	-10.9106
▁मृत	-10.9114
**	-10.9121
▁Trans	-10.9121
▁संतोष	-10.9125
▁विद्युत	-10.9129
▁Standard	-10.9146
▁शुरु	-10.9148
भोग	-10.9151
ి	-10.9155
▁1997	-10.9155
▁respectively	-10.9166
▁blog	-10.9169
▁lekhak	-10.917
▁frame	-10.917
▁ब्रेक	-10.9174
▁lift	-10.9178
▁Railway	-10.9189
▁studio	-10.9196
▁जबरदस्त	-10.9198
▁evidence	-10.9202
▁न्यूजीलैंड	-10.9205
▁thrill	-10.9209
▁बुलाया	-10.9211
▁प्रकट	-10.9213
▁तीसरी	-10.9215
▁storage	-10.9222
▁definitely	-10.9224
▁executive	-10.9226
▁female	-10.9226
▁baby	-10.9229
ı	-10.9233
▁families	-10.9233
▁retail	-10.9233
▁मुफ्त	-10.9235
▁famous	-10.9237
▁culture	-10.9237
▁dance	-10.9238
▁Class	-10.9239
▁transport	-10.9244
▁1992	-10.9248
▁Parliament	-10.925
▁register	-10.9253
▁leadership	-10.9255
▁नींद	-10.9257
▁यूनियन	-10.9265
▁chalaa	-10.9269
▁विरुद्ध	-10.927
▁अग्नि	-10.9271
▁bol	-10.9272
▁वारदात	-10.9274
▁producer	-10.928
▁confidence	-10.9281
▁gho	-10.9282
*	-10.9284
▁मुझसे	-10.9285
▁PTI	-10.9294
▁animal	-10.9294
▁population	-10.9302
▁कल्पना	-10.9302
▁beyond	-10.9305
▁doubt	-10.9305
▁कार्यकाल	-10.9305
▁अनिवार्य	-10.9307
▁sarkaar	-10.931
▁चीजें	-10.9311
▁kalakar	-10.9311
▁गोल्ड	-10.9315
▁दिव्य	-10.9318
▁infection	-10.932
▁शपथ	-10.932
▁दीपिका	-10.932
▁अपेक्षा	-10.9322
▁speech	-10.9329
▁Brazil	-10.9331
▁प्रताप	-10.9336
▁सिन्हा	-10.9342
▁Republic	-10.9362
▁संकल्प	-10.9362
▁photograph	-10.9362
▁पंडित	-10.9366
▁Paris	-10.9368
▁अकेले	-10.9377
▁powerful	-10.9385
▁भ्रम	-10.939
▁organisation	-10.94
▁writing	-10.9406
▁अमिताभ	-10.941
IANS	-10.9411
▁browser	-10.9412
▁अंग्रेज	-10.9418
▁balance	-10.9424
▁crisis	-10.9434
▁इसीलिए	-10.9441
▁इकाई	-10.9442
▁रुख	-10.9445
▁modern	-10.9445
▁entertainment	-10.945
▁लक्षण	-10.9455
▁स्थिर	-10.9457
▁ग्राहक	-10.946
▁reflect	-10.9461
▁japan	-10.9472
▁अभिनय	-10.9474
▁निगरानी	-10.9485
▁यूक्रेन	-10.9485
▁पर्वत	-10.9496
▁pravesh	-10.9497
▁प्रार्थना	-10.9501
▁सूख	-10.9505
▁सुरेश	-10.9506
▁गूगल	-10.9508
▁admitted	-10.9512
▁स्मृति	-10.9512
वुड	-10.9513
▁अमरीका	-10.9514
ऐ	-10.9524
▁determine	-10.9528
▁married	-10.953
▁adopt	-10.9533
▁Bihar	-10.9537
▁commercial	-10.9541
▁शेष	-10.9541
▁मेट्रो	-10.9545
▁निरीक्षण	-10.9552
burg	-10.9552
▁जमानत	-10.9565
▁अज्ञात	-10.9568
▁mental	-10.957
▁journalist	-10.957
▁चरित्र	-10.9572
▁रवाना	-10.9575
▁व्रत	-10.9576
▁trouble	-10.9581
▁द्वितीय	-10.9581
▁injuries	-10.9586
▁द्वार	-10.9589
▁चंडीगढ़	-10.9604
▁निर्मित	-10.9606
▁carried	-10.9615
▁extremely	-10.9631
▁simply	-10.9636
▁observe	-10.964
▁becoming	-10.964
▁headline	-10.9643
▁arrest	-10.9647
प्ला	-10.9651
▁compete	-10.9652
▁route	-10.9652
▁kabhi	-10.9658
▁कब्जे	-10.9658
▁corner	-10.9662
▁cookie	-10.9665
▁फीचर	-10.9665
▁गैंग	-10.967
▁विपरीत	-10.9674
▁पोस्टमार्टम	-10.9676
▁Army	-10.968
▁हनुमान	-10.9681
▁स्वर्ण	-10.9682
▁veteran	-10.969
▁praise	-10.9698
▁manufacture	-10.9704
▁गौतम	-10.9704
▁यौन	-10.972
▁superstar	-10.9721
▁floor	-10.9722
ोत्सव	-10.9729
▁इंदौर	-10.9731
▁pratishat	-10.9731
▁meater	-10.9747
▁knowledge	-10.9756
▁यूजर्स	-10.9761
▁jinamen	-10.977
▁samudaay	-10.9772
▁चावल	-10.978
▁sought	-10.9781
▁conversation	-10.9783
▁अब्दुल	-10.9784
▁रमेश	-10.9784
▁क्रांति	-10.9785
▁जहाज	-10.9787
▁स्पेशल	-10.9788
▁drink	-10.9788
▁eventually	-10.979
▁lockdown	-10.979
▁playoff	-10.9799
▁profit	-10.9804
▁औद्योगिक	-10.9816
▁Chelsea	-10.9818
▁variant	-10.9827
▁solid	-10.9828
▁विद्यार्थियों	-10.9829
▁Express	-10.9833
▁प्रारंभिक	-10.9836
▁वातावरण	-10.9839
▁कमांड	-10.9841
कुमार	-10.9842
▁creating	-10.9842
▁clip	-10.9848
▁Salman	-10.9848
▁न्यूज़	-10.9851
duct	-10.9853
▁relative	-10.9855
▁वसूल	-10.9859
▁शतक	-10.9861
▁shut	-10.9863
▁imarat	-10.9864
▁Science	-10.9869
‘	-10.9869
▁describe	-10.9876
▁कैबिनेट	-10.9876
▁aabaadi	-10.9882
▁opportunities	-10.9889
▁डाउनलोड	-10.9892
▁कागज	-10.9898
▁association	-10.9901
▁illegal	-10.9901
▁डायरेक्टर	-10.9908
▁बलात्कार	-10.9908
▁सावधान	-10.9915
▁enhance	-10.992
▁defence	-10.9929
▁reaction	-10.9931
▁बढ़ोतरी	-10.9938
▁Product	-10.994
▁भंडार	-10.9944
aeye	-10.9948
▁धरती	-10.9953
▁Ukraine	-10.9955
▁एकमात्र	-10.9964
▁सीज़न	-10.9966
▁Further	-10.9969
▁suspect	-10.9973
▁प्रेरणा	-10.9976
▁जोखिम	-10.998
▁रेडियो	-10.9982
▁trailer	-10.9983
▁स्वाद	-10.999
▁विविध	-10.9994
▁कब्जा	-11.0004
▁parishad	-11.0006
▁Andhra	-11.0027
▁proceed	-11.0027
▁तीसरा	-11.0029
▁शताब्दी	-11.0039
▁सफर	-11.0046
▁Internet	-11.0048
▁birthday	-11.0054
▁फीस	-11.0055
▁yourself	-11.006
▁correct	-11.0064
स्तरीय	-11.0085
▁outfit	-11.0093
umble	-11.0095
▁कैरियर	-11.0098
रक्षक	-11.0098
▁marriage	-11.01
▁pranali	-11.0102
▁ग्रीन	-11.0113
▁yuva	-11.0115
▁editor	-11.0117
▁ऋषि	-11.0119
▁सहारा	-11.0122
▁संरचना	-11.0126
▁हड़ताल	-11.0129
▁बिजनेस	-11.0131
▁flood	-11.0133
▁saarvajanik	-11.0145
▁ऑपरेशन	-11.0152
▁कलेक्टर	-11.0152
▁मोर्चा	-11.0155
▁Video	-11.016
▁adhikansh	-11.0162
▁उदय	-11.0163
▁halanki	-11.0164
▁टकरा	-11.0166
▁punar	-11.0175
▁segment	-11.0186
▁window	-11.0195
▁independent	-11.02
▁पूंजी	-11.0207
▁shabd	-11.0213
▁proposed	-11.0214
▁sleep	-11.0214
▁repeat	-11.022
▁tennis	-11.0224
▁vidyalaya	-11.0229
▁aspect	-11.0232
▁सूरज	-11.0238
▁ministry	-11.0238
▁अवश्य	-11.0238
▁समझौते	-11.0238
▁airport	-11.0239
▁vyaktigat	-11.0258
▁चेयरमैन	-11.0262
▁इंटरव्यू	-11.0279
▁sandarbh	-11.0294
▁temperature	-11.0308
▁virtual	-11.0313
▁हिस्सों	-11.0315
▁edge	-11.0317
▁अफगानिस्तान	-11.0332
▁लाइसेंस	-11.0332
▁proposal	-11.0337
▁कैमरा	-11.0347
▁advise	-11.0348
▁brief	-11.035
▁गुस्सा	-11.0357
▁ceremony	-11.0359
▁consult	-11.0364
▁चीफ	-11.0365
▁आश्चर्य	-11.0366
▁constant	-11.0371
▁डीजल	-11.0376
www	-11.0389
▁विधेयक	-11.0393
▁कृपया	-11.0395
▁weather	-11.0396
▁इमरान	-11.0398
▁संक्रमित	-11.0398
▁historic	-11.0404
▁basketball	-11.0405
▁produce	-11.0408
▁fuel	-11.0411
▁broad	-11.0415
▁पेंशन	-11.0417
▁income	-11.0425
▁प्रसन्न	-11.043
600	-11.0433
▁usually	-11.0442
▁विस्तृत	-11.0449
▁primary	-11.0457
▁पर्यटक	-11.0459
▁premium	-11.0462
▁राज्यसभा	-11.0466
▁जस्टिस	-11.0469
▁प्रदूषण	-11.0471
▁stadium	-11.0484
▁cloud	-11.0494
▁assembly	-11.0513
▁Deputy	-11.0518
▁celebration	-11.0523
▁जिक्र	-11.0532
▁nyu	-11.0544
▁पुराना	-11.0546
▁व्यस्त	-11.0548
▁अयोध्या	-11.055
▁पिछली	-11.0558
▁element	-11.0559
▁चेहरा	-11.056
▁secretary	-11.0564
▁चौथे	-11.0565
▁oopar	-11.0571
▁सैकड़ों	-11.0573
▁swatantra	-11.0575
▁structure	-11.058
▁responsible	-11.0585
▁कानपुर	-11.0588
▁जन्मदिन	-11.059
▁शिखर	-11.059
▁syndicated	-11.0592
▁सऊदी	-11.0592
▁Public	-11.0595
▁survey	-11.0605
▁लघु	-11.0605
▁Additional	-11.0612
▁facilities	-11.0612
▁audio	-11.0613
▁Technology	-11.0615
▁कंट्रोल	-11.0615
▁terror	-11.0628
▁likhaa	-11.0632
▁अपडेट	-11.064
▁पार्षद	-11.0642
You	-11.0646
▁Odisha	-11.065
▁amazing	-11.0655
▁technical	-11.067
▁decline	-11.0672
▁africa	-11.0677
▁खतरनाक	-11.0687
▁ब्याज	-11.0699
▁भरपूर	-11.0702
▁तलाक	-11.0702
▁edited	-11.0705
▁एयरपोर्ट	-11.0712
▁अधिकतम	-11.0715
▁अभिषेक	-11.0722
▁patrika	-11.0728
▁प्रोग्राम	-11.0729
clusion	-11.0733
▁examination	-11.0743
▁सेहत	-11.075
▁महामारी	-11.075
▁सर्वोच्च	-11.0755
▁चोपड़ा	-11.0765
▁आदत	-11.0771
▁athlete	-11.0786
▁प्रदर्शित	-11.0786
▁urged	-11.0786
▁ब्राह्मण	-11.0803
▁भड़क	-11.0809
▁chunaa	-11.0813
▁छुट्टी	-11.0814
▁रिजर्व	-11.0819
▁Special	-11.0821
▁सुन्दर	-11.0829
▁पिछड़	-11.0832
▁Chopra	-11.0832
▁नजदीक	-11.0834
▁चक्कर	-11.0839
▁सबूत	-11.0852
▁सीनियर	-11.0857
प्रकाश	-11.0857
▁महंगाई	-11.0864
▁श्याम	-11.0867
▁बुजुर्ग	-11.087
▁प्राइवेट	-11.0875
▁Bangalore	-11.088
▁संदिग्ध	-11.089
▁शुक्र	-11.0902
▁झील	-11.0912
▁Biden	-11.0917
▁Jammu	-11.0923
▁finance	-11.0924
▁tulanaa	-11.0929
▁sahayak	-11.0931
▁जरिये	-11.0931
▁उपन्यास	-11.0934
▁recruit	-11.0939
://	-11.0939
▁favorite	-11.0941
▁डाक्टर	-11.0945
▁उद्यम	-11.0954
▁although	-11.0957
▁personnel	-11.0967
▁ड्रेस	-11.097
▁ghoshana	-11.0972
▁इंटरनेशनल	-11.0975
▁गुलाब	-11.0976
▁label	-11.0978
▁qualify	-11.0993
▁desire	-11.0995
▁उतना	-11.0999
▁encourage	-11.1006
▁BCCI	-11.1011
▁हालाँकि	-11.1014
▁complex	-11.1024
▁पाठ्यक्रम	-11.1032
▁puuraa	-11.104
▁शीघ्र	-11.1042
▁pahaad	-11.1047
▁committed	-11.1055
▁Liverpool	-11.1058
▁terrorist	-11.1059
▁ढूंढ	-11.1068
▁vibhaag	-11.1071
▁रकम	-11.1073
▁स्मार्ट	-11.1079
▁स्टैंड	-11.1079
▁mahatvapurna	-11.1084
▁submitted	-11.1087
▁located	-11.1089
▁न्यूनतम	-11.1089
▁हरकत	-11.109
▁अमीर	-11.1093
▁सपने	-11.1093
▁कायम	-11.1094
▁secret	-11.1096
▁रांची	-11.1097
▁जितनी	-11.1098
▁परिस्थितियों	-11.1101
▁मुकेश	-11.1107
▁Security	-11.1107
▁jisane	-11.1113
ुद्दीन	-11.1115
▁contribution	-11.1123
▁शुभकामना	-11.1126
▁exclusive	-11.1142
▁resolution	-11.1142
▁involve	-11.1151
▁कंपनियां	-11.1157
▁safal	-11.1166
▁Entertainment	-11.1168
▁Finance	-11.1173
▁ullekh	-11.1176
क्षेत्र	-11.118
▁आश्वासन	-11.1184
▁हार्दिक	-11.1184
▁शुरूआत	-11.1184
▁ढेर	-11.1187
▁आतंकियों	-11.1199
▁Work	-11.1201
▁yesterday	-11.1213
▁नमक	-11.1218
▁Affairs	-11.1218
▁बनर्जी	-11.1218
mouth	-11.1223
▁विनोद	-11.1228
ॉर्न	-11.1229
▁scale	-11.123
▁aadhar	-11.1231
▁समर्पित	-11.1234
▁पुनः	-11.1237
▁लाइव	-11.1245
▁राजनेता	-11.1245
▁severe	-11.126
▁operating	-11.1263
▁विश्लेषण	-11.1266
▁margin	-11.127
▁मायावती	-11.1271
▁relief	-11.1271
▁समझौता	-11.1271
▁लटक	-11.1274
▁communication	-11.1276
▁Medical	-11.1276
▁दुश्मन	-11.1284
▁Dream	-11.1287
▁मनमोहन	-11.129
▁confirm	-11.129
▁deploy	-11.1292
▁साजिश	-11.1295
▁देखभाल	-11.1311
▁फांसी	-11.1311
▁breath	-11.1314
▁व्याख्या	-11.1319
▁mahilaaon	-11.1322
▁influence	-11.1332
▁length	-11.1332
▁neeche	-11.1335
▁sakate	-11.1335
▁criminal	-11.1338
▁kaanoon	-11.1338
$	-11.1339
▁Trophy	-11.134
▁responsibility	-11.134
▁अध्यापक	-11.134
▁सिफारिश	-11.1346
▁maximum	-11.1348
known	-11.1355
▁उन्होने	-11.1359
▁निपटने	-11.1367
▁receiving	-11.1375
▁टेलीविजन	-11.1375
▁analysis	-11.1381
▁twice	-11.1389
▁खतरे	-11.1394
season	-11.1396
▁दुष्कर्म	-11.14
▁excited	-11.14
▁strategy	-11.1402
▁निरंतर	-11.141
▁आदित्यनाथ	-11.1413
▁withdraw	-11.1414
▁नरेन्द्र	-11.1414
▁Latest	-11.1424
▁faith	-11.1424
▁allegations	-11.1435
▁Haryana	-11.1435
▁sensor	-11.144
▁Mohammad	-11.1445
▁activity	-11.1457
▁plus	-11.1467
generated	-11.1471
▁jinhen	-11.1475
SHRI	-11.1478
▁Messi	-11.1487
▁विष्णु	-11.1489
▁ज्ञापन	-11.1494
–	-11.15
▁पैमाने	-11.15
▁न्यूयॉर्क	-11.1505
▁बतौर	-11.1505
▁नृत्य	-11.1505
▁Music	-11.151
▁Ashwin	-11.1511
▁science	-11.1513
▁आकर्षित	-11.1519
▁निम्नलिखित	-11.1519
▁birth	-11.1526
▁त्योहार	-11.1535
▁sankhya	-11.1541
▁netritva	-11.1543
▁sangathan	-11.1543
=	-11.1568
▁विफल	-11.1569
▁शौक	-11.157
▁jisase	-11.1571
▁confident	-11.1573
▁तमिलनाडु	-11.1573
▁रुचि	-11.1577
▁switch	-11.1579
▁brilliant	-11.1582
▁Economic	-11.1587
▁Jordan	-11.1593
▁सलाम	-11.1594
▁beauty	-11.1598
▁sexual	-11.1626
▁अस्तित्व	-11.1628
▁हादसा	-11.1634
▁Click	-11.1634
▁Arsenal	-11.1637
▁plot	-11.1637
▁महात्मा	-11.1639
▁पश्चात	-11.164
▁सुभाष	-11.164
▁गतिविधि	-11.166
▁exciting	-11.1662
▁जनसंख्या	-11.1664
▁समृद्ध	-11.1664
▁entry	-11.1665
▁तुम्हारी	-11.167
▁ईमानदार	-11.1676
appropriate	-11.1678
▁Canada	-11.1678
ाध्य	-11.1684
▁hastakshar	-11.1695
▁jilaa	-11.1709
घाट	-11.1711
▁बिंदु	-11.1712
▁combine	-11.1725
▁संपन्न	-11.1728
▁samanya	-11.1728
▁चूंकि	-11.1734
▁कृपा	-11.1734
▁वार्षिक	-11.1737
▁cloth	-11.1746
▁Before	-11.1748
▁chikitsa	-11.1753
▁बुनियादी	-11.1753
aught	-11.1765
▁मनोरंजन	-11.1778
▁ठाकरे	-11.1787
▁absolute	-11.1795
▁स्टील	-11.1795
▁जॉर्ज	-11.1801
▁नामांकन	-11.1815
▁मुलायम	-11.1826
▁varnan	-11.1829
▁Election	-11.1832
|	-11.1833
▁आरंभ	-11.184
▁धूप	-11.1843
▁umr	-11.1845
▁rescue	-11.1846
▁कोतवाली	-11.1849
▁thus	-11.1849
▁detect	-11.1851
▁fruit	-11.1855
▁यातायात	-11.1866
▁resources	-11.1866
▁negative	-11.1871
▁Global	-11.1885
▁client	-11.1885
▁अजीब	-11.1887
▁रफ्तार	-11.1891
▁Democrat	-11.1894
▁पब्लिक	-11.1894
▁silver	-11.1902
▁mistake	-11.1903
▁Club	-11.1905
▁afford	-11.1906
▁CBI	-11.1908
▁AEW	-11.1911
▁लकड़ी	-11.1911
▁batsmen	-11.1936
▁dismissed	-11.1939
▁तस्कर	-11.194
▁अकादमी	-11.1948
▁प्रतिष्ठा	-11.1951
▁लापरवाही	-11.1956
▁Control	-11.1966
▁साइकिल	-11.1973
▁defense	-11.1975
▁कटौती	-11.1979
▁पदाधिकारी	-11.1985
▁मुहैया	-11.2005
▁Governor	-11.2008
▁prastut	-11.2008
▁माइक्रो	-11.2012
▁परिचय	-11.2013
▁प्रिंस	-11.2014
▁venue	-11.2016
▁competitive	-11.2022
▁driving	-11.2022
▁उत्सव	-11.2022
▁उपायुक्त	-11.2025
▁रजिस्टर	-11.2026
▁khoj	-11.2031
▁favour	-11.2044
▁alawa	-11.2052
▁हिंदुस्तान	-11.2054
▁हंगामा	-11.2062
▁कैमरे	-11.2062
▁स्नान	-11.207
▁explore	-11.2071
▁स्थायी	-11.2077
▁जनपद	-11.2088
▁नाबालिग	-11.2097
▁साधारण	-11.2097
▁शासक	-11.2107
▁midfielder	-11.2111
ography	-11.2115
▁electronic	-11.2123
▁विलियम	-11.2129
▁TechRadar	-11.2134
▁दृष्टिकोण	-11.2134
▁कार्तिक	-11.2135
▁OnePlus	-11.2146
▁पीढ़ी	-11.2155
▁बहादुर	-11.2164
▁exactly	-11.2164
▁religious	-11.2175
▁upgrade	-11.2175
▁सेवानिवृत्त	-11.2181
▁background	-11.2181
▁श्रीमती	-11.2187
▁lawyer	-11.2188
▁zone	-11.219
▁रिसर्च	-11.2193
▁Saudi	-11.2196
▁फॉलो	-11.22
▁worldwide	-11.2201
▁भौतिक	-11.2204
▁george	-11.2207
▁acquire	-11.2219
▁वाणिज्य	-11.2231
▁साढ़े	-11.224
▁अंश	-11.2249
▁Christian	-11.2254
▁approved	-11.226
▁corporate	-11.226
आउट	-11.2267
▁Arjun	-11.2272
▁डेविड	-11.2278
▁affair	-11.2281
▁संदेह	-11.2281
▁ब्यूरो	-11.2289
▁संस्कृत	-11.2297
friendly	-11.2315
▁australia	-11.2319
▁janganana	-11.2319
▁Chairman	-11.2322
▁नेहरू	-11.2322
▁प्लास्टिक	-11.2328
▁पुष्प	-11.2328
▁आंतरिक	-11.234
▁प्राधिकरण	-11.2348
▁नियंत्रित	-11.2357
▁Season	-11.2363
▁rahate	-11.2378
▁Netflix	-11.2381
▁nagarpalika	-11.2381
▁आदिवासी	-11.2393
▁भोजपुरी	-11.2396
▁herself	-11.2405
▁kshetron	-11.2408
ानुसार	-11.2408
▁knew	-11.2414
▁sansthaan	-11.242
▁घोटाले	-11.242
▁commitment	-11.2423
▁jheel	-11.2426
▁appointed	-11.2432
▁Center	-11.2438
▁पेशकश	-11.2453
2,000	-11.2458
वर्धन	-11.2459
▁manufacturing	-11.2462
adharit	-11.2462
▁मंजिल	-11.2462
▁sarvshreshth	-11.2468
दायक	-11.2471
▁आमंत्रित	-11.2474
▁villium	-11.2477
▁घंटों	-11.2483
▁venture	-11.2492
▁उन्हीं	-11.2498
▁नोएडा	-11.2498
▁operate	-11.25
▁Besides	-11.251
▁olympic	-11.2519
▁रिजल्ट	-11.2531
▁नगरपालिका	-11.2537
▁संभावित	-11.254
▁possess	-11.254
▁दुःख	-11.254
▁europeeya	-11.2555
▁बौद्ध	-11.2555
▁चपेट	-11.2567
▁रहस्य	-11.2568
▁showcase	-11.2574
▁pariyojana	-11.2591
▁Sanjay	-11.2591
▁उन्नत	-11.2594
▁bodies	-11.2595
▁governor	-11.261
▁obvious	-11.2616
▁variety	-11.2616
▁newspaper	-11.2619
▁नवाज	-11.2628
▁झटका	-11.2628
▁yojana	-11.2643
▁जीएसटी	-11.2668
▁प्रिंट	-11.2674
▁vaapas	-11.2677
▁मछली	-11.268
▁hyee	-11.268
crypt	-11.268
▁Prasad	-11.269
▁मेजबान	-11.2692
Source	-11.2695
▁Challenge	-11.2695
▁Daniel	-11.2695
▁denied	-11.2699
▁university	-11.2707
▁वास्तु	-11.272
▁श्रेय	-11.2723
▁धातु	-11.2726
▁यकीन	-11.2726
▁adapt	-11.2727
▁हुसैन	-11.2729
▁tomorrow	-11.2729
▁आंकड़ों	-11.2732
▁रणबीर	-11.2735
▁अंतरिक्ष	-11.2735
▁duniya	-11.2741
▁शरद	-11.2746
▁sevaanivritt	-11.2747
▁रत्न	-11.2751
▁equipment	-11.2757
▁vijeta	-11.276
▁doosara	-11.2763
▁honour	-11.2766
▁पारंपरिक	-11.2778
▁coast	-11.2783
▁प्रीमियर	-11.2784
▁वैक्सीन	-11.2784
▁aksar	-11.2794
▁storm	-11.2804
▁क्रेडिट	-11.2806
▁struck	-11.2812
▁राजमार्ग	-11.2815
#	-11.2818
▁recall	-11.2819
front	-11.2831
▁laptop	-11.2831
▁तुर्की	-11.2834
▁Great	-11.2841
▁climate	-11.2843
▁samarthan	-11.2843
▁ड्यूटी	-11.2847
▁saptah	-11.2847
▁pratham	-11.2847
▁परमेश्वर	-11.2856
▁आचार्य	-11.2859
▁खैर	-11.2867
ॉन्ग	-11.2869
▁पार्टनर	-11.2893
source	-11.2895
▁activist	-11.29
▁निर्मल	-11.2907
▁साहस	-11.2909
▁राजकीय	-11.2909
▁Limited	-11.2928
▁Plus	-11.2929
▁nimnalikhit	-11.2931
▁मुखर्जी	-11.2934
▁broadcast	-11.2934
▁संवेदनशील	-11.2937
▁nideshak	-11.2937
▁सामूहिक	-11.294
▁एसडीएम	-11.294
▁पायलट	-11.294
▁sometimes	-11.2944
▁Bowl	-11.2945
▁Angeles	-11.2953
▁isaliye	-11.2953
▁प्रत्यक्ष	-11.2953
class	-11.2967
▁combination	-11.2972
▁stood	-11.2972
▁निकाय	-11.2977
▁इलाहाबाद	-11.2978
▁बेरोजगार	-11.2984
▁सहमत	-11.2987
▁bottom	-11.2994
▁shreni	-11.3007
wicket	-11.3027
▁debate	-11.3034
▁WhatsApp	-11.3038
▁पुणे	-11.3044
claim	-11.3049
▁emotional	-11.3051
▁collaboration	-11.3054
▁वाराणसी	-11.3057
▁facility	-11.3076
▁sharp	-11.3087
▁medicine	-11.3092
▁शोषण	-11.3099
▁उत्कृष्ट	-11.3102
▁destroy	-11.3105
▁पैकेज	-11.3112
▁मद्देनजर	-11.3124
▁Management	-11.3124
▁soochibaddh	-11.3131
▁बीसीसीआई	-11.3134
▁visual	-11.3138
▁एक्टिव	-11.3153
▁राजपूत	-11.3156
▁ठोस	-11.3166
▁unbeaten	-11.3169
▁sammelan	-11.3182
▁संचालक	-11.3185
▁ज्ञात	-11.3191
▁rapid	-11.3199
▁finger	-11.3203
▁कंगना	-11.3208
▁ultimate	-11.3211
▁विद्वान	-11.3211
▁शत्रु	-11.3211
▁चैंपियन	-11.3221
▁Company	-11.3224
▁George	-11.3227
▁license	-11.3227
▁ख्याल	-11.3228
▁consecutive	-11.3231
▁आशीर्वाद	-11.3231
▁spokesperson	-11.324
▁dedicated	-11.325
▁lambe	-11.3252
▁Information	-11.3256
▁प्रशंसा	-11.3263
▁समीप	-11.3272
▁व्यावसायिक	-11.3282
▁prakaash	-11.3286
▁havaai	-11.3299
▁तूफान	-11.3302
▁आंकड़े	-11.3305
▁हॉस्पिटल	-11.3315
▁assault	-11.3315
▁awareness	-11.3318
▁आंध्र	-11.3322
▁FIR	-11.3322
poorv	-11.3332
▁california	-11.3338
पश्चिम	-11.334
▁cooperation	-11.3341
▁guidelines	-11.3341
▁अधीन	-11.3342
▁श्रीवास्तव	-11.3344
▁मैसेज	-11.3345
baare	-11.3345
▁नाकाम	-11.3356
▁अन्दर	-11.3361
▁संजीव	-11.3362
▁truth	-11.3367
▁नौसेना	-11.3374
▁transaction	-11.3394
▁भूकंप	-11.3397
▁रघु	-11.342
▁honest	-11.342
▁तुलसी	-11.3423
▁इत्यादि	-11.343
▁नैतिक	-11.3433
▁जताया	-11.3434
▁suspended	-11.345
▁challenging	-11.3456
▁vistaar	-11.3456
▁sudden	-11.3456
▁कनेक्शन	-11.3456
▁prasiddh	-11.3463
▁विद्यार्थी	-11.3466
▁प्रतिदिन	-11.3473
▁smooth	-11.348
▁Djokovic	-11.3486
▁easier	-11.349
▁Auto	-11.3492
50,000	-11.3496
▁संस्थापक	-11.3496
▁royal	-11.3503
▁इराक	-11.3504
▁आश्रम	-11.3513
▁worst	-11.3513
▁minimum	-11.3516
▁प्रतिस्पर्धा	-11.3516
▁Sachin	-11.3516
▁तीर्थ	-11.3523
▁Kenya	-11.3526
▁प्रशंसक	-11.3533
▁अक्षर	-11.3534
▁Foreign	-11.3539
निर्माण	-11.3551
▁Thomas	-11.3553
▁रिश्ता	-11.3553
▁अड्डे	-11.3553
▁distance	-11.3563
▁absence	-11.358
▁जागरण	-11.3613
▁रणवीर	-11.3623
▁holiday	-11.363
▁shaahi	-11.363
▁FIFA	-11.3637
लॉग	-11.3638
▁ट्रैफिक	-11.364
▁कुशल	-11.364
▁strict	-11.3651
@	-11.4534
“	-11.4822
॥	-11.5559
ञ	-11.9149
‍	-12.469
