<pad>	0
<unk>	0
<s>	0
</s>	0
<hi>	0
<en>	0
<0x00>	0
<0x01>	0
<0x02>	0
<0x03>	0
<0x04>	0
<0x05>	0
<0x06>	0
<0x07>	0
<0x08>	0
<0x09>	0
<0x0A>	0
<0x0B>	0
<0x0C>	0
<0x0D>	0
<0x0E>	0
<0x0F>	0
<0x10>	0
<0x11>	0
<0x12>	0
<0x13>	0
<0x14>	0
<0x15>	0
<0x16>	0
<0x17>	0
<0x18>	0
<0x19>	0
<0x1A>	0
<0x1B>	0
<0x1C>	0
<0x1D>	0
<0x1E>	0
<0x1F>	0
<0x20>	0
<0x21>	0
<0x22>	0
<0x23>	0
<0x24>	0
<0x25>	0
<0x26>	0
<0x27>	0
<0x28>	0
<0x29>	0
<0x2A>	0
<0x2B>	0
<0x2C>	0
<0x2D>	0
<0x2E>	0
<0x2F>	0
<0x30>	0
<0x31>	0
<0x32>	0
<0x33>	0
<0x34>	0
<0x35>	0
<0x36>	0
<0x37>	0
<0x38>	0
<0x39>	0
<0x3A>	0
<0x3B>	0
<0x3C>	0
<0x3D>	0
<0x3E>	0
<0x3F>	0
<0x40>	0
<0x41>	0
<0x42>	0
<0x43>	0
<0x44>	0
<0x45>	0
<0x46>	0
<0x47>	0
<0x48>	0
<0x49>	0
<0x4A>	0
<0x4B>	0
<0x4C>	0
<0x4D>	0
<0x4E>	0
<0x4F>	0
<0x50>	0
<0x51>	0
<0x52>	0
<0x53>	0
<0x54>	0
<0x55>	0
<0x56>	0
<0x57>	0
<0x58>	0
<0x59>	0
<0x5A>	0
<0x5B>	0
<0x5C>	0
<0x5D>	0
<0x5E>	0
<0x5F>	0
<0x60>	0
<0x61>	0
<0x62>	0
<0x63>	0
<0x64>	0
<0x65>	0
<0x66>	0
<0x67>	0
<0x68>	0
<0x69>	0
<0x6A>	0
<0x6B>	0
<0x6C>	0
<0x6D>	0
<0x6E>	0
<0x6F>	0
<0x70>	0
<0x71>	0
<0x72>	0
<0x73>	0
<0x74>	0
<0x75>	0
<0x76>	0
<0x77>	0
<0x78>	0
<0x79>	0
<0x7A>	0
<0x7B>	0
<0x7C>	0
<0x7D>	0
<0x7E>	0
<0x7F>	0
<0x80>	0
<0x81>	0
<0x82>	0
<0x83>	0
<0x84>	0
<0x85>	0
<0x86>	0
<0x87>	0
<0x88>	0
<0x89>	0
<0x8A>	0
<0x8B>	0
<0x8C>	0
<0x8D>	0
<0x8E>	0
<0x8F>	0
<0x90>	0
<0x91>	0
<0x92>	0
<0x93>	0
<0x94>	0
<0x95>	0
<0x96>	0
<0x97>	0
<0x98>	0
<0x99>	0
<0x9A>	0
<0x9B>	0
<0x9C>	0
<0x9D>	0
<0x9E>	0
<0x9F>	0
<0xA0>	0
<0xA1>	0
<0xA2>	0
<0xA3>	0
<0xA4>	0
<0xA5>	0
<0xA6>	0
<0xA7>	0
<0xA8>	0
<0xA9>	0
<0xAA>	0
<0xAB>	0
<0xAC>	0
<0xAD>	0
<0xAE>	0
<0xAF>	0
<0xB0>	0
<0xB1>	0
<0xB2>	0
<0xB3>	0
<0xB4>	0
<0xB5>	0
<0xB6>	0
<0xB7>	0
<0xB8>	0
<0xB9>	0
<0xBA>	0
<0xBB>	0
<0xBC>	0
<0xBD>	0
<0xBE>	0
<0xBF>	0
<0xC0>	0
<0xC1>	0
<0xC2>	0
<0xC3>	0
<0xC4>	0
<0xC5>	0
<0xC6>	0
<0xC7>	0
<0xC8>	0
<0xC9>	0
<0xCA>	0
<0xCB>	0
<0xCC>	0
<0xCD>	0
<0xCE>	0
<0xCF>	0
<0xD0>	0
<0xD1>	0
<0xD2>	0
<0xD3>	0
<0xD4>	0
<0xD5>	0
<0xD6>	0
<0xD7>	0
<0xD8>	0
<0xD9>	0
<0xDA>	0
<0xDB>	0
<0xDC>	0
<0xDD>	0
<0xDE>	0
<0xDF>	0
<0xE0>	0
<0xE1>	0
<0xE2>	0
<0xE3>	0
<0xE4>	0
<0xE5>	0
<0xE6>	0
<0xE7>	0
<0xE8>	0
<0xE9>	0
<0xEA>	0
<0xEB>	0
<0xEC>	0
<0xED>	0
<0xEE>	0
<0xEF>	0
<0xF0>	0
<0xF1>	0
<0xF2>	0
<0xF3>	0
<0xF4>	0
<0xF5>	0
<0xF6>	0
<0xF7>	0
<0xF8>	0
<0xF9>	0
<0xFA>	0
<0xFB>	0
<0xFC>	0
<0xFD>	0
<0xFE>	0
<0xFF>	0
.	-3.95061
,	-3.97541
s	-3.97846
▁के	-4.2911
▁the	-4.2945
▁	-4.40203
▁में	-4.60349
▁है	-4.63723
▁की	-4.84928
।	-4.87658
▁to	-5.02923
▁को	-5.08169
▁a	-5.09087
▁से	-5.09969
▁and	-5.10561
▁of	-5.11308
▁in	-5.17552
▁और	-5.21675
▁का	-5.30481
-	-5.35925
ी	-5.47736
▁ने	-5.52876
▁पर	-5.56662
ed	-5.57897
ों	-5.60008
▁हैं	-5.62262
▁कि	-5.67443
ing	-5.70774
▁एक	-5.85596
न	-5.86919
▁is	-5.87133
▁key	-5.88155
▁भी	-5.92078
t	-5.92365
d	-5.92992
▁for	-5.93562
ल	-5.94053
र	-5.9775
▁(	-5.97979
क	-6.00103
▁mein	-6.02918
▁on	-6.06003
▁लिए	-6.08464
y	-6.1032
)	-6.1087
ा	-6.13375
▁कर	-6.14886
i	-6.1579
▁that	-6.16182
'	-6.16375
म	-6.17356
▁The	-6.19991
▁इस	-6.20473
▁नहीं	-6.20568
a	-6.27837
▁with	-6.31117
ने	-6.33199
e	-6.33843
▁हो	-6.36151
n	-6.37125
▁ही	-6.37594
▁किया	-6.3827
▁be	-6.39327
स	-6.41292
er	-6.44007
▁था	-6.45379
े	-6.46227
▁"	-6.46824
’	-6.49897
▁तो	-6.51319
ता	-6.51574
▁गया	-6.53059
▁as	-6.53447
▁यह	-6.53766
त	-6.53851
▁was	-6.56217
ly	-6.59818
▁has	-6.60744
ट	-6.61069
▁aur	-6.61939
ना	-6.62377
▁A	-6.63239
▁करने	-6.65191
▁साथ	-6.65672
▁it	-6.66279
re	-6.69559
on	-6.70633
प	-6.71333
▁at	-6.7141
▁अ	-6.72436
▁कहा	-6.72561
▁will	-6.73151
al	-6.73782
▁by	-6.74963
▁आ	-6.75844
▁from	-6.76369
:	-6.76619
r	-6.77557
▁kii	-6.78736
▁I	-6.80147
ं	-6.81091
▁haye	-6.81138
in	-6.8131
▁are	-6.82234
▁he	-6.83069
▁,	-6.83192
▁his	-6.84342
▁have	-6.8521
▁न	-6.8574
h	-6.86993
"	-6.87726
ज	-6.88257
o	-6.88366
m	-6.89084
▁जो	-6.89199
द	-6.91739
an	-6.923
le	-6.92808
k	-6.93531
व	-6.93791
▁बाद	-6.9381
▁जा	-6.95517
▁अपने	-6.9559
ो	-6.95969
ह	-6.95972
g	-6.97911
▁-	-6.98686
▁an	-7.00317
▁रहे	-7.01136
▁ack	-7.0209
▁said	-7.02402
▁19	-7.02433
ar	-7.03689
▁re	-7.04807
▁seey	-7.05149
▁दिया	-7.05169
▁S	-7.05363
▁this	-7.06136
▁not	-7.069
▁।	-7.06928
ला	-7.07544
es	-7.07573
th	-7.07949
रा	-7.08707
▁स	-7.09006
कर	-7.09286
▁व	-7.09344
श	-7.09412
▁you	-7.11593
ब	-7.12566
b	-7.12845
ू	-7.12991
la	-7.14304
▁रहा	-7.15424
▁हुए	-7.16255
▁तक	-7.16744
ते	-7.18163
ll	-7.1821
ri	-7.1821
▁थे	-7.19066
▁थी	-7.19192
or	-7.19768
▁वह	-7.19974
li	-7.20863
▁.	-7.21354
u	-7.21888
l	-7.22539
▁रही	-7.23183
p	-7.23413
ित	-7.23551
▁उन्होंने	-7.23948
▁koo	-7.24185
▁they	-7.24356
▁गई	-7.24544
il	-7.24945
na	-7.25216
▁'	-7.25327
en	-7.26094
S	-7.2629
▁their	-7.26848
I	-7.26993
▁प	-7.27005
ta	-7.27115
ड	-7.2949
▁kaa	-7.29815
▁कुछ	-7.29847
िक	-7.30333
ग	-7.30647
ली	-7.3069
▁also	-7.30793
ियों	-7.31096
ur	-7.3205
▁लेकिन	-7.321
ती	-7.32347
▁या	-7.32726
ि	-7.33174
▁“	-7.33268
नी	-7.33292
it	-7.33466
▁ब	-7.33916
st	-7.34871
ra	-7.35653
sh	-7.35687
ma	-7.36383
▁आप	-7.37599
ै	-7.37712
ne	-7.37744
▁प्र	-7.38689
फ	-7.38979
▁been	-7.39068
▁म	-7.40803
▁रूप	-7.41111
ya	-7.41368
▁can	-7.41415
री	-7.41693
c	-7.42061
A	-7.42491
▁all	-7.42569
▁up	-7.43493
य	-7.43809
▁who	-7.44256
▁दी	-7.44321
सी	-7.44842
▁पहले	-7.44994
ers	-7.45645
▁thaa	-7.46128
ti	-7.4665
▁करते	-7.47489
▁C	-7.47585
मा	-7.4787
▁which	-7.49099
?	-7.49128
▁or	-7.49201
▁kiya	-7.49655
w	-7.49855
का	-7.5006
▁अपनी	-7.50246
▁कोई	-7.50449
▁we	-7.50704
ण	-7.51142
▁In	-7.51593
▁अब	-7.51764
el	-7.52326
च	-7.52636
▁had	-7.53225
▁वे	-7.53254
▁out	-7.53738
▁होने	-7.54096
▁लोगों	-7.5424
▁गए	-7.54406
▁de	-7.54696
▁ma	-7.54823
▁पुलिस	-7.5499
▁sa	-7.55067
te	-7.55316
▁but	-7.55541
▁सरकार	-7.55585
▁बात	-7.55676
ck	-7.55731
at	-7.56118
ch	-7.56133
वा	-7.56329
▁क	-7.56454
ले	-7.56757
P	-7.57281
ई	-7.57348
ve	-7.5774
▁ग	-7.57775
ए	-7.58526
्स	-7.58556
▁He	-7.58969
ओं	-7.59137
▁जब	-7.59148
▁वाले	-7.59912
▁किसी	-7.60437
▁ये	-7.60441
▁B	-7.60712
ce	-7.60853
▁liye	-7.60967
ation	-7.61412
ें	-7.61685
िंग	-7.61837
▁gayaa	-7.61865
▁one	-7.62
ak	-7.62013
▁दो	-7.62107
am	-7.62272
▁इसके	-7.63216
▁वि	-7.63389
▁द्वारा	-7.64243
ड़	-7.64404
de	-7.64587
x	-7.64944
se	-7.65133
▁तरह	-7.65308
ु	-7.65926
▁हम	-7.66289
▁India	-7.66321
ha	-7.66726
▁e	-7.66835
▁so	-7.67504
me	-7.67775
▁her	-7.6875
et	-7.69298
▁were	-7.69438
▁over	-7.69664
ka	-7.70031
ad	-7.70108
vi	-7.70126
▁जाता	-7.70384
▁इन	-7.70604
▁उनके	-7.7124
▁समय	-7.71293
ंग	-7.71294
▁आज	-7.71738
▁भारत	-7.72168
▁after	-7.72596
▁पा	-7.72738
▁कई	-7.72853
▁ह	-7.73101
f	-7.73766
▁बार	-7.74522
▁F	-7.74591
▁ra	-7.74641
▁ए	-7.74645
▁कम	-7.74997
▁हुआ	-7.75969
▁2	-7.76324
▁सिंह	-7.76451
ke	-7.76891
▁T	-7.76938
ख	-7.76991
▁3	-7.77241
▁more	-7.7728
va	-7.77408
ंड	-7.775
B	-7.7855
ro	-7.79124
▁द	-7.79452
्य	-7.79682
▁hain	-7.79845
्	-7.79866
िया	-7.8003
▁ज	-7.80438
man	-7.80505
▁me	-7.80514
D	-7.80639
ga	-7.80755
▁काम	-7.81222
C	-7.81361
▁It	-7.81867
▁your	-7.81919
▁5	-7.8213
▁its	-7.82302
▁बताया	-7.82709
▁1	-7.82729
थ	-7.82797
▁नाम	-7.83051
▁लेकर	-7.83058
▁about	-7.83059
▁उन्हें	-7.83224
▁हुई	-7.83695
या	-7.84254
ir	-7.84283
▁G	-7.84309
▁देश	-7.84417
▁parr	-7.85284
▁दिन	-7.85621
di	-7.85706
▁सभी	-7.86651
▁K	-7.86788
▁first	-7.86815
▁ले	-7.86818
▁त	-7.8707
▁बहुत	-7.87144
;	-7.8768
ol	-7.878
M	-7.88089
▁Ma	-7.8825
▁फिर	-7.88515
▁मैं	-7.88578
▁उ	-7.88637
▁ney	-7.88651
▁सकता	-7.8869
ni	-7.88788
▁क्या	-7.88864
T	-7.88865
▁time	-7.88927
/	-7.88956
ter	-7.89476
ौ	-7.89595
▁4	-7.89747
pa	-7.89817
▁फिल्म	-7.89897
▁लोग	-7.90323
▁na	-7.90446
▁श	-7.9065
जी	-7.90737
mi	-7.91158
▁सी	-7.91587
▁do	-7.91794
ic	-7.91814
R	-7.91996
▁करना	-7.92131
▁हर	-7.92977
z	-7.93389
▁two	-7.93684
▁roop	-7.94313
▁साल	-7.94647
रे	-7.94858
▁होता	-7.94963
▁P	-7.95121
▁E	-7.95444
▁फ	-7.95473
L	-7.9573
▁di	-7.9719
▁D	-7.97258
▁मे	-7.97288
▁जाने	-7.97332
as	-7.97714
▁Ra	-7.97918
▁नि	-7.98116
!	-7.98122
▁10	-7.98183
ng	-7.98213
ाई	-7.98486
▁सा	-7.98505
दा	-7.98696
▁जी	-7.99036
▁con	-7.99114
▁घर	-7.99446
ate	-7.99473
▁see	-7.99604
▁N	-7.9965
▁सकते	-7.99651
us	-7.99809
▁un	-8.00609
▁लिया	-8.00777
▁no	-8.00787
▁ना	-8.0107
▁इ	-8.01177
▁other	-8.01468
▁new	-8.01508
▁would	-8.0181
j	-8.01919
ment	-8.01995
▁team	-8.02401
lo	-8.02422
▁ba	-8.02539
un	-8.02919
▁vi	-8.03614
to	-8.03661
ity	-8.04431
जा	-8.04443
ः	-8.04465
▁O	-8.04556
wa	-8.04738
▁when	-8.04857
▁टीम	-8.05112
▁like	-8.05119
के	-8.05277
▁होगा	-8.05286
able	-8.05424
▁pa	-8.05507
▁against	-8.05537
▁ta	-8.05678
टी	-8.05693
ent	-8.0571
सा	-8.06015
▁la	-8.06383
▁सं	-8.06578
▁दे	-8.06771
▁ल	-8.07324
▁film	-8.07561
▁M	-8.07762
▁18	-8.08016
▁दौरान	-8.0812
ीय	-8.08276
पी	-8.08448
ia	-8.08929
ant	-8.0898
▁she	-8.09199
्या	-8.0922
▁बीच	-8.09597
गा	-8.09947
भ	-8.10039
▁कारण	-8.10392
▁पास	-8.10492
▁मु	-8.10672
▁बा	-8.1078
ee	-8.10793
v	-8.10923
▁उनकी	-8.10989
कार	-8.11118
▁उसके	-8.11123
▁मा	-8.11567
4	-8.11768
id	-8.11818
ul	-8.11887
nd	-8.12087
पुर	-8.12619
▁उस	-8.12702
वि	-8.1294
▁छ	-8.13019
▁वो	-8.13047
▁6	-8.13424
G	-8.13614
▁सबसे	-8.14058
O	-8.14803
▁ex	-8.15044
गी	-8.15312
वर	-8.15573
स्त	-8.15693
▁co	-8.1584
▁दोनों	-8.16054
aa	-8.16151
▁उसे	-8.16169
ba	-8.16325
▁चाहिए	-8.16417
▁क्षेत्र	-8.16561
▁people	-8.17012
▁year	-8.17099
▁पी	-8.17168
▁Re	-8.17429
▁them	-8.17774
▁This	-8.17785
▁last	-8.17952
▁him	-8.18014
ive	-8.18087
E	-8.18155
est	-8.18189
▁some	-8.18391
▁पूर्व	-8.18731
”	-8.18817
▁अन्य	-8.18952
ru	-8.19106
▁saath	-8.19164
▁Ba	-8.19257
pe	-8.19273
▁there	-8.19337
ॉ	-8.19409
ज़	-8.19462
▁आई	-8.19516
डी	-8.19632
ting	-8.19983
एं	-8.19991
ष	-8.20097
ंट	-8.2045
से	-8.20673
F	-8.20729
mo	-8.20859
▁अधिक	-8.2093
▁way	-8.21003
tra	-8.21103
▁ka	-8.21174
▁दिल्ली	-8.21291
▁शुरू	-8.21307
sa	-8.21369
is	-8.21489
▁into	-8.21538
ion	-8.21804
को	-8.22004
▁करें	-8.22016
ik	-8.22166
▁b	-8.22215
▁बना	-8.2236
▁भ	-8.22481
ot	-8.225
▁U	-8.22671
um	-8.2273
▁get	-8.23074
ho	-8.23117
▁करता	-8.23306
▁ख	-8.2346
▁make	-8.23567
▁वाली	-8.23632
he	-8.23965
▁per	-8.24
हा	-8.24332
ry	-8.24346
ver	-8.25053
स्ट	-8.25093
▁राज्य	-8.25337
▁joe	-8.2534
▁सु	-8.25523
क्ष	-8.25695
▁प्रदेश	-8.25743
co	-8.2576
▁कै	-8.25956
▁We	-8.26302
ति	-8.26374
▁off	-8.26627
age	-8.26654
▁च	-8.26757
▁र	-8.26801
▁सब	-8.27071
ंद	-8.27077
▁ऐसे	-8.27088
▁बता	-8.27193
▁शामिल	-8.27224
▁भारतीय	-8.27376
im	-8.27543
20	-8.27606
▁अगर	-8.27612
▁तथा	-8.27704
▁एवं	-8.27739
),	-8.27871
N	-8.2806
▁मामले	-8.28169
बा	-8.28174
▁pro	-8.28344
▁लगा	-8.28374
ध	-8.28493
ap	-8.28736
बी	-8.29008
▁चुनाव	-8.29291
▁आपको	-8.2964
▁अपना	-8.29657
han	-8.29691
▁बे	-8.29781
▁कांग्रेस	-8.30068
▁बारे	-8.30348
▁सि	-8.30407
1	-8.30543
▁होती	-8.30612
ंस	-8.30753
ag	-8.30848
▁under	-8.30872
ut	-8.31009
र्	-8.31027
da	-8.31259
5	-8.31409
ist	-8.31453
,”	-8.31474
ge	-8.31501
▁our	-8.31575
ty	-8.31678
▁गु	-8.31855
▁only	-8.32019
की	-8.32071
▁back	-8.32258
▁ga	-8.32325
▁pra	-8.32793
▁just	-8.32852
ja	-8.32906
▁बन	-8.33216
kh	-8.33657
▁यहां	-8.33721
▁पार्टी	-8.33743
be	-8.34006
मी	-8.34111
no	-8.34247
U	-8.34255
▁तीन	-8.34306
son	-8.34355
▁man	-8.34563
▁if	-8.34653
ud	-8.35132
▁any	-8.35315
▁Na	-8.35997
▁show	-8.36099
▁i	-8.36253
▁mo	-8.36728
▁now	-8.36983
▁Indian	-8.3699
lu	-8.37446
▁ha	-8.37557
िन	-8.37635
ah	-8.37682
▁देने	-8.37734
▁work	-8.37777
▁unhone	-8.38085
ine	-8.38204
ओ	-8.38291
▁well	-8.38393
▁than	-8.38471
▁12	-8.3848
▁‘	-8.3857
▁ओर	-8.38706
▁खिलाफ	-8.38804
▁Ro	-8.38813
▁7	-8.38881
टा	-8.38973
op	-8.39
▁cha	-8.39066
▁game	-8.39074
▁Mo	-8.39234
H	-8.39373
▁कार्य	-8.39402
▁ऐसा	-8.39542
ton	-8.39811
▁take	-8.39855
पा	-8.40286
▁बढ़	-8.4043
नि	-8.40511
मे	-8.40713
▁made	-8.40759
▁प्रति	-8.40929
ँ	-8.40943
▁किए	-8.40983
▁Sa	-8.41005
ane	-8.41417
▁जानकारी	-8.41471
▁रि	-8.41506
0	-8.4174
▁H	-8.42129
ance	-8.42299
▁while	-8.42354
▁जैसे	-8.4238
▁yeh	-8.42608
mp	-8.42746
रो	-8.42747
▁Ja	-8.42864
▁काफी	-8.42892
▁मिल	-8.43144
▁go	-8.43158
▁k	-8.43331
एस	-8.43583
▁t	-8.43711
▁what	-8.43776
़	-8.43795
▁कुमार	-8.44277
▁could	-8.44535
ki	-8.44671
hi	-8.44728
,"	-8.44817
▁La	-8.44894
tic	-8.45109
▁De	-8.45225
▁being	-8.45278
▁जारी	-8.45278
▁ja	-8.45297
▁most	-8.45375
ाय	-8.45452
3	-8.45545
▁उप	-8.45599
▁8	-8.45656
▁government	-8.45657
▁Ha	-8.46343
िल	-8.46393
▁three	-8.46469
▁वहीं	-8.46486
▁dwara	-8.46624
▁भर	-8.46662
ster	-8.46759
▁ला	-8.46821
▁चल	-8.46859
ran	-8.46926
▁जान	-8.4697
▁ध	-8.47163
▁va	-8.47279
▁इसे	-8.47307
उ	-8.47459
▁Ka	-8.47967
▁season	-8.4848
▁15	-8.48564
▁चार	-8.48596
ड़ा	-8.48848
▁L	-8.49004
▁An	-8.49072
▁So	-8.49169
▁W	-8.49272
tt	-8.49273
▁R	-8.49333
त्र	-8.49421
▁c	-8.49479
▁us	-8.49513
▁जाएगा	-8.49521
▁my	-8.49534
K	-8.49608
▁बी	-8.49714
du	-8.49832
प्र	-8.50113
▁देख	-8.50275
▁मुझे	-8.50492
▁ज्यादा	-8.50659
▁need	-8.50894
दी	-8.50912
▁da	-8.50985
▁वा	-8.51215
▁pre	-8.51324
ated	-8.51369
▁कु	-8.51399
▁help	-8.51408
▁dis	-8.51519
▁राज	-8.51633
go	-8.51941
%	-8.52002
्यू	-8.52134
वी	-8.52512
र्ट	-8.52589
ian	-8.52691
▁Vi	-8.52692
▁इससे	-8.52768
▁सो	-8.53001
▁po	-8.53061
▁सामने	-8.53161
▁20	-8.53247
▁मंत्री	-8.53409
▁ro	-8.53439
वे	-8.53605
V	-8.53848
▁years	-8.54011
▁पूरी	-8.54046
W	-8.54151
र्स	-8.54208
▁ni	-8.54419
▁बि	-8.54579
दार	-8.54612
ies	-8.54798
▁state	-8.54804
▁J	-8.54953
av	-8.55264
▁जाती	-8.55354
rs	-8.55505
ियां	-8.55546
▁कह	-8.55694
▁क्योंकि	-8.55699
▁bo	-8.5582
▁अभी	-8.56156
ary	-8.56297
▁ई	-8.56315
and	-8.56319
▁राम	-8.56408
र्ड	-8.56508
▁जीवन	-8.56512
▁स्व	-8.5679
ted	-8.56888
▁मांग	-8.5697
्र	-8.57086
▁during	-8.57089
▁win	-8.57232
▁जिसमें	-8.5733
▁अनुसार	-8.57504
▁ho	-8.57572
ाइ	-8.57601
▁तब	-8.57681
▁शहर	-8.5786
▁11	-8.57951
tu	-8.58164
▁should	-8.58167
▁विभाग	-8.58453
▁As	-8.58664
स्	-8.58784
▁उत्तर	-8.58827
ंक	-8.58831
▁bhee	-8.58957
▁ली	-8.59016
▁खेल	-8.59144
▁match	-8.59188
▁Mi	-8.59257
▁श्री	-8.5932
ान	-8.59611
▁St	-8.59734
▁एस	-8.59926
▁To	-8.59995
▁Se	-8.6004
ृ	-8.60105
▁even	-8.60247
▁:	-8.60319
up	-8.60402
▁गो	-8.60422
▁before	-8.60459
▁day	-8.60475
शा	-8.60762
cha	-8.60834
▁अध्यक्ष	-8.60891
▁company	-8.60898
▁होते	-8.61145
▁कभी	-8.61336
▁उनका	-8.61404
लो	-8.61418
▁where	-8.61423
▁रा	-8.61459
▁महिला	-8.61528
▁दर्ज	-8.61863
▁baad	-8.61906
gi	-8.61951
ai	-8.62016
लि	-8.62065
rd	-8.62107
▁part	-8.62163
bu	-8.62301
▁f	-8.62337
▁sam	-8.62396
▁set	-8.6248
▁ओ	-8.62569
▁सकती	-8.62602
ca	-8.62622
मान	-8.62634
ff	-8.6277
▁इसी	-8.63205
शन	-8.63315
▁अलग	-8.63592
▁good	-8.63748
▁मह	-8.63814
▁But	-8.63842
ठ	-8.63904
▁बाहर	-8.64028
ay	-8.64076
hu	-8.6411
▁लाख	-8.64275
▁post	-8.64483
▁Me	-8.64553
ाया	-8.64626
kar	-8.65096
▁मान	-8.65145
▁मो	-8.65159
▁Di	-8.65212
ger	-8.65398
▁यू	-8.65402
▁Minister	-8.6552
▁मै	-8.65553
ाव	-8.6561
▁आने	-8.65786
▁how	-8.65841
land	-8.65932
▁रे	-8.6595
ven	-8.65953
▁मोदी	-8.6596
▁परिवार	-8.66059
▁ड	-8.66079
क्स	-8.66087
▁use	-8.66185
ana	-8.66267
▁वर्ष	-8.66281
ंत	-8.66284
▁taka	-8.66702
रण	-8.66788
▁ता	-8.66826
▁9	-8.66864
िस	-8.669
▁second	-8.67081
▁डी	-8.67258
old	-8.67317
▁मीडिया	-8.67368
mb	-8.67375
▁such	-8.67399
ari	-8.67408
▁रो	-8.67591
▁For	-8.67594
▁विकास	-8.67603
▁गांव	-8.67754
2	-8.68205
▁भाजपा	-8.68325
▁many	-8.68391
▁जांच	-8.68416
bi	-8.68689
00	-8.68754
▁घटना	-8.68983
▁हमारे	-8.69025
▁sha	-8.69059
▁se	-8.69094
▁होगी	-8.69105
▁उन	-8.69259
ling	-8.69422
▁आगे	-8.69543
▁place	-8.69713
यर	-8.69797
ron	-8.69881
ring	-8.69965
do	-8.70155
▁world	-8.70166
iya	-8.70264
▁जहां	-8.7031
▁may	-8.70483
▁नई	-8.7063
ाने	-8.70647
▁उसकी	-8.70686
▁इसलिए	-8.70752
▁आए	-8.70809
red	-8.7101
टर	-8.71307
▁very	-8.71359
आई	-8.71422
▁p	-8.71484
ये	-8.71551
▁app	-8.71669
▁these	-8.71705
▁दा	-8.71732
िका	-8.7175
▁मन	-8.71753
▁भाग	-8.71791
▁डे	-8.72051
▁Pa	-8.72077
nt	-8.72121
ani	-8.72123
▁आर	-8.72206
tion	-8.72224
इ	-8.72374
▁New	-8.72439
▁जिस	-8.72478
▁प्राप्त	-8.72504
▁On	-8.72535
▁du	-8.72653
▁karane	-8.727
▁बस	-8.72861
ab	-8.73216
od	-8.73354
▁through	-8.73746
si	-8.73834
▁इसमें	-8.74012
000	-8.74055
▁16	-8.74263
▁दूसरे	-8.74323
▁o	-8.74335
tro	-8.74612
▁san	-8.74672
▁दें	-8.74858
▁जीत	-8.74954
▁अनु	-8.7497
▁come	-8.75042
▁स्कूल	-8.75282
▁30	-8.75461
ci	-8.75509
▁sp	-8.75564
धा	-8.7566
▁बड़ी	-8.75739
▁between	-8.75885
rt	-8.75931
▁14	-8.76136
▁पानी	-8.76168
▁इसका	-8.76201
ie	-8.76269
ight	-8.76432
▁fl	-8.76574
ंज	-8.76601
▁एन	-8.7666
▁मि	-8.76747
▁आरोप	-8.76828
▁Rs	-8.76869
▁bi	-8.77072
▁बनाने	-8.77167
▁li	-8.77179
▁मुख्यमंत्री	-8.77366
▁आया	-8.77398
▁However	-8.7743
nk	-8.77507
▁मैच	-8.77779
▁best	-8.77793
▁कंपनी	-8.77857
ard	-8.77925
▁उपयोग	-8.77955
▁व्यक्ति	-8.77999
▁पता	-8.78027
▁पिछले	-8.7804
tri	-8.7811
▁bu	-8.78127
▁मुख्य	-8.78164
▁बंद	-8.78325
▁17	-8.78328
▁जिला	-8.78482
▁Le	-8.78484
जन	-8.78528
▁)	-8.78823
▁हालांकि	-8.78909
▁Ga	-8.79159
▁?	-8.79171
▁13	-8.79199
▁जाते	-8.79228
▁look	-8.7924
▁दूर	-8.7924
gu	-8.79309
fa	-8.79326
har	-8.79382
▁अलावा	-8.79512
The	-8.79664
▁ट्र	-8.80045
▁समझ	-8.80145
8	-8.80197
ेड	-8.8024
bo	-8.80297
फ़	-8.80299
▁!	-8.80381
▁पाकिस्तान	-8.8044
चा	-8.80656
▁thee	-8.80718
▁मेरे	-8.80738
▁यदि	-8.80795
▁नजर	-8.80893
min	-8.80931
les	-8.80936
▁आम	-8.80937
▁Man	-8.81472
▁And	-8.81606
ata	-8.81614
अ	-8.81617
▁play	-8.81673
▁विशेष	-8.81691
▁V	-8.81696
▁कार्यक्रम	-8.81778
▁lo	-8.81875
मो	-8.81972
▁comp	-8.82002
शी	-8.82126
▁सेवा	-8.82347
▁diyaa	-8.82404
sha	-8.82581
▁चि	-8.8261
▁week	-8.82616
rit	-8.82666
▁चला	-8.82718
▁बु	-8.82809
ct	-8.82813
▁mu	-8.82873
ड़ी	-8.82986
ास	-8.83052
▁le	-8.83082
▁pi	-8.8311
6	-8.8314
▁right	-8.8315
▁gu	-8.8323
▁स्थित	-8.83319
▁end	-8.83397
▁country	-8.83441
▁हाथ	-8.83472
▁खुद	-8.83581
▁down	-8.837
▁No	-8.83772
▁here	-8.83789
▁Da	-8.83887
त्	-8.84004
▁बै	-8.8408
▁सम	-8.84213
ji	-8.84217
▁करती	-8.84224
▁आपके	-8.84282
▁She	-8.8436
▁महा	-8.84522
▁दिल	-8.84534
▁हूं	-8.84566
▁next	-8.84624
▁अन	-8.84688
▁ट	-8.84767
▁Co	-8.84848
▁वीडियो	-8.85049
gan	-8.85113
▁jaataa	-8.85262
खा	-8.85285
nch	-8.85348
▁रात	-8.85516
▁सौ	-8.8558
fi	-8.85593
▁प्रकार	-8.85679
▁केंद्र	-8.85851
▁डि	-8.85965
▁जाए	-8.85973
▁दिनों	-8.86014
▁hand	-8.86144
nn	-8.86194
▁Ta	-8.86214
▁जे	-8.8624
▁गा	-8.86253
▁know	-8.86381
tan	-8.86489
रिया	-8.86511
▁दुनिया	-8.8655
▁Cha	-8.86561
▁नेता	-8.86598
▁pat	-8.86671
▁2022	-8.8674
▁vaha	-8.86854
▁high	-8.86926
ish	-8.86984
om	-8.87095
pur	-8.87139
▁खा	-8.87195
▁आदि	-8.87262
▁long	-8.87276
ही	-8.87308
su	-8.87324
▁want	-8.87453
▁पद	-8.87472
▁ऑ	-8.87554
▁home	-8.87598
▁रह	-8.87684
▁number	-8.87738
▁You	-8.87746
▁बड़े	-8.87748
▁झ	-8.87922
▁जगह	-8.87983
▁टी	-8.88021
▁top	-8.88145
▁मिला	-8.88189
ष्ट	-8.88243
द्र	-8.88294
▁घ	-8.88358
▁star	-8.88364
ार	-8.8837
▁d	-8.88442
▁जबकि	-8.88452
▁Bo	-8.88559
ner	-8.88613
▁वाला	-8.88644
▁since	-8.88655
▁दिए	-8.88698
झ	-8.88737
▁तैयार	-8.88877
▁कहना	-8.88995
▁car	-8.89113
▁लिख	-8.89135
▁Su	-8.89176
gg	-8.89241
▁बैंक	-8.8929
▁support	-8.89392
▁four	-8.89432
▁video	-8.89681
न्द	-8.8989
▁&	-8.89895
▁केवल	-8.89929
यों	-8.89941
स्क	-8.89997
पर	-8.90026
ेल	-8.90063
ेश	-8.90207
dh	-8.90267
▁–	-8.90397
▁then	-8.90427
▁संबंध	-8.90496
म्ब	-8.90684
tor	-8.90802
▁हि	-8.91136
ating	-8.91201
▁sc	-8.91294
▁Li	-8.91295
▁around	-8.91314
▁g	-8.91331
▁बदल	-8.91375
▁Be	-8.91388
▁उसने	-8.91398
▁both	-8.914
ंच	-8.91406
we	-8.91451
वन	-8.91456
्व	-8.91466
▁सर	-8.91518
▁राष्ट्रीय	-8.91595
रि	-8.91653
tar	-8.91797
▁same	-8.91818
▁Jo	-8.91889
king	-8.91971
▁World	-8.92003
टे	-8.92005
▁added	-8.92056
▁su	-8.92173
shi	-8.9223
िट	-8.92251
▁वजह	-8.9234
▁ti	-8.92388
▁देते	-8.92486
▁अधिकारी	-8.92602
wi	-8.92655
र्क	-8.9267
▁जिसके	-8.92673
▁जाना	-8.93035
▁Delhi	-8.93106
▁खान	-8.93275
▁si	-8.93395
्ट	-8.93428
▁players	-8.93473
lan	-8.93569
▁डाल	-8.93648
po	-8.93657
▁Pro	-8.93673
▁रिपोर्ट	-8.93778
der	-8.93796
पाल	-8.93906
bb	-8.94011
▁record	-8.94102
per	-8.94144
▁पूरा	-8.94146
▁हा	-8.9419
▁ne	-8.94248
▁कार	-8.94359
▁life	-8.94548
ल्	-8.94697
▁side	-8.94709
▁25	-8.94885
▁मार	-8.95028
▁एम	-8.95142
7	-8.95143
tch	-8.95224
▁They	-8.95314
▁ca	-8.95446
one	-8.95603
▁police	-8.95681
▁much	-8.95736
ang	-8.95781
fe	-8.95785
ow	-8.95823
▁including	-8.95881
▁स्ट	-8.95971
▁पे	-8.96058
ten	-8.96109
▁सह	-8.96135
हर	-8.96177
▁विश्व	-8.96294
ीन	-8.96337
▁प्रदर्शन	-8.96357
िए	-8.96365
ath	-8.96388
▁fa	-8.96475
▁करके	-8.96546
▁apane	-8.96565
▁पड़	-8.96601
yan	-8.96718
▁because	-8.96773
▁शो	-8.96925
ach	-8.96947
▁media	-8.97017
ations	-8.97051
▁बैठक	-8.97251
ेट	-8.97287
ात	-8.97386
▁रहने	-8.97395
▁जिले	-8.97399
▁समाज	-8.97408
▁हे	-8.9743
▁प्रधानमंत्री	-8.97635
▁मौत	-8.97876
घ	-8.98029
▁धर्म	-8.98039
▁अव	-8.98059
▁वहां	-8.98072
▁पहली	-8.98239
mit	-8.98271
जे	-8.98278
▁पांच	-8.98336
एम	-8.98542
▁कल	-8.98565
▁If	-8.98582
आ	-8.98682
▁सुरक्षा	-8.98728
▁नए	-8.98783
▁news	-8.9879
▁series	-8.9888
▁Te	-8.98999
▁निकल	-8.99104
▁Ho	-8.99126
▁मदद	-8.99158
▁हमें	-8.99174
▁Go	-8.99287
वार	-8.99454
pp	-8.99536
आर	-8.99544
▁सुन	-8.99719
ous	-8.99898
ful	-9.00243
).	-9.00311
▁final	-9.00353
tha	-9.00507
▁cent	-9.00623
os	-9.00756
र्म	-9.00823
ेन	-9.00967
▁hu	-9.00977
▁रख	-9.01046
ree	-9.01073
▁योजना	-9.01086
▁going	-9.01105
▁खबर	-9.01109
▁स्थिति	-9.01251
न्	-9.01291
▁थ	-9.01303
▁dee	-9.01311
rn	-9.01324
▁ru	-9.01425
line	-9.01442
▁विरोध	-9.01455
che	-9.01477
▁curr	-9.01538
pi	-9.01616
▁am	-9.01631
▁ध्यान	-9.01656
▁अस्पताल	-9.01721
▁इं	-9.01975
▁शर्मा	-9.02029
ash	-9.02113
▁gaye	-9.02122
▁पु	-9.02165
▁Ar	-9.02186
▁बच्चों	-9.02216
▁ऐसी	-9.02245
▁इसकी	-9.02342
ction	-9.02371
▁did	-9.02404
▁बड़ा	-9.02416
म्प	-9.02556
ture	-9.02564
▁य	-9.02583
bha	-9.02617
▁few	-9.02683
▁जनता	-9.02706
nce	-9.02708
▁report	-9.02882
ेशन	-9.02885
ise	-9.02886
▁करेंगे	-9.03016
▁Si	-9.03034
▁लगे	-9.03042
oo	-9.03111
ोर	-9.0313
▁स्थान	-9.03201
▁Po	-9.03251
▁gaee	-9.03254
led	-9.03352
▁सोच	-9.03468
gar	-9.03525
za	-9.03538
्रा	-9.03683
ft	-9.03746
क्	-9.03827
▁Ti	-9.03832
▁Singh	-9.03984
com	-9.03989
त्त	-9.04041
mu	-9.04138
मन	-9.0416
▁won	-9.0416
रू	-9.0424
▁उसका	-9.04251
कों	-9.04299
▁उठा	-9.04374
▁शि	-9.04377
▁ऑफ	-9.04377
mer	-9.04379
▁पहुंच	-9.04478
▁event	-9.04531
▁State	-9.04656
▁क्र	-9.04714
ok	-9.04837
ढ़	-9.04859
▁en	-9.04986
▁US	-9.0505
▁तरफ	-9.05111
▁live	-9.05122
ness	-9.05156
▁24	-9.05213
▁बोल	-9.05271
▁bha	-9.05275
▁Con	-9.0528
▁every	-9.05373
िश	-9.05459
dha	-9.05671
▁great	-9.05691
▁2023	-9.05701
ther	-9.05733
▁शिक्षा	-9.05744
year	-9.05909
-19	-9.05935
▁लिये	-9.05965
▁तहत	-9.05998
▁क्यों	-9.06234
▁हाल	-9.06291
▁मैंने	-9.06375
▁निर्माण	-9.06454
▁got	-9.06476
▁सिर्फ	-9.06569
▁प्रमुख	-9.06612
▁मुताबिक	-9.06686
▁रुपये	-9.06714
port	-9.06785
ph	-9.06797
con	-9.06799
▁लेने	-9.06849
pt	-9.07112
▁don	-9.07179
▁अच्छा	-9.07179
lic	-9.07271
ding	-9.07456
tain	-9.07614
▁आधार	-9.07681
▁निर्देश	-9.07838
वाद	-9.07914
▁still	-9.07931
▁school	-9.07962
▁News	-9.0803
ence	-9.08067
ara	-9.0826
०	-9.08309
▁shamil	-9.08323
▁यही	-9.08333
▁found	-9.0834
]	-9.08399
▁करीब	-9.08458
iyon	-9.08503
ure	-9.08549
▁विचार	-9.08553
▁कैसे	-9.0859
▁2021	-9.08594
vo	-9.08603
▁With	-9.08699
▁फ़	-9.08739
▁सै	-9.08802
▁took	-9.08805
tal	-9.08865
▁million	-9.08865
बर	-9.08871
▁उपलब्ध	-9.08934
राज	-9.08971
▁start	-9.08974
▁शादी	-9.09037
ugh	-9.09052
▁देखा	-9.09074
▁case	-9.09086
▁head	-9.09091
मि	-9.09159
▁जिससे	-9.09176
▁open	-9.09215
J	-9.09263
बल	-9.09303
▁बाल	-9.09307
▁party	-9.0933
▁those	-9.09352
▁Ca	-9.09391
▁change	-9.0944
▁स्प	-9.0944
io	-9.09518
▁जिसे	-9.09537
र्ज	-9.09624
ेंगे	-9.09774
▁days	-9.0992
व्य	-9.09953
▁Do	-9.09969
▁former	-9.10089
▁पै	-9.10103
...	-9.10322
▁मिली	-9.1035
ving	-9.10378
▁अप	-9.10449
▁जन	-9.10552
▁नगर	-9.1059
▁डा	-9.10744
ुल	-9.10947
▁ad	-9.10947
▁2020	-9.1137
▁बह	-9.11396
फा	-9.11422
(	-9.11445
ाइट	-9.11513
▁अस	-9.11598
वाह	-9.11687
ld	-9.11695
▁कोर्ट	-9.11707
▁Lo	-9.11715
ial	-9.1193
बे	-9.12116
▁inter	-9.12223
▁fi	-9.12256
▁मौके	-9.12293
less	-9.12436
▁सवाल	-9.12486
▁सूचना	-9.12605
▁लग	-9.12615
ps	-9.12623
▁five	-9.12696
▁सड़क	-9.1279
9	-9.12801
नो	-9.12842
▁छोड़	-9.12925
▁Z	-9.13055
▁वै	-9.13086
▁गिर	-9.13132
▁ya	-9.13139
ेंट	-9.13186
▁हजार	-9.13277
▁कोशिश	-9.13314
गर	-9.13357
▁wo	-9.13444
▁market	-9.13456
▁hi	-9.13458
chi	-9.13549
दे	-9.13557
▁डॉ	-9.13632
aj	-9.13739
ward	-9.13754
▁गांधी	-9.13847
ley	-9.13917
रों	-9.13929
▁संख्या	-9.14014
तर	-9.14218
ियन	-9.14229
▁Mu	-9.14288
▁दल	-9.14301
▁एल	-9.14304
▁चौ	-9.14328
्म	-9.14375
▁करोड़	-9.14399
taa	-9.14403
▁another	-9.14431
ियो	-9.14448
▁run	-9.14637
▁seen	-9.14662
▁कुल	-9.14685
▁गयी	-9.14743
▁रंग	-9.14774
▁तुम	-9.14832
▁कानून	-9.14836
qui	-9.14916
▁पढ़	-9.15002
िर	-9.15008
सन	-9.15018
द्ध	-9.15176
▁रखा	-9.15285
▁Mar	-9.15304
▁होना	-9.15315
dd	-9.15557
dy	-9.1567
▁think	-9.15847
छ	-9.15868
▁लाल	-9.15935
▁0	-9.15991
▁m	-9.1605
▁मौजूद	-9.16073
▁big	-9.16077
▁love	-9.16123
ign	-9.16191
em	-9.16222
cing	-9.16258
▁लिखा	-9.16328
▁पूरे	-9.16435
Y	-9.16548
▁che	-9.16549
ेज	-9.16626
▁निकाल	-9.16728
▁There	-9.16732
▁तौर	-9.1675
▁मंदिर	-9.16776
▁All	-9.16873
jan	-9.16926
mon	-9.17066
▁50	-9.17234
▁sta	-9.17245
yu	-9.17297
▁जल	-9.17392
▁gra	-9.1749
▁माध्यम	-9.17544
▁जिन	-9.17574
ूर	-9.17662
▁जि	-9.17673
▁स्तर	-9.1786
▁return	-9.17983
▁told	-9.18067
▁put	-9.18083
कि	-9.1818
▁too	-9.18214
ची	-9.18223
▁हूँ	-9.18252
▁due	-9.18284
▁पि	-9.18289
▁movie	-9.18334
▁today	-9.18402
uk	-9.18439
हार	-9.18533
▁pe	-9.18579
▁बिना	-9.18646
ative	-9.18755
▁2019	-9.18832
▁order	-9.1888
the	-9.18914
▁पिता	-9.18956
▁उच्च	-9.19156
ेंद्र	-9.19201
ko	-9.1921
▁hoe	-9.19245
▁21	-9.19343
▁सके	-9.19402
हे	-9.19434
▁लगता	-9.19577
्ल	-9.19599
▁कॉ	-9.19697
▁देव	-9.19723
▁शा	-9.19759
▁बाजार	-9.19779
▁यादव	-9.1984
▁free	-9.19843
▁While	-9.19987
▁मेरी	-9.19993
कल	-9.19997
दर	-9.20006
▁सुबह	-9.20022
."	-9.20069
▁बयान	-9.20071
▁pahale	-9.20166
▁मामला	-9.20197
▁naheen	-9.20278
ator	-9.20288
▁came	-9.20346
▁six	-9.20404
ंब	-9.20594
▁क्रिकेट	-9.20644
श्	-9.20697
▁ri	-9.20706
▁Fa	-9.20768
▁ar	-9.20773
▁face	-9.20815
▁बो	-9.20849
ेस	-9.20868
qu	-9.20962
▁वापस	-9.21028
▁al	-9.21045
esh	-9.21164
mm	-9.21292
मेंट	-9.21328
▁दूसरी	-9.2141
▁Th	-9.21415
▁each	-9.21442
डे	-9.21456
▁जाएगी	-9.21472
ava	-9.21555
▁दु	-9.21582
thi	-9.21603
out	-9.21704
yo	-9.21755
▁गिरफ्तार	-9.21764
▁बनाया	-9.21781
▁fans	-9.21841
िय	-9.22014
▁Test	-9.22028
▁different	-9.22072
▁भाई	-9.22164
▁Cup	-9.22195
▁विभिन्न	-9.22322
▁jo	-9.22326
▁give	-9.22331
▁100	-9.22429
यी	-9.22536
भा	-9.22555
ंगी	-9.22638
▁own	-9.22723
yon	-9.2281
▁yaa	-9.22882
hy	-9.23009
▁sign	-9.23035
▁चाहते	-9.23047
▁Pakistan	-9.23121
ions	-9.23162
▁सदस्य	-9.2322
▁Ni	-9.23233
▁lot	-9.23302
▁form	-9.2331
▁अधिकारियों	-9.2332
ally	-9.23373
▁list	-9.23427
▁pri	-9.23453
▁mis	-9.23472
▁थीं	-9.23503
▁स्	-9.23523
▁मां	-9.23547
▁अमेरिका	-9.23558
हि	-9.2357
▁खास	-9.23604
▁पत्र	-9.23607
ship	-9.23829
▁men	-9.23853
▁Raj	-9.23947
▁हत्या	-9.2396
▁naam	-9.2401
que	-9.24025
▁खरीद	-9.24081
▁कहते	-9.24127
▁स्क	-9.24149
▁भा	-9.24254
▁find	-9.24365
▁far	-9.24547
▁सही	-9.2456
▁लगभग	-9.24626
वाल	-9.24627
▁Wa	-9.24644
tin	-9.24757
▁$	-9.24961
▁Dr	-9.24965
nu	-9.25001
▁परि	-9.25142
ber	-9.25251
▁आग	-9.25252
▁देखने	-9.25288
स्त्र	-9.25306
▁After	-9.25376
ड़े	-9.25391
र्द	-9.25415
▁रन	-9.25629
ig	-9.25666
ाद	-9.25757
▁role	-9.2581
gh	-9.25811
▁name	-9.25818
▁Ri	-9.2583
▁ball	-9.25845
रत	-9.25863
▁health	-9.25877
shan	-9.25949
▁business	-9.25998
▁played	-9.26076
▁keep	-9.2617
▁hit	-9.26273
▁offer	-9.26321
▁पार	-9.26344
▁दर	-9.26378
sion	-9.26381
▁लाभ	-9.26413
▁प्रयास	-9.26419
ev	-9.26503
शि	-9.26521
ov	-9.26537
▁बल्कि	-9.26538
▁across	-9.26683
▁unhein	-9.26762
▁प्रशासन	-9.26832
ंप	-9.26849
ाल	-9.26901
▁test	-9.26904
▁दक्षिण	-9.26919
▁[	-9.26962
चे	-9.27049
ze	-9.2709
▁चुके	-9.271
णा	-9.27102
▁social	-9.27132
lin	-9.2727
राम	-9.27275
▁official	-9.27336
ris	-9.27356
न्न	-9.27444
धि	-9.27448
▁चर्चा	-9.27479
▁used	-9.27523
▁बच्चे	-9.27527
wan	-9.27561
war	-9.27594
▁स्वास्थ्य	-9.27627
▁power	-9.27658
end	-9.27811
िता	-9.27816
▁बल	-9.27817
▁लोक	-9.27829
▁runs	-9.28132
▁latest	-9.28133
▁कार्रवाई	-9.28138
▁लो	-9.28144
▁tri	-9.28165
10	-9.28193
▁सहित	-9.28251
ual	-9.28263
गे	-9.28328
ाइल	-9.28407
▁अच्छी	-9.28424
▁unake	-9.28443
▁goal	-9.28615
▁club	-9.28618
▁line	-9.28634
▁Al	-9.2865
ced	-9.28653
van	-9.28686
▁Ne	-9.28706
▁भेज	-9.28717
▁लगातार	-9.28725
▁family	-9.28846
ex	-9.28887
▁पक्ष	-9.28926
▁प्रो	-9.29069
▁शुरुआत	-9.29096
▁design	-9.29118
▁विधायक	-9.29181
▁close	-9.29214
ां	-9.29305
▁What	-9.29356
गु	-9.29391
धार	-9.29395
▁इस्तेमाल	-9.29402
▁मी	-9.29454
चार	-9.29505
▁लड़	-9.29587
ning	-9.29658
▁शिव	-9.29667
▁move	-9.29709
यू	-9.29717
▁group	-9.29751
▁lu	-9.29753
ging	-9.29771
▁remain	-9.2982
▁system	-9.2996
aaya	-9.30014
▁मुंबई	-9.30063
▁visit	-9.30097
▁22	-9.30147
▁नौ	-9.30227
▁पो	-9.30266
▁price	-9.30266
▁release	-9.30394
way	-9.30458
ण्ड	-9.30553
▁left	-9.30604
▁Bu	-9.30638
iv	-9.30663
यो	-9.30689
▁South	-9.30822
▁court	-9.3095
▁At	-9.30965
▁सोशल	-9.31006
ाना	-9.31221
▁होंगे	-9.31235
▁यात्रा	-9.31252
▁ठीक	-9.31255
▁/	-9.31298
▁इंडिया	-9.31308
ities	-9.31318
गो	-9.31348
▁शिकायत	-9.31464
▁लगी	-9.31487
▁Khan	-9.31546
था	-9.31618
▁Gu	-9.3163
▁real	-9.31646
ati	-9.31693
▁महीने	-9.31701
▁पत्नी	-9.31847
▁कप	-9.31966
▁ju	-9.3205
▁house	-9.3206
▁प्रेम	-9.32095
▁pass	-9.32114
नाथ	-9.32177
▁feel	-9.32278
▁deal	-9.32298
▁दिख	-9.32341
ult	-9.3235
▁better	-9.32531
▁war	-9.32622
▁kha	-9.32626
▁चा	-9.32694
▁Sha	-9.32698
▁lead	-9.32777
ye	-9.32781
▁making	-9.32795
▁”	-9.32799
ढ	-9.32855
▁चलते	-9.32861
our	-9.33055
रु	-9.3307
▁month	-9.33169
ore	-9.3325
dra	-9.33298
au	-9.33372
▁रखने	-9.33459
▁ac	-9.33508
▁जरूरत	-9.33562
ep	-9.33629
▁जन्म	-9.33751
▁सू	-9.33822
▁website	-9.3393
vin	-9.34003
▁taken	-9.34048
▁जवाब	-9.34069
▁given	-9.34173
▁available	-9.34287
▁धन	-9.34332
▁लगाया	-9.34403
धी	-9.34421
▁आदेश	-9.34469
ham	-9.34602
▁adhik	-9.34711
▁cr	-9.3479
▁crore	-9.34794
ey	-9.34795
▁public	-9.34815
time	-9.34824
▁मध्य	-9.34836
ौर	-9.34989
▁व्यवस्था	-9.35031
▁बिहार	-9.35083
br	-9.35131
▁शेयर	-9.35207
▁करा	-9.35237
▁कहीं	-9.35396
18	-9.35398
▁23	-9.35453
▁क्	-9.35464
▁ऊपर	-9.35498
▁experience	-9.35527
▁2018	-9.35543
▁प्रदान	-9.35543
ism	-9.35564
▁provide	-9.35585
▁already	-9.35668
▁तेज	-9.35888
cu	-9.35935
▁attack	-9.36056
▁नही	-9.3607
▁पीछे	-9.36094
▁mi	-9.36196
hal	-9.36223
▁San	-9.3631
▁किस	-9.36348
▁पोस्ट	-9.36414
▁land	-9.36483
ook	-9.36585
▁pu	-9.36698
▁बजे	-9.36819
▁विधानसभा	-9.36825
▁ki	-9.36957
ala	-9.37048
▁परीक्षा	-9.37059
lam	-9.37133
र्ग	-9.372
▁शरीर	-9.37322
50	-9.37475
▁process	-9.37516
गत	-9.37538
rr	-9.3759
▁away	-9.37723
ient	-9.37726
ali	-9.37745
ell	-9.37796
▁Congress	-9.37814
gra	-9.37858
▁समस्या	-9.37866
▁share	-9.37895
▁games	-9.37944
▁1.	-9.37968
डा	-9.38076
ney	-9.38083
▁fun	-9.38091
▁याद	-9.38093
▁become	-9.38178
▁project	-9.38196
ern	-9.38226
hit	-9.38284
▁varsh	-9.38334
▁Pu	-9.38339
ेंस	-9.38424
▁थाना	-9.38486
▁huaa	-9.38528
▁सेना	-9.38637
▁title	-9.38656
▁भाषा	-9.38683
q	-9.38704
▁भगवान	-9.38799
▁महिलाओं	-9.38802
▁—	-9.38853
▁aim	-9.38892
dhi	-9.38952
▁May	-9.38967
ical	-9.3904
▁#	-9.39058
iz	-9.3906
जि	-9.39069
pped	-9.39102
▁fight	-9.39217
ksh	-9.39232
▁women	-9.39339
ens	-9.39365
▁संगठन	-9.39409
सु	-9.39501
ek	-9.39531
दान	-9.39571
▁दिखा	-9.39598
▁जु	-9.39639
▁khel	-9.39641
back	-9.39678
str	-9.39891
▁among	-9.39949
▁मिलने	-9.3996
▁राहुल	-9.40082
▁आयोजित	-9.40098
▁सर्व	-9.40123
act	-9.4024
▁माना	-9.40242
▁level	-9.40274
▁गये	-9.40304
▁पेश	-9.40434
▁According	-9.40544
▁सीट	-9.40563
स्था	-9.40613
▁ban	-9.40673
▁w	-9.4069
ksha	-9.40692
kan	-9.40782
▁tra	-9.41175
▁रहते	-9.41252
30	-9.41259
▁dou	-9.41369
▁sub	-9.41418
ral	-9.41475
ल्ल	-9.41488
▁ब्र	-9.41583
▁प्रभाव	-9.4162
▁चुकी	-9.4162
▁sent	-9.41708
hee	-9.41716
We	-9.41767
▁सरकारी	-9.41793
▁again	-9.41804
▁प्यार	-9.41953
▁अवसर	-9.41963
र्न	-9.42051
▁फा	-9.42062
nder	-9.42092
▁announced	-9.421
▁लि	-9.42115
ग्र	-9.4212
▁युवक	-9.42222
▁जल्द	-9.42298
▁आपकी	-9.42377
▁points	-9.42402
▁हमारी	-9.42407
▁चीन	-9.42423
▁१	-9.42431
▁बने	-9.42547
▁ko	-9.42562
ल्ड	-9.4257
so	-9.42661
▁without	-9.42664
ज़ा	-9.42713
lla	-9.42713
मु	-9.42767
▁Ru	-9.42875
▁main	-9.42943
शु	-9.42963
▁देता	-9.4302
▁आरोपी	-9.43052
▁पसंद	-9.43087
▁cricket	-9.43102
▁संघ	-9.4328
ite	-9.43329
▁several	-9.43335
्री	-9.43367
▁देर	-9.43413
▁इतना	-9.43414
▁water	-9.43427
▁26	-9.43433
▁बच	-9.43534
▁एड	-9.43586
▁सुविधा	-9.43688
▁उसी	-9.43758
maan	-9.43777
▁might	-9.43814
ub	-9.43832
ments	-9.43854
िव	-9.44057
ice	-9.44063
▁सीमा	-9.44135
पन	-9.44266
ाइड	-9.44302
▁रू	-9.44313
▁action	-9.44336
▁कीमत	-9.44427
▁चु	-9.44454
day	-9.44465
▁v	-9.44475
▁गलत	-9.44498
▁say	-9.44728
▁min	-9.44741
▁2017	-9.44798
▁विषय	-9.44913
स्थ	-9.44974
▁actor	-9.45007
▁Ki	-9.4502
▁वक्त	-9.45047
arth	-9.45061
▁raajya	-9.45066
नों	-9.45138
वान	-9.45157
लैंड	-9.45229
▁third	-9.45276
ल्स	-9.45278
▁सात	-9.45321
ler	-9.45347
▁बनाए	-9.45367
▁talk	-9.45416
▁kshetra	-9.4548
▁Ke	-9.45505
▁League	-9.45535
hat	-9.45545
mar	-9.4559
den	-9.45691
ूल	-9.45695
▁रोक	-9.45699
▁present	-9.45742
▁Ad	-9.45826
▁past	-9.45839
▁ste	-9.45859
▁district	-9.4586
▁data	-9.45879
ny	-9.45966
▁bring	-9.46017
▁went	-9.46089
▁question	-9.46157
▁call	-9.46178
▁बीजेपी	-9.46192
▁...	-9.46205
▁along	-9.4625
und	-9.46281
▁story	-9.46295
ition	-9.46321
▁40	-9.46355
▁major	-9.46535
-1	-9.46544
ctor	-9.46573
▁statement	-9.46719
kha	-9.46719
▁फैसला	-9.46798
nda	-9.46838
raj	-9.46885
ग्	-9.46904
▁BJP	-9.46904
▁Chief	-9.46993
▁गंभीर	-9.47
▁अर्थ	-9.47001
▁performance	-9.47024
▁held	-9.47027
▁England	-9.4703
▁important	-9.47031
▁meeting	-9.47044
▁jisamen	-9.47081
ug	-9.47265
ून	-9.47316
ase	-9.47319
▁sur	-9.47342
▁person	-9.47342
र्थ	-9.47366
▁टे	-9.47398
▁called	-9.47519
▁कं	-9.47537
rk	-9.47555
टो	-9.47596
ets	-9.47675
▁point	-9.47737
सि	-9.4776
▁पहुंचे	-9.47796
▁पहचान	-9.47892
▁shahar	-9.4792
▁Pra	-9.4792
▁28	-9.47924
lar	-9.47983
▁होकर	-9.47998
▁chi	-9.48013
▁पति	-9.48023
▁further	-9.4805
▁राय	-9.4807
कृत	-9.4812
▁देखते	-9.4812
bh	-9.48127
▁अभि	-9.48169
▁pur	-9.48213
वास	-9.48215
▁सोमवार	-9.48322
▁टेस्ट	-9.48353
▁hue	-9.48403
mor	-9.48407
▁Mumbai	-9.48533
चर	-9.48567
▁2016	-9.486
▁फोन	-9.48689
▁following	-9.48767
एल	-9.48797
nal	-9.48849
▁says	-9.48942
▁हिस्सा	-9.48982
form	-9.49001
▁देना	-9.49111
▁महत्वपूर्ण	-9.49125
▁com	-9.49164
▁पकड़	-9.49169
▁wa	-9.49192
▁started	-9.49209
▁टा	-9.49219
▁hard	-9.49318
जर	-9.49387
▁राष्ट्रपति	-9.49413
▁हमेशा	-9.49501
▁u	-9.4962
▁चुका	-9.49812
▁kartaa	-9.49846
▁मेरा	-9.49851
▁व्यापार	-9.49923
णी	-9.4993
म्	-9.4998
▁decision	-9.49986
प्प	-9.50006
▁coach	-9.50062
▁गीत	-9.50069
▁recently	-9.5013
युक्त	-9.50178
▁फि	-9.50301
▁mil	-9.50375
▁कोरोना	-9.50428
▁फे	-9.50452
ाम	-9.50481
்	-9.50489
▁|	-9.50532
▁दोस्त	-9.50559
▁27	-9.50605
▁United	-9.50647
▁sthit	-9.50698
▁When	-9.50725
ect	-9.50735
dar	-9.50756
▁char	-9.50779
vel	-9.50835
▁बेहतर	-9.50848
▁follow	-9.50902
▁संयुक्त	-9.50915
सर	-9.50942
▁station	-9.51021
▁स्थानीय	-9.51149
ट्ट	-9.51184
ming	-9.51236
▁yet	-9.51276
▁things	-9.5128
▁Pe	-9.51292
मर	-9.51355
▁har	-9.51404
फो	-9.51416
▁released	-9.51427
ju	-9.51493
mal	-9.51548
▁football	-9.51578
val	-9.51592
▁वालों	-9.51644
▁विश्वविद्यालय	-9.51768
▁जोड़	-9.5178
▁Am	-9.51881
▁ख़	-9.51888
▁Har	-9.5198
▁asked	-9.52082
▁पड़ा	-9.52134
▁सहयोग	-9.52182
▁राशि	-9.5219
▁does	-9.52194
पो	-9.52196
ram	-9.52229
▁बैठ	-9.52229
▁always	-9.52285
▁cap	-9.52379
▁West	-9.5244
▁imp	-9.52518
ika	-9.52523
ॉल	-9.52525
▁short	-9.52563
कारी	-9.52617
▁दिखाई	-9.52691
▁include	-9.52718
▁Bha	-9.5278
▁Australia	-9.52813
…	-9.5288
िस्ट	-9.52909
men	-9.52991
▁ताकि	-9.53021
▁X	-9.53022
tter	-9.5311
▁apani	-9.53154
्ज	-9.53191
▁Ko	-9.53249
row	-9.53259
वीं	-9.53275
िम	-9.53412
▁समिति	-9.53455
mission	-9.5346
▁stand	-9.5347
स्प	-9.53483
ku	-9.53488
▁Google	-9.53501
▁player	-9.53571
▁जून	-9.5361
▁प्रक्रिया	-9.53625
▁सचिव	-9.53626
▁वर्ग	-9.53631
ोन	-9.53724
▁बोर्ड	-9.53733
▁sl	-9.53773
▁Monday	-9.53824
▁ज़	-9.53846
▁Friday	-9.53902
▁नव	-9.53907
▁bar	-9.53971
▁नीचे	-9.54015
यल	-9.54038
फी	-9.54065
▁jaa	-9.54123
▁शाह	-9.54131
▁continue	-9.54188
▁One	-9.54256
▁घायल	-9.54387
ेगा	-9.54447
िटी	-9.54529
▁पंजाब	-9.54573
▁फोटो	-9.54595
▁special	-9.54624
▁full	-9.54653
्त	-9.54654
सं	-9.54693
cy	-9.54715
▁young	-9.54746
lt	-9.54832
▁घोषणा	-9.54891
बू	-9.54948
▁ke	-9.5498
▁Twitter	-9.55022
▁read	-9.55025
part	-9.55033
ries	-9.55042
▁expected	-9.55124
▁break	-9.55126
▁information	-9.55149
▁फै	-9.55165
▁city	-9.55181
▁अल	-9.55266
एफ	-9.55285
ban	-9.55353
▁जमा	-9.55367
▁book	-9.55408
▁उम्मीद	-9.5546
▁trans	-9.55485
mba	-9.55488
▁वी	-9.55512
▁कमी	-9.55524
▁2.	-9.5558
▁Sh	-9.55604
▁पं	-9.55626
▁sh	-9.55678
▁प्रकाश	-9.55709
▁consider	-9.55752
कु	-9.55814
▁ठ	-9.55829
▁अंत	-9.55849
▁aeye	-9.5597
▁देशों	-9.56103
▁months	-9.56215
▁air	-9.5626
▁dha	-9.56286
काल	-9.56308
▁विवाद	-9.56371
▁इतिहास	-9.56411
▁stay	-9.56424
▁भारी	-9.56442
▁नंबर	-9.56468
पूर्ण	-9.56514
ide	-9.5658
iti	-9.56584
▁आय	-9.56595
▁National	-9.56611
▁कौन	-9.56658
गल	-9.56752
तन	-9.56767
▁मार्ग	-9.56772
ized	-9.56958
▁reported	-9.56997
▁pee	-9.57002
▁मूल	-9.57052
▁able	-9.5708
ांत	-9.5714
▁संबंधित	-9.57179
▁total	-9.57229
▁tournament	-9.57312
▁hold	-9.57427
wal	-9.57429
▁भूमिका	-9.57482
▁किसानों	-9.57487
▁ku	-9.57682
▁दूसरा	-9.5769
▁believe	-9.57691
ina	-9.57738
▁playing	-9.57768
ंध	-9.57805
▁Pi	-9.57823
▁शुक्रवार	-9.57947
लर	-9.57977
▁हासिल	-9.57995
▁वाहन	-9.58014
▁later	-9.58077
▁according	-9.58165
▁Pri	-9.58213
vaa	-9.58254
par	-9.58276
▁अधिकार	-9.5834
तु	-9.58352
▁kaee	-9.58393
▁banaa	-9.58419
▁शाम	-9.58434
दीप	-9.58477
▁ग्र	-9.5848
▁नया	-9.58584
सार	-9.58593
▁शक्ति	-9.58594
▁mar	-9.58597
▁fe	-9.58654
ress	-9.5868
▁साफ	-9.58709
▁clear	-9.58763
▁राष्ट्र	-9.58822
▁बॉ	-9.58839
▁Sri	-9.58912
▁छोटे	-9.58991
med	-9.59084
ants	-9.59143
ार्थ	-9.59244
▁सम्	-9.59261
्न	-9.59303
lf	-9.5931
▁यहाँ	-9.59312
je	-9.59331
▁प्रा	-9.59394
san	-9.59484
लू	-9.59514
▁upayog	-9.59564
▁kar	-9.59603
▁minister	-9.5961
▁एंड	-9.5965
▁2015	-9.59667
चित	-9.59823
yaa	-9.59859
▁पाया	-9.59891
▁लौट	-9.59908
▁राजनीतिक	-9.59989
▁comment	-9.59996
▁उम्मीदवार	-9.59999
▁बढ़ा	-9.60043
▁tu	-9.60095
▁Du	-9.60117
▁recent	-9.60144
▁phone	-9.60214
▁must	-9.60227
▁je	-9.603
▁Hu	-9.60404
▁cre	-9.60433
्रि	-9.60466
▁Kumar	-9.60472
ability	-9.60478
ंगा	-9.60488
▁मंगलवार	-9.60515
ठा	-9.6062
▁Wednesday	-9.60721
▁platform	-9.60727
▁view	-9.60734
▁समर्थन	-9.60808
▁केंद्रीय	-9.60809
▁develop	-9.60826
यां	-9.60832
▁having	-9.60882
▁पहला	-9.60914
▁body	-9.6119
ised	-9.61195
▁2014	-9.612
▁em	-9.61234
▁His	-9.61235
▁हार	-9.61309
ever	-9.61348
ुर	-9.61351
▁Sunday	-9.61357
▁अंतिम	-9.61365
▁रहता	-9.61382
▁प्रयोग	-9.61425
▁Pre	-9.61451
▁रुपए	-9.61507
▁account	-9.61528
▁WWE	-9.61568
▁comes	-9.61593
▁Tuesday	-9.61597
▁lekin	-9.6162
फ्र	-9.6166
▁strong	-9.61662
▁various	-9.61674
▁night	-9.61675
देव	-9.61683
गढ़	-9.617
▁never	-9.61771
▁watch	-9.61795
्रो	-9.61822
▁अंक	-9.61836
▁working	-9.61892
ल्ट	-9.61999
▁अंदर	-9.62019
▁गाय	-9.62083
▁अभियान	-9.62127
▁taking	-9.62181
rate	-9.622
cent	-9.62224
नगर	-9.62401
▁कदम	-9.62459
▁लेख	-9.6248
▁उससे	-9.62528
निक	-9.62544
▁deliver	-9.62547
▁अदालत	-9.62624
▁poor	-9.6266
ियम	-9.62661
tre	-9.62669
▁भू	-9.62673
▁Shi	-9.62689
▁रविवार	-9.62797
▁पुरुष	-9.62802
▁device	-9.62826
▁really	-9.62831
yog	-9.62831
▁President	-9.62855
▁निवासी	-9.62871
▁मोह	-9.62881
pan	-9.63027
▁pick	-9.63074
ious	-9.63181
serv	-9.63181
▁bra	-9.63202
स्ट्र	-9.63223
▁बुधवार	-9.63248
▁kaam	-9.63274
▁फ्ल	-9.63315
▁ब्ल	-9.6338
ration	-9.6346
are	-9.63481
▁vaale	-9.63526
over	-9.63541
wn	-9.63547
एँ	-9.63609
▁मार्च	-9.63653
▁बर्	-9.63657
▁2011	-9.63711
▁let	-9.63813
▁international	-9.63901
▁स्टेशन	-9.63933
▁आर्थिक	-9.63937
dic	-9.63966
▁31	-9.6405
▁Prime	-9.64076
▁God	-9.64091
▁मंत्रालय	-9.64159
▁term	-9.64224
वें	-9.64226
त्य	-9.64281
▁2013	-9.64282
pos	-9.64285
प्त	-9.64332
्रे	-9.64352
▁हज़ार	-9.64365
करण	-9.64399
11	-9.64404
▁Fi	-9.64434
▁Thursday	-9.64437
▁2010	-9.64466
च्च	-9.64487
ible	-9.64531
qua	-9.64598
▁प्रतिशत	-9.64643
ुक	-9.6466
नु	-9.64686
▁नागरिक	-9.64739
▁समूह	-9.64794
▁election	-9.64893
desh	-9.65014
▁शनिवार	-9.65024
▁मानव	-9.65043
▁reason	-9.65068
▁नेताओं	-9.65071
ड्र	-9.65097
ष्	-9.65108
▁That	-9.65186
▁एक्स	-9.65215
टन	-9.65256
▁बिजली	-9.6528
▁score	-9.65287
▁Ram	-9.65307
कर्ता	-9.65378
▁par	-9.65399
▁development	-9.65407
ियाँ	-9.65411
ुआ	-9.65516
▁future	-9.65652
▁आयोजन	-9.65667
put	-9.65677
▁using	-9.65679
▁matches	-9.6569
▁host	-9.65739
▁online	-9.65761
▁आठ	-9.65768
▁2012	-9.65781
▁sto	-9.6582
az	-9.65822
▁बेहद	-9.65823
▁29	-9.65837
▁aff	-9.65906
▁करवा	-9.65907
▁times	-9.65928
▁hope	-9.65939
▁others	-9.65945
▁शायद	-9.65946
ric	-9.6596
▁तय	-9.65968
▁वही	-9.66019
chan	-9.66031
▁Ye	-9.66101
▁cost	-9.66177
▁known	-9.66226
▁अमेरिकी	-9.66246
▁join	-9.66296
▁मिले	-9.6631
▁Bi	-9.66321
▁Qu	-9.66453
▁teams	-9.66461
cre	-9.6651
▁खिलाड़ी	-9.6651
▁users	-9.66565
▁turn	-9.66588
िप	-9.6661
▁कॉलेज	-9.66683
▁मं	-9.66786
क्र	-9.6681
▁बॉलीवुड	-9.66838
zi	-9.66936
▁ट्रेन	-9.67006
▁interest	-9.67014
▁career	-9.67046
▁unaki	-9.67103
▁जेल	-9.67116
पे	-9.67145
▁1,	-9.67213
▁prati	-9.67298
band	-9.67351
▁Car	-9.67499
rish	-9.67575
▁round	-9.67629
▁te	-9.67642
▁वरिष्ठ	-9.6772
cc	-9.67727
▁soon	-9.6774
▁cho	-9.67774
ंदा	-9.67789
ip	-9.67878
ब्	-9.67887
▁law	-9.67991
▁service	-9.68063
क़	-9.68111
निया	-9.68156
▁cover	-9.68159
एन	-9.68167
▁pari	-9.6819
dia	-9.68198
▁नी	-9.68201
▁ph	-9.68232
sco	-9.68343
▁लगाने	-9.68394
▁shared	-9.68408
▁तस्वीर	-9.68409
र्च	-9.68416
▁राजनीति	-9.68486
side	-9.68579
तः	-9.68708
▁आता	-9.6872
▁भाव	-9.68737
▁सिर	-9.68738
▁rate	-9.68776
▁aiss	-9.68879
ong	-9.68956
▁looking	-9.68958
▁अगले	-9.68977
▁छात्र	-9.69023
भर	-9.6903
fer	-9.69091
ush	-9.69223
▁bee	-9.69282
▁spot	-9.69291
▁Wi	-9.69306
▁lost	-9.69433
▁युवा	-9.69465
▁fo	-9.69535
▁members	-9.69554
▁done	-9.69566
▁समान	-9.69594
▁getting	-9.69628
▁दुकान	-9.69638
▁problem	-9.69648
▁भर्ती	-9.69648
▁अपराध	-9.69699
▁पंचायत	-9.69731
12	-9.69777
▁dakshin	-9.69788
▁कश्मीर	-9.69818
▁किसान	-9.69832
_	-9.69845
वादी	-9.69854
▁age	-9.69854
देश	-9.69861
▁जमीन	-9.69912
▁सांसद	-9.70005
ose	-9.70043
▁office	-9.70115
▁अनुभव	-9.7012
ple	-9.70177
▁step	-9.70193
▁students	-9.70197
▁डॉक्टर	-9.70237
▁हटा	-9.70239
▁रेलवे	-9.70287
▁maan	-9.70325
adi	-9.70341
▁Mr	-9.70345
▁पहन	-9.70365
▁कार्यालय	-9.70454
पति	-9.70467
▁large	-9.70484
▁March	-9.70506
▁plan	-9.70601
द्	-9.70601
▁बनी	-9.70681
▁Je	-9.70684
▁बेटी	-9.70695
▁source	-9.70751
▁kiye	-9.70781
nam	-9.70785
▁हमने	-9.70839
▁feature	-9.70904
वत	-9.70936
दि	-9.7095
ec	-9.71045
▁मू	-9.71055
▁coming	-9.71066
nic	-9.71074
▁बिल	-9.71114
dan	-9.71114
ठी	-9.71119
▁जिसका	-9.7114
X	-9.71164
▁ढ	-9.71175
▁साध	-9.71247
खे	-9.71272
▁हवा	-9.71292
▁Pat	-9.71321
var	-9.71342
75	-9.71368
▁मजबूत	-9.71497
▁sthaan	-9.715
▁आवश्यकता	-9.71523
een	-9.71527
▁sabse	-9.71549
वेद	-9.7158
▁anu	-9.71599
▁dar	-9.71619
▁earlier	-9.71639
▁local	-9.71653
▁fact	-9.71681
▁national	-9.71704
▁beach	-9.71743
▁baar	-9.71759
▁उपस्थित	-9.71763
▁निर्	-9.7178
▁आइ	-9.71784
▁रहती	-9.71853
न्ना	-9.71853
▁बल्लेबाज	-9.71938
▁gi	-9.71953
▁गि	-9.72079
▁आदमी	-9.72193
▁सुधार	-9.72312
lock	-9.72336
▁option	-9.72337
▁बारिश	-9.72337
ble	-9.72346
ew	-9.72361
▁launch	-9.72379
▁पॉ	-9.72414
nga	-9.72513
▁पहुंचा	-9.72518
▁शब्द	-9.7255
▁खोल	-9.72577
ged	-9.72589
▁allow	-9.72604
ंडे	-9.72705
▁हमला	-9.72717
फ्ट	-9.72752
टिंग	-9.72798
by	-9.72842
▁वर्तमान	-9.72854
▁matter	-9.72893
▁Un	-9.72901
▁demand	-9.72909
▁likely	-9.72914
▁ten	-9.7295
▁आते	-9.72958
▁light	-9.72959
▁झा	-9.72976
न्स	-9.73055
▁नीति	-9.73071
▁shi	-9.73101
▁मर	-9.73143
▁half	-9.73203
▁लें	-9.73208
cle	-9.73272
▁vishvavidyalaya	-9.73275
▁तरीके	-9.73295
▁nu	-9.733
▁Police	-9.73301
▁मौसम	-9.73369
▁फर्	-9.73495
▁karate	-9.73631
▁कपूर	-9.73672
िज	-9.73697
▁chief	-9.73704
▁आयोग	-9.73719
▁निर्णय	-9.73751
ंडा	-9.73769
▁वन	-9.73795
▁जय	-9.73819
▁early	-9.73931
▁पूर्ण	-9.74041
▁उठ	-9.74042
▁पैदा	-9.74077
ome	-9.74105
▁Saturday	-9.74109
हन	-9.74136
भार	-9.74173
ब्ब	-9.74187
▁Super	-9.74254
▁Modi	-9.74299
▁Ex	-9.74299
िंद	-9.74321
▁माल	-9.74345
▁छात्रों	-9.74365
▁nir	-9.74372
▁ज्ञान	-9.74388
▁act	-9.74427
▁cases	-9.74445
▁खुश	-9.74486
▁loss	-9.74492
17	-9.74505
▁death	-9.74507
▁dauran	-9.74508
▁control	-9.74514
▁TV	-9.7466
▁जैसी	-9.74735
▁Court	-9.74792
ट्र	-9.74794
▁jaba	-9.74811
▁song	-9.74812
▁track	-9.74872
लिया	-9.74952
▁गर्म	-9.74953
▁director	-9.75005
▁rest	-9.75055
▁charge	-9.75089
▁कप्तान	-9.75112
सो	-9.75118
▁screen	-9.7516
▁China	-9.75231
▁संगीत	-9.75263
▁Pradesh	-9.75282
▁previous	-9.753
▁Par	-9.75341
▁old	-9.75414
▁poorv	-9.75466
▁once	-9.75481
▁करेगा	-9.7551
भाव	-9.75607
▁मौ	-9.75615
▁bank	-9.7566
▁small	-9.75696
▁प्रधान	-9.75847
hor	-9.7587
▁दिवस	-9.75888
पोर्ट	-9.75906
▁आपका	-9.75967
▁कहानी	-9.7598
▁तेल	-9.76041
▁स्पष्ट	-9.76057
▁model	-9.76111
▁result	-9.76156
▁saying	-9.76182
▁heart	-9.76203
▁क्षेत्रों	-9.76207
▁सामान्य	-9.76364
run	-9.76383
सू	-9.76417
▁कराया	-9.76432
ेक्ट	-9.76459
▁samay	-9.76475
▁shuru	-9.7649
एंगे	-9.76514
ue	-9.76518
▁champion	-9.7653
▁Government	-9.7654
▁pay	-9.76552
मत	-9.76561
▁बावजूद	-9.76587
▁बातचीत	-9.76615
▁नरेंद्र	-9.76616
ाबाद	-9.7669
▁कब	-9.76714
▁दरअसल	-9.76717
▁moment	-9.76729
ल्ला	-9.76767
▁money	-9.76828
▁आवेदन	-9.76834
▁near	-9.76837
▁छह	-9.76839
▁currently	-9.76909
▁gen	-9.76915
ेस्ट	-9.7693
वल	-9.76942
डि	-9.76958
mark	-9.76973
धान	-9.76984
▁ut	-9.77032
nish	-9.77033
daa	-9.77068
▁Com	-9.77084
▁content	-9.7709
▁technology	-9.77148
्ड	-9.77224
▁खुल	-9.77239
यन	-9.77273
▁सामाजिक	-9.77278
fo	-9.77289
▁enter	-9.77327
▁area	-9.7733
▁access	-9.77335
▁पुस्तक	-9.77347
▁services	-9.77389
बि	-9.77418
dal	-9.77423
vid	-9.77456
hon	-9.77479
▁घंटे	-9.77572
▁प्रस्ताव	-9.77574
15	-9.77628
क्षित	-9.77632
▁लड़की	-9.77636
vol	-9.77642
▁सत्ता	-9.77656
ियर	-9.77666
mber	-9.7769
▁Kar	-9.77719
▁निवेश	-9.7773
▁हॉ	-9.77896
र्त	-9.77924
▁security	-9.7794
▁लागू	-9.77947
▁Bollywood	-9.77961
▁(19	-9.77981
▁चले	-9.78048
▁something	-9.78059
▁नदी	-9.78072
ाब	-9.78168
ग्रह	-9.78202
▁IPL	-9.78225
▁anya	-9.78258
▁Fe	-9.78291
ker	-9.7836
▁finish	-9.78374
त्व	-9.78395
▁जनवरी	-9.78432
ोड	-9.78443
▁Hi	-9.78448
gen	-9.78451
16	-9.78458
▁seven	-9.78514
▁पुत्र	-9.78533
▁सुख	-9.78534
▁लेते	-9.78558
▁add	-9.7858
▁picture	-9.78661
्वा	-9.78674
▁together	-9.78675
▁निजी	-9.78721
▁मई	-9.78761
▁विदेश	-9.78806
▁जरूरी	-9.78827
▁उनसे	-9.78842
▁विजय	-9.78842
▁दिशा	-9.78876
▁चे	-9.78923
▁कट	-9.78968
▁personal	-9.78992
▁music	-9.79105
ou	-9.79118
▁गुरु	-9.79121
क्त	-9.79132
mate	-9.79144
डो	-9.79159
▁पूजा	-9.79166
िड	-9.79186
▁June	-9.79205
▁संसद	-9.79277
▁leader	-9.79317
▁Va	-9.79434
cip	-9.79449
▁rashtriya	-9.79451
▁प्रभावित	-9.79495
-20	-9.79578
ified	-9.79594
▁माता	-9.79604
▁quarter	-9.79696
ालय	-9.79724
▁हों	-9.79755
▁रोड	-9.79772
▁रक्षा	-9.79838
▁leg	-9.79858
▁character	-9.79858
▁situation	-9.79887
▁cause	-9.79924
ब्र	-9.79941
▁नुकसान	-9.80013
round	-9.80053
▁जाय	-9.8011
▁जाएंगे	-9.80141
▁एफ	-9.80147
▁टो	-9.80185
▁Sp	-9.80194
▁mark	-9.80226
60	-9.80246
▁अच्छे	-9.80254
▁why	-9.80348
▁April	-9.8036
▁Day	-9.80367
▁पीएम	-9.80376
▁jeevan	-9.80419
▁whether	-9.8043
▁children	-9.80445
▁शव	-9.80476
ड्ड	-9.80506
▁Ju	-9.80523
▁राजस्थान	-9.80729
▁सत	-9.8073
▁swa	-9.80752
▁learn	-9.80776
क्शन	-9.80783
ification	-9.80807
▁praapt	-9.8088
▁नोट	-9.80893
▁सम्मान	-9.809
▁concern	-9.80985
▁Sam	-9.8104
▁जुड़े	-9.81075
▁college	-9.81091
▁चू	-9.812
▁Apple	-9.81366
▁gha	-9.81369
▁पड़ता	-9.8137
▁couple	-9.81378
▁road	-9.81406
▁मगर	-9.81418
▁met	-9.81436
▁issue	-9.81437
बार	-9.8147
▁संभावना	-9.8152
▁खो	-9.81525
▁focus	-9.81662
▁jise	-9.81667
▁आवाज	-9.81682
▁भविष्य	-9.817
▁card	-9.8171
tory	-9.81848
23	-9.81883
▁खत्म	-9.81894
▁field	-9.81973
▁पाए	-9.81991
▁wickets	-9.82047
ीकरण	-9.82054
▁honey	-9.8206
▁तेजी	-9.82073
▁date	-9.82073
▁captain	-9.82082
pro	-9.8212
▁रिलीज	-9.82147
▁सारे	-9.82185
pic	-9.82311
्‍	-9.82328
▁fra	-9.82339
▁little	-9.82416
▁condition	-9.82434
▁मोबाइल	-9.82449
▁वैसे	-9.82456
▁shot	-9.82506
▁incident	-9.82507
haan	-9.82537
▁Or	-9.82637
▁link	-9.82681
▁Now	-9.82741
▁उम्र	-9.82753
▁class	-9.82812
▁राजा	-9.82815
▁My	-9.82838
▁ahead	-9.82941
bor	-9.82951
▁टि	-9.82966
▁president	-9.83
हरा	-9.83019
बो	-9.83072
▁जैसा	-9.8314
▁claim	-9.8316
ST	-9.83228
▁2008	-9.83244
▁Tra	-9.83249
ama	-9.83274
fu	-9.83289
न्त	-9.83297
▁bad	-9.83346
▁2009	-9.83463
▁popular	-9.83575
स्व	-9.83609
vision	-9.83646
▁stu	-9.83654
ट्स	-9.83676
▁industry	-9.83737
oc	-9.8374
▁नेतृत्व	-9.83744
▁anti	-9.83746
▁bat	-9.83794
▁region	-9.83797
▁बनने	-9.83815
▁challenge	-9.83905
▁युद्ध	-9.83905
▁टीवी	-9.83909
bar	-9.83958
▁phir	-9.8398
▁Act	-9.84032
▁kuchh	-9.84089
low	-9.84124
▁बेटे	-9.84236
ency	-9.84265
▁behind	-9.84325
▁प्रवेश	-9.84359
tel	-9.84374
▁Gi	-9.84391
▁less	-9.84402
▁Here	-9.84451
▁ise	-9.84469
रेट	-9.84473
▁सीएम	-9.84474
▁कार्ड	-9.84522
len	-9.84527
▁ऐ	-9.84537
ॉट	-9.84551
▁improve	-9.8456
▁स्वयं	-9.8459
▁super	-9.84591
ंगे	-9.84594
यु	-9.84629
▁उद्योग	-9.84673
▁हु	-9.84683
▁chance	-9.8475
▁उत्	-9.84751
▁हिंदी	-9.84753
▁Shah	-9.8478
▁गृह	-9.84879
▁Pan	-9.84883
rry	-9.84919
▁माह	-9.84927
चल	-9.84952
▁food	-9.85052
▁जुलाई	-9.85062
▁officials	-9.85076
▁Africa	-9.85108
▁मत	-9.85125
▁सच	-9.85141
19	-9.85186
इस	-9.85199
▁परिणाम	-9.85205
▁रिकॉर्ड	-9.85271
▁front	-9.85295
▁forward	-9.85327
65	-9.85376
▁अप्रैल	-9.85428
▁मना	-9.8545
▁companies	-9.85472
tta	-9.85503
cess	-9.85505
▁sure	-9.85567
riya	-9.85578
gal	-9.85614
▁स्टार	-9.85627
▁विश्वास	-9.85651
▁देवी	-9.85669
▁इलाज	-9.85691
ख्	-9.8571
▁effort	-9.85734
▁दस	-9.85737
▁बेच	-9.85766
▁site	-9.85784
▁January	-9.85793
▁सामना	-9.85827
▁योग	-9.85866
▁teen	-9.85875
▁ob	-9.8596
पु	-9.86027
99	-9.86047
hen	-9.86095
▁सभा	-9.86117
▁परेशान	-9.86141
▁led	-9.8621
▁=	-9.86247
af	-9.86254
70	-9.86264
▁रोग	-9.8628
जित	-9.86284
▁job	-9.86386
▁अगस्त	-9.86394
▁July	-9.8641
▁scored	-9.86442
▁मैदान	-9.86468
▁वर्	-9.86474
धे	-9.86546
▁position	-9.86552
▁जै	-9.86566
▁देकर	-9.86609
▁कर्मचारियों	-9.86627
cial	-9.86653
▁select	-9.8666
▁within	-9.86694
▁पीड़ित	-9.86698
दर्श	-9.86717
nge	-9.86844
pre	-9.8689
▁स्थापित	-9.86891
▁आती	-9.86938
▁received	-9.8694
▁sangeet	-9.86951
▁रॉ	-9.86977
▁didn	-9.87019
▁कराने	-9.87042
bit	-9.87047
▁ago	-9.87176
▁पैर	-9.87181
▁करे	-9.872
▁reports	-9.87201
▁उतर	-9.8721
▁mukhya	-9.87233
▁गुजरात	-9.8728
if	-9.8728
▁२	-9.87304
▁परिषद	-9.87361
▁निगम	-9.8737
ज्ज	-9.87461
▁expect	-9.87463
▁ever	-9.8747
▁सत्र	-9.87472
▁चै	-9.87476
ution	-9.87538
▁ge	-9.87572
▁चाहता	-9.87623
▁ski	-9.87654
▁countries	-9.87672
▁single	-9.87677
▁हरियाणा	-9.87748
▁based	-9.87768
▁*	-9.87795
ved	-9.8784
ida	-9.87927
वाई	-9.8793
▁पू	-9.87939
▁पुरस्कार	-9.87947
▁निभा	-9.87948
▁तोड़	-9.87967
▁किये	-9.87977
▁least	-9.87986
bra	-9.88117
▁न्यायालय	-9.88151
▁Bra	-9.88158
▁seva	-9.88169
▁brand	-9.88332
▁दावा	-9.88358
▁lakh	-9.88383
▁Will	-9.88387
lon	-9.88424
▁features	-9.88496
▁global	-9.8854
▁जानते	-9.88583
▁पूछ	-9.88628
▁unit	-9.88629
▁समाप्त	-9.88673
95	-9.88673
gin	-9.88723
long	-9.8873
▁upcoming	-9.88853
▁टै	-9.88868
▁Tri	-9.8888
▁tweet	-9.88898
▁वोट	-9.89083
paschim	-9.89136
▁खेत	-9.89138
▁चरण	-9.89168
▁fire	-9.89205
▁उसमें	-9.89249
▁though	-9.89387
▁cut	-9.89394
cal	-9.89403
▁इलाके	-9.89409
▁low	-9.8941
▁आतंकवाद	-9.89424
ez	-9.89433
▁pan	-9.8948
▁Sur	-9.89521
▁डर	-9.8958
▁possible	-9.89634
▁suggest	-9.89641
▁सजा	-9.89657
▁port	-9.89668
kaar	-9.89681
क्रम	-9.89704
▁भीतर	-9.89714
▁कला	-9.89718
▁जहाँ	-9.89781
▁travel	-9.89806
of	-9.89806
▁board	-9.89824
▁album	-9.89906
▁न्याय	-9.89938
▁ऑस्ट्रेलिया	-9.89953
▁tour	-9.89959
25	-9.90032
▁यानी	-9.90035
▁मुश्किल	-9.90062
▁ग्राम	-9.90103
dro	-9.90136
▁वायरल	-9.9014
▁शिक्षक	-9.90172
▁course	-9.90265
▁लु	-9.90291
lly	-9.90294
▁fast	-9.90336
▁rule	-9.90345
hin	-9.90386
▁hours	-9.90387
roll	-9.90403
bil	-9.90418
▁हाई	-9.90418
▁प्रत्येक	-9.9046
▁period	-9.90516
▁December	-9.90554
▁चाहे	-9.90557
▁गुरुवार	-9.90561
▁बहु	-9.90578
र्व	-9.90604
ack	-9.90633
▁ell	-9.90642
▁डो	-9.90723
▁पत्रकार	-9.90845
▁usa	-9.90847
▁खोज	-9.90878
▁vote	-9.90909
ping	-9.90948
▁liya	-9.90963
▁संस्थान	-9.91073
ac	-9.91106
▁ट्वीट	-9.9116
-2	-9.91238
▁Sharma	-9.91239
wo	-9.91292
▁percent	-9.91298
log	-9.91302
▁सूची	-9.9131
vya	-9.91338
▁तलाश	-9.9137
▁Not	-9.91547
ज्ञा	-9.91583
▁संत	-9.91604
▁पैसे	-9.91643
▁September	-9.91658
▁success	-9.91664
रूप	-9.91664
लेट	-9.91704
▁खराब	-9.91772
▁wi	-9.9181
▁campaign	-9.91833
▁समेत	-9.91866
▁girl	-9.91885
▁Per	-9.91887
खी	-9.91902
▁check	-9.91905
लाल	-9.91924
▁आपने	-9.91969
▁कविता	-9.92086
▁60	-9.92117
▁Ya	-9.92161
▁स्वीकार	-9.92183
▁घट	-9.92243
▁दि	-9.92268
▁target	-9.9231
▁isake	-9.92312
▁idea	-9.92417
ियत	-9.92428
tak	-9.92496
▁championship	-9.92545
▁सफलता	-9.92588
▁current	-9.92607
cer	-9.92734
िये	-9.92784
▁review	-9.92824
tern	-9.92866
alaya	-9.92927
▁विकेट	-9.92927
शील	-9.93062
▁लाइन	-9.93086
▁प्ले	-9.93187
ाइन	-9.93194
▁stage	-9.9323
▁eight	-9.93239
▁खर्च	-9.9326
▁officer	-9.93288
▁seat	-9.93332
▁देती	-9.9336
▁सलाह	-9.93371
क्टर	-9.93393
अप	-9.93406
ware	-9.93424
▁साइ	-9.93474
▁चित्र	-9.93489
▁जाकर	-9.93498
22	-9.93538
िक्स	-9.93546
lay	-9.93592
मंत्र	-9.93691
▁certain	-9.93692
▁bit	-9.937
▁मामलों	-9.93708
use	-9.93778
count	-9.93784
▁candidate	-9.93789
late	-9.93795
hik	-9.93835
▁सप्ताह	-9.93846
▁critic	-9.93869
▁यूपी	-9.93879
▁विज्ञान	-9.93898
ox	-9.93905
योग	-9.93921
than	-9.93954
▁serve	-9.93985
▁प्रस्तुत	-9.94016
▁आवश्यक	-9.94048
21	-9.94105
▁jaari	-9.9415
▁वेबसाइट	-9.94179
▁शराब	-9.94206
▁Q	-9.94238
my	-9.94241
▁बदलाव	-9.94334
▁eye	-9.94373
▁इतनी	-9.94415
▁ji	-9.94431
struct	-9.94472
जीत	-9.94496
▁अतिरिक्त	-9.94512
AT	-9.94551
र्ष	-9.94631
स्टर	-9.94639
▁ang	-9.94681
▁भि	-9.94754
▁सिद्ध	-9.94765
न्या	-9.9481
gent	-9.94866
▁कंपनियों	-9.94872
▁साबित	-9.94954
▁रस	-9.94975
cul	-9.9498
▁hospital	-9.95003
pping	-9.95006
plo	-9.95025
It	-9.95042
▁बाबा	-9.95067
▁कृष्ण	-9.95068
लिंग	-9.95134
▁केन्द्र	-9.95171
▁swe	-9.95177
र्प	-9.95224
▁आंदोलन	-9.95249
cur	-9.95255
▁ensure	-9.95366
▁Ali	-9.95377
▁happen	-9.95384
▁फल	-9.9545
▁poll	-9.95514
▁राज्यों	-9.95591
stitution	-9.95595
▁तु	-9.95645
aran	-9.95702
▁हमले	-9.9576
▁High	-9.95775
cker	-9.95862
▁aar	-9.95876
▁चौक	-9.9591
▁दौर	-9.95982
धर	-9.96021
▁October	-9.96066
ॉन	-9.96092
▁साहित्य	-9.96099
▁Bro	-9.96135
▁तकनीक	-9.96154
▁शांति	-9.96177
▁भूमि	-9.96217
▁अंतर	-9.96266
▁accused	-9.96282
३	-9.96323
ाइज	-9.96401
▁देखकर	-9.96435
▁perform	-9.96485
▁सुना	-9.96496
▁defeat	-9.96513
dom	-9.96518
▁doing	-9.9652
▁याचिका	-9.96523
pir	-9.96543
stream	-9.96567
र्ण	-9.96591
द्द	-9.96596
▁लॉ	-9.96607
गन	-9.96608
48	-9.96674
▁बद	-9.96682
क्षा	-9.96695
▁रहेगा	-9.96712
न्ह	-9.96793
▁debut	-9.968
▁grow	-9.96802
ॉक	-9.9681
▁Facebook	-9.96856
▁Chi	-9.96915
▁decided	-9.96929
▁सफल	-9.96988
40	-9.9699
▁enough	-9.97082
▁product	-9.97106
▁War	-9.9714
▁mean	-9.97194
▁खाने	-9.97273
off	-9.9735
▁अध्ययन	-9.97358
▁network	-9.97377
▁पट	-9.97379
▁सुप्रीम	-9.97425
▁अक्सर	-9.9746
▁issues	-9.97542
क्ति	-9.97572
▁protect	-9.97581
▁री	-9.97676
▁below	-9.97785
ंव	-9.97793
▁aaee	-9.97798
bert	-9.97826
▁August	-9.97829
dhya	-9.97848
▁reach	-9.97854
▁COVID	-9.9788
▁general	-9.97892
फे	-9.97924
▁Air	-9.97968
▁कृषि	-9.97973
▁गरीब	-9.98
▁care	-9.98079
pl	-9.98087
jo	-9.98127
▁तभी	-9.98143
▁माँ	-9.98173
49	-9.98207
▁दिसंबर	-9.98235
▁हमारा	-9.98237
जो	-9.9824
मैन	-9.98248
दास	-9.98276
▁लीग	-9.98318
▁समारोह	-9.9832
▁press	-9.98335
धु	-9.98423
▁train	-9.98426
्वे	-9.98427
▁Cricket	-9.9843
▁camera	-9.98524
▁पहल	-9.98612
▁table	-9.98635
▁क्षमता	-9.98652
▁understand	-9.98659
char	-9.98665
▁These	-9.98673
▁fan	-9.98687
▁details	-9.98692
>	-9.98719
▁non	-9.98743
▁सलमान	-9.98805
▁रूस	-9.98861
▁products	-9.9888
▁shuruat	-9.98892
▁ग्रामीण	-9.98895
▁quality	-9.98906
▁space	-9.98915
▁परियोजना	-9.98949
▁limit	-9.99032
ef	-9.99075
▁चीज	-9.99195
east	-9.99246
▁सत्य	-9.9925
▁जोर	-9.99255
▁En	-9.99273
▁vs	-9.9928
▁chha	-9.99282
▁जाये	-9.99318
star	-9.99387
▁रै	-9.99412
▁कारोबार	-9.99436
▁असर	-9.99459
▁लोकसभा	-9.99539
▁Lu	-9.99571
based	-9.9958
ize	-9.99603
▁फरवरी	-9.99642
▁sal	-9.99644
हो	-9.99665
▁रखते	-9.99673
▁मतलब	-9.99719
▁राजधानी	-9.99753
▁बातें	-9.99767
ेगी	-9.99769
▁saw	-9.99794
▁ver	-9.99867
▁towards	-9.99885
▁गोल	-9.99943
▁पहुंची	-9.99948
▁protest	-9.99987
▁उत्पादन	-10.0008
37	-10.0008
▁mool	-10.0011
▁पाल	-10.0015
▁son	-10.0017
▁trade	-10.0021
▁35	-10.0021
▁2007	-10.0023
lk	-10.0026
▁कही	-10.0033
▁sadasya	-10.0036
gue	-10.0041
▁पश्चिम	-10.0044
▁आस	-10.0046
▁leaders	-10.0048
▁दवा	-10.0052
IT	-10.0061
▁Sun	-10.0061
▁political	-10.0066
▁doesn	-10.0076
weight	-10.0076
▁address	-10.0081
▁November	-10.0082
▁तर	-10.0083
▁revealed	-10.0084
▁organ	-10.0089
▁entire	-10.0089
▁batter	-10.0096
▁itihas	-10.0097
▁however	-10.0099
▁तुलना	-10.0099
ल्प	-10.0103
▁एच	-10.0104
▁जग	-10.0106
म्म	-10.0112
▁International	-10.0116
▁until	-10.0118
▁भावना	-10.0118
▁ghar	-10.0119
श्व	-10.0132
▁गैर	-10.0132
13	-10.0134
▁human	-10.0135
PC	-10.0138
▁speak	-10.0143
▁अनुमति	-10.0147
▁चयन	-10.015
ष्ठ	-10.0152
▁एयर	-10.0154
▁spec	-10.0169
▁रोज	-10.0173
द्व	-10.0176
▁minutes	-10.0176
▁leave	-10.0179
▁मौका	-10.0188
बु	-10.0192
▁create	-10.0196
▁American	-10.0199
▁दोष	-10.0203
▁फिल्मों	-10.0203
▁vishva	-10.0206
गण	-10.0208
▁buy	-10.021
▁शानदार	-10.0211
्यु	-10.0211
चन	-10.0213
▁increase	-10.0218
▁research	-10.0222
▁महसूस	-10.0228
▁छोटी	-10.0229
▁assist	-10.0229
▁सीरीज	-10.0232
▁अरब	-10.0235
▁संभव	-10.0236
▁Instagram	-10.0243
▁How	-10.0243
▁गेंदबाज	-10.0244
▁श्र	-10.0252
▁जू	-10.0254
▁bhaag	-10.0254
▁Punjab	-10.0256
▁इन्	-10.0257
▁vishesh	-10.0258
▁sm	-10.0261
▁cor	-10.0266
एच	-10.0272
▁history	-10.0278
▁उनको	-10.028
38	-10.0284
▁जुट	-10.0284
▁jee	-10.0285
ॅ	-10.0289
▁जरिए	-10.0289
▁क्लब	-10.0291
▁वर्षों	-10.0291
▁mon	-10.0299
▁जिसकी	-10.0309
▁block	-10.031
▁मृत्यु	-10.0312
▁मिलता	-10.0312
get	-10.0312
▁छि	-10.0313
85	-10.0318
berg	-10.0321
▁City	-10.0323
▁अली	-10.0324
▁आनंद	-10.0327
▁Star	-10.033
kin	-10.0331
▁अनेक	-10.0332
PS	-10.0334
ray	-10.034
▁winning	-10.0344
▁मरीज	-10.0348
▁फिलहाल	-10.0357
▁मूल्य	-10.0358
▁safe	-10.036
▁सुर	-10.0364
▁खूब	-10.0368
▁जवान	-10.0368
▁saal	-10.037
kat	-10.0371
▁image	-10.0375
▁सहायता	-10.0377
▁gar	-10.0382
▁billion	-10.0383
रियल	-10.0383
55	-10.0389
ोप	-10.0391
▁pen	-10.0397
▁staff	-10.0401
▁Meanwhile	-10.0406
▁growth	-10.0406
car	-10.0407
▁cumm	-10.0408
▁रचना	-10.041
▁हल	-10.0412
▁sanyukt	-10.0414
▁kind	-10.0414
ेन्द्र	-10.0415
▁मुक्त	-10.0424
▁कर्मचारी	-10.0425
▁tell	-10.0426
▁संस्था	-10.0436
▁cur	-10.0439
ense	-10.0445
▁जिन्होंने	-10.0446
५	-10.0447
▁community	-10.0456
karan	-10.0459
▁महाराष्ट्र	-10.0461
▁चाह	-10.0466
▁लक्ष्य	-10.0468
+	-10.0471
▁लखनऊ	-10.0471
hra	-10.0473
▁El	-10.0474
▁tea	-10.0475
▁Ed	-10.0479
▁above	-10.0479
▁आखिर	-10.048
प्ट	-10.049
AN	-10.0495
▁fall	-10.0497
In	-10.0498
▁hui	-10.0511
▁version	-10.0512
ising	-10.0514
▁बचा	-10.0514
▁Union	-10.0518
▁pahali	-10.0519
▁नौकरी	-10.0519
14	-10.0525
▁senior	-10.0527
में	-10.0531
▁hot	-10.0533
▁display	-10.0535
▁potential	-10.0536
▁Kohli	-10.0537
▁spa	-10.0538
▁मिनट	-10.0541
▁Bank	-10.0557
हू	-10.0558
▁विपक्ष	-10.0558
▁wide	-10.0559
▁mind	-10.0564
kon	-10.058
▁represent	-10.0581
▁स्थल	-10.0589
▁घाट	-10.059
▁late	-10.0592
▁2006	-10.0594
▁चिंता	-10.0594
▁बिग	-10.0595
च्छ	-10.0595
▁Commission	-10.06
▁uttar	-10.0602
▁चैनल	-10.0603
▁launched	-10.0604
▁दम	-10.0608
▁प्रबंधन	-10.0611
▁Sho	-10.0616
▁pla	-10.0618
▁अर्	-10.062
42	-10.0627
▁parivaar	-10.0639
छा	-10.0639
▁जाति	-10.064
औ	-10.0641
▁operation	-10.0647
▁कू	-10.0647
बंध	-10.0654
▁February	-10.0655
▁बहन	-10.0655
▁प्रसाद	-10.0655
▁wait	-10.0656
▁राव	-10.0658
bin	-10.0668
▁वित्त	-10.0669
▁शासन	-10.0678
▁quite	-10.068
▁areas	-10.0682
▁hii	-10.0688
ूँ	-10.0691
▁himself	-10.0692
▁thought	-10.0693
▁मस	-10.0695
▁village	-10.0697
▁PM	-10.0697
97	-10.0699
▁americi	-10.0708
▁नवंबर	-10.0711
▁अक्टूबर	-10.0721
▁सौंप	-10.0723
▁लगाए	-10.0724
▁दर्द	-10.0727
▁innings	-10.0727
▁हिन्दी	-10.0728
bal	-10.0731
▁पूछा	-10.0743
▁सार्वजनिक	-10.0752
▁मिस	-10.0754
▁सितंबर	-10.0755
▁नर	-10.0763
▁समाचार	-10.0764
▁chu	-10.0766
cus	-10.0768
44	-10.0771
▁लै	-10.0772
▁John	-10.0777
72	-10.0783
▁सदस्यों	-10.0788
▁ye	-10.079
▁america	-10.0792
▁संजय	-10.0794
▁समुदाय	-10.0796
▁ODI	-10.0796
▁अमर	-10.0799
▁प्रश्न	-10.08
▁Mc	-10.0803
▁ऑनलाइन	-10.0804
रोध	-10.0809
▁huge	-10.0809
key	-10.0814
▁मशीन	-10.0814
92	-10.0822
▁उत्पाद	-10.0824
▁photo	-10.0827
▁bowler	-10.083
light	-10.0832
oper	-10.0839
▁kaary	-10.084
हु	-10.0842
▁iPhone	-10.0845
▁education	-10.0846
39	-10.0848
▁मिलेगा	-10.0859
▁financial	-10.0862
zz	-10.0862
ेयर	-10.0862
▁Hindi	-10.0864
▁meet	-10.0876
वां	-10.0877
▁Y	-10.0884
▁claimed	-10.0884
▁University	-10.0887
▁maha	-10.0889
▁janm	-10.0893
▁engine	-10.0901
▁Bar	-10.0905
ताओं	-10.0907
▁actress	-10.0907
▁चोट	-10.0908
▁प्राथमिक	-10.0914
▁लंबे	-10.0918
पूर्व	-10.0919
▁Can	-10.092
pra	-10.0926
▁box	-10.0927
▁करेगी	-10.093
▁gold	-10.093
गार	-10.0932
▁auto	-10.0932
Ma	-10.0933
▁para	-10.0941
dam	-10.0943
▁woman	-10.0945
▁nation	-10.0946
▁Ku	-10.0948
▁geet	-10.0949
दारी	-10.0953
▁gave	-10.0956
▁thing	-10.0962
▁enjoy	-10.0962
ED	-10.0966
▁sti	-10.0976
▁ground	-10.0976
cor	-10.0977
▁मुस्लिम	-10.0981
▁प्रचार	-10.0983
dri	-10.0987
ific	-10.0998
▁beat	-10.0999
▁बू	-10.1004
▁leading	-10.1009
▁Some	-10.1013
▁anta	-10.1016
elect	-10.1029
▁बताते	-10.1036
▁वृद्धि	-10.104
▁application	-10.1044
४	-10.1046
▁धीरे	-10.1054
▁आसपास	-10.1059
▁jaanaa	-10.1066
▁गोली	-10.1066
47	-10.1067
▁Open	-10.1068
▁bur	-10.1072
▁fit	-10.1083
▁amount	-10.1084
▁राहत	-10.1085
▁county	-10.1087
▁leag	-10.1087
▁wrote	-10.1088
zo	-10.1092
▁seem	-10.1095
▁सवार	-10.1097
arm	-10.1102
▁samooh	-10.1104
▁capital	-10.1107
▁pack	-10.1112
▁विदेशी	-10.1115
▁update	-10.1118
▁चुन	-10.1121
▁प्रतियोगिता	-10.1131
▁फैसले	-10.1134
▁sho	-10.1136
▁Play	-10.1139
▁means	-10.1146
▁hotaa	-10.1148
▁उद्देश्य	-10.1157
-3	-10.1158
▁स्वागत	-10.1159
▁वहाँ	-10.1163
▁योग्य	-10.1164
dee	-10.1168
▁प्रकाशित	-10.1169
▁search	-10.1171
डर	-10.1174
ाउंड	-10.1176
▁अपील	-10.1176
▁इक	-10.1176
krit	-10.1179
▁रेल	-10.1179
▁section	-10.1179
▁लेना	-10.1181
▁appear	-10.1184
▁जीव	-10.119
▁ब्रा	-10.119
▁फूल	-10.1192
▁विस्तार	-10.1193
▁kahaa	-10.1195
▁stated	-10.1196
▁building	-10.1198
क्ल	-10.1202
▁strike	-10.1203
▁similar	-10.1205
▁award	-10.1207
▁जिन्हें	-10.1214
▁contract	-10.1215
▁earn	-10.1233
▁art	-10.1239
▁Of	-10.1241
▁often	-10.1245
▁इनमें	-10.1248
rent	-10.1249
▁बढ़ाने	-10.1253
▁संपर्क	-10.1254
▁def	-10.1258
▁हालत	-10.1259
▁पहुँच	-10.1263
▁बैठे	-10.1271
pati	-10.1272
94	-10.128
▁Also	-10.1281
▁league	-10.1283
ference	-10.1283
▁wicket	-10.1285
▁जरूर	-10.1286
SE	-10.1288
▁benefit	-10.1292
▁van	-10.1295
▁suffer	-10.1296
▁gri	-10.13
▁नियम	-10.1303
▁sector	-10.1307
▁ईरान	-10.1312
uro	-10.1312
AR	-10.1313
cast	-10.1316
91	-10.1316
▁आहे	-10.1325
▁vehicle	-10.1325
▁arm	-10.1326
दु	-10.1331
verse	-10.1332
कुल	-10.1334
ident	-10.1338
▁॥	-10.1342
comm	-10.1343
▁दू	-10.1347
स्ता	-10.1348
▁मंच	-10.135
▁खड़े	-10.1353
▁पार्क	-10.1354
▁everyone	-10.1356
▁डाय	-10.1358
88	-10.1367
▁affect	-10.1374
▁father	-10.1374
▁agency	-10.1377
▁बनाई	-10.1379
▁रु	-10.1379
hir	-10.138
▁lagbhag	-10.1381
chit	-10.1381
▁victory	-10.1382
ball	-10.1388
▁विमान	-10.1389
▁draw	-10.1399
▁touch	-10.14
▁puraskar	-10.1401
89	-10.1404
▁तैयारी	-10.1407
IC	-10.1411
▁positive	-10.1418
६	-10.142
▁गौर	-10.142
ford	-10.1421
pal	-10.1435
▁mobile	-10.1439
जू	-10.1442
▁सारी	-10.1448
▁अहम	-10.1452
▁difficult	-10.1452
▁बाइक	-10.1456
▁Tamil	-10.1462
ium	-10.1462
▁देंगे	-10.1471
▁smartphone	-10.1472
93	-10.1475
▁den	-10.1476
▁impact	-10.1492
▁मुद्दे	-10.1497
dhan	-10.1497
▁Sc	-10.1499
for	-10.1512
▁इंग्लैंड	-10.1513
▁विकल्प	-10.1513
▁सूत्रों	-10.1517
▁परिवर्तन	-10.1519
▁Dev	-10.1523
76	-10.1523
र्ब	-10.1524
▁बंगाल	-10.1527
▁संग	-10.1531
हित	-10.1531
▁connect	-10.1533
िकल	-10.1533
ena	-10.1533
▁गेंद	-10.1534
▁80	-10.1535
▁squad	-10.1538
▁तुरंत	-10.1539
▁32	-10.1544
▁especially	-10.1545
▁achieve	-10.155
pu	-10.1552
86	-10.1553
▁rank	-10.1553
veen	-10.1557
▁North	-10.1562
▁पेट	-10.1565
्यो	-10.1565
▁जुड़	-10.1568
▁trying	-10.1574
▁आंख	-10.1577
▁Red	-10.1581
श्र	-10.1581
▁respect	-10.1581
fully	-10.1582
▁मुलाकात	-10.1583
▁वीर	-10.1583
▁vo	-10.1586
▁धारा	-10.1587
▁almost	-10.159
▁Mah	-10.1592
ाधिकार	-10.1594
52	-10.1595
▁न्यू	-10.1595
ूं	-10.1603
▁भवन	-10.1605
▁भेजा	-10.1608
▁समा	-10.1612
१	-10.1618
▁गाँव	-10.1629
▁interview	-10.1629
56	-10.1631
▁firm	-10.1633
▁अचानक	-10.1639
▁yuu	-10.1642
lip	-10.1644
▁Col	-10.1644
पुरा	-10.1657
▁डिग्री	-10.1659
▁function	-10.166
▁Inter	-10.166
▁ठाकुर	-10.1661
▁friends	-10.1662
ON	-10.1662
्लो	-10.1664
▁लेखक	-10.1665
▁save	-10.1666
▁इनके	-10.1668
▁@	-10.1669
ller	-10.1674
▁पालन	-10.1675
▁Bangladesh	-10.1677
▁महान	-10.1686
▁Follow	-10.1687
▁bla	-10.169
▁विद्यालय	-10.1694
84	-10.1697
▁सामग्री	-10.1706
43	-10.1717
abad	-10.1719
▁घो	-10.1722
ैक्ट	-10.1725
TA	-10.1727
▁भोजन	-10.173
▁इस्लाम	-10.1734
▁पड़े	-10.1734
▁became	-10.1737
▁sports	-10.174
शाला	-10.174
▁चाहती	-10.174
cro	-10.1749
▁injury	-10.175
▁rahey	-10.1755
▁attend	-10.1762
▁jahan	-10.1764
▁Champion	-10.1769
▁सूर्य	-10.1771
▁bri	-10.1774
▁पाने	-10.1775
▁episode	-10.1778
▁Bri	-10.1781
▁200	-10.1781
लु	-10.1785
▁pad	-10.1787
▁pramukh	-10.1793
▁bunn	-10.1804
▁मॉ	-10.1804
▁सुपर	-10.1817
▁Lanka	-10.1827
▁प्रथम	-10.1848
▁worth	-10.1853
▁परिजनों	-10.1857
▁church	-10.1858
ify	-10.1861
▁partner	-10.1862
▁तमाम	-10.1864
▁ओवर	-10.1865
▁विकसित	-10.1868
▁till	-10.1869
▁Ph	-10.1882
▁सुरक्षित	-10.1882
▁Don	-10.1887
46	-10.189
ound	-10.1896
▁करनी	-10.1899
▁टूट	-10.1899
▁cross	-10.1901
▁प्रतिनिधि	-10.1903
▁value	-10.1912
▁opening	-10.1913
▁stop	-10.1916
▁drive	-10.192
▁घोषित	-10.192
▁आसान	-10.192
ध्या	-10.1922
▁आये	-10.1924
▁संघर्ष	-10.1926
▁walk	-10.1927
▁mid	-10.1928
▁child	-10.1928
▁सां	-10.193
▁brought	-10.1932
▁करियर	-10.1936
▁बजट	-10.1938
ject	-10.1939
GB	-10.194
▁मालिक	-10.1942
yaan	-10.1948
▁article	-10.1948
▁paas	-10.195
िष्	-10.1953
▁Mor	-10.1953
night	-10.1963
▁tax	-10.1964
▁सीख	-10.1969
▁गति	-10.1974
▁Even	-10.1975
▁टिकट	-10.1976
now	-10.1981
▁stra	-10.1982
▁By	-10.1985
▁skin	-10.199
▁shiksha	-10.1991
▁plans	-10.1992
▁Ve	-10.2001
▁individual	-10.2002
▁मिलकर	-10.2004
67	-10.2005
भाग	-10.2005
▁base	-10.2011
ி	-10.2014
▁unakaa	-10.2018
▁आधारित	-10.2019
77	-10.202
▁मात्रा	-10.202
▁competition	-10.2023
▁दशक	-10.2036
▁significant	-10.2039
▁successful	-10.2045
kal	-10.2056
▁मुख	-10.206
ॉय	-10.2061
त्तर	-10.2064
▁ऊ	-10.2064
▁mother	-10.2069
MA	-10.2071
▁march	-10.2072
▁black	-10.2082
चि	-10.2084
▁अमित	-10.2087
क्षण	-10.2089
ग़	-10.2095
▁विवाह	-10.2095
▁बाकी	-10.2096
▁sin	-10.21
▁अंग	-10.21
▁pull	-10.2102
▁member	-10.2102
nagar	-10.211
▁हिस्से	-10.2114
भूत	-10.2116
▁Jan	-10.2121
71	-10.2122
▁मनुष्य	-10.2122
▁production	-10.2125
▁pain	-10.2126
▁70	-10.213
▁Director	-10.2131
▁strength	-10.2132
IN	-10.2133
▁require	-10.2134
▁एक्ट्रेस	-10.2138
▁cal	-10.2139
▁Mal	-10.2145
▁मुकाबले	-10.2148
▁दर्शन	-10.2151
▁rain	-10.2152
▁उतार	-10.2153
▁निदेशक	-10.2153
▁fail	-10.2156
▁sabhi	-10.2156
▁relationship	-10.216
▁जम्मू	-10.2165
▁पुराने	-10.2167
83	-10.2167
▁स्थापना	-10.217
final	-10.2172
▁गुण	-10.2174
▁pada	-10.2175
66	-10.2175
78	-10.2178
▁private	-10.2179
▁देखें	-10.2181
▁शीर्ष	-10.2183
▁सिं	-10.2183
पत्ति	-10.2191
82	-10.2191
istic	-10.2194
▁cla	-10.2195
▁shall	-10.2195
▁प्रभारी	-10.2206
▁spoke	-10.2208
68	-10.2209
dor	-10.2212
त्ता	-10.2214
▁चंद्र	-10.2223
▁program	-10.2229
▁results	-10.2236
like	-10.2236
्टी	-10.2239
▁user	-10.2241
oon	-10.2245
▁वस्तु	-10.2253
ttle	-10.2254
24	-10.2254
▁mrityu	-10.226
▁जिनमें	-10.226
लिन	-10.2263
▁2000	-10.2263
87	-10.2265
▁45	-10.2268
▁अंग्रेजी	-10.2274
▁door	-10.2276
▁During	-10.2281
▁क़	-10.2283
▁build	-10.2284
▁attempt	-10.2286
▁प्रमाण	-10.229
▁try	-10.2291
▁नो	-10.2298
▁सुंदर	-10.2299
▁अभिनेता	-10.2301
▁store	-10.2303
under	-10.2309
९	-10.2311
▁होटल	-10.2311
▁etc	-10.2313
▁Cr	-10.2313
वाला	-10.232
▁फुटबॉल	-10.2324
win	-10.2326
▁भ्रष्टाचार	-10.2328
▁doctor	-10.2333
▁semi	-10.2334
▁चौधरी	-10.2346
▁risk	-10.235
▁message	-10.2354
force	-10.2355
hara	-10.2361
▁sangh	-10.2363
ेश्वर	-10.2369
इन	-10.2376
▁jeet	-10.2381
▁shrinkhala	-10.2381
▁range	-10.2386
▁Championship	-10.2389
साथ	-10.2393
ute	-10.2393
▁दबाव	-10.2397
▁department	-10.2398
▁nirmaan	-10.2398
▁approach	-10.2399
▁इतने	-10.2405
▁Gandhi	-10.2408
▁रवि	-10.2419
▁Centre	-10.2421
▁टू	-10.2421
▁nor	-10.2421
▁अंतरराष्ट्रीय	-10.2427
▁imm	-10.243
▁कड़ी	-10.2431
▁दुख	-10.2433
▁चाल	-10.2436
▁exam	-10.2438
62	-10.2443
lish	-10.2443
▁जल्दी	-10.2445
▁भूल	-10.2447
OS	-10.2449
57	-10.2458
▁सहायक	-10.2459
▁मित्र	-10.246
▁छा	-10.2465
80	-10.2466
्ति	-10.2466
lp	-10.2467
▁outside	-10.2474
▁defend	-10.2476
▁आयु	-10.2478
▁चिकित्सा	-10.2481
▁Rahul	-10.2481
▁cast	-10.2484
▁jaane	-10.2486
▁चालक	-10.2487
▁aine	-10.2489
▁भुगतान	-10.249
kram	-10.2491
▁उदाहरण	-10.2494
▁regular	-10.2494
▁सम्मेलन	-10.2495
▁जमकर	-10.25
▁despite	-10.2505
▁हाउस	-10.2506
field	-10.2506
▁tii	-10.2509
▁arrested	-10.2514
▁inside	-10.2514
▁कर्म	-10.2519
▁fell	-10.2523
NA	-10.2527
ably	-10.2532
▁तीसरे	-10.2532
▁लाने	-10.2536
क्का	-10.2537
▁कौ	-10.2537
▁everything	-10.254
▁रखी	-10.2541
▁खु	-10.2543
▁कलाकार	-10.2544
▁मनो	-10.2547
51	-10.2548
▁dekh	-10.2551
▁ग्रे	-10.2551
▁paid	-10.2553
▁particular	-10.2553
▁complete	-10.2555
▁digital	-10.2558
▁कोहली	-10.256
▁pandemic	-10.2563
▁सामान	-10.2564
▁संस्कृति	-10.2567
yam	-10.2572
▁भीड़	-10.2573
▁Lord	-10.2575
▁room	-10.2576
▁खाना	-10.2589
▁sakata	-10.259
▁90	-10.259
▁रखना	-10.2591
▁भक्त	-10.2593
▁चीनी	-10.2597
▁pradarshan	-10.2605
ET	-10.2607
▁threat	-10.2609
▁Office	-10.2611
craft	-10.2615
73	-10.2617
▁sit	-10.263
▁गैस	-10.2636
▁extra	-10.2638
▁मंडल	-10.2639
▁session	-10.2644
▁karna	-10.265
▁डिजाइन	-10.2651
▁अल्	-10.2658
▁contest	-10.2665
▁policy	-10.2668
▁कितना	-10.2673
▁seems	-10.2674
ैया	-10.2676
▁push	-10.2676
▁English	-10.2676
▁चोरी	-10.2677
▁Department	-10.2683
▁प्रणाली	-10.2686
▁खिलाड़ियों	-10.2697
▁bhoo	-10.2697
▁Char	-10.2703
ग्न	-10.2709
▁Zealand	-10.271
▁average	-10.2714
▁सुनवाई	-10.2714
▁channel	-10.2719
▁शोध	-10.2722
mic	-10.2727
▁Kapoor	-10.2727
▁alleged	-10.2731
▁फैंस	-10.2735
▁पूछताछ	-10.2736
मंत्री	-10.2741
▁ढा	-10.2749
▁Ministry	-10.2752
▁जंगल	-10.2755
▁management	-10.2757
▁Premier	-10.2759
spec	-10.276
▁updates	-10.2768
ɔ	-10.277
▁सुनिश्चित	-10.2774
▁नियंत्रण	-10.2778
▁थोड़ा	-10.278
▁net	-10.2785
▁morning	-10.2788
▁Tu	-10.2795
▁higher	-10.2796
▁Team	-10.2797
▁invest	-10.2801
▁Amazon	-10.2803
▁ready	-10.2804
▁issued	-10.2809
▁चली	-10.2811
▁Group	-10.2811
▁संकेत	-10.2813
▁चंद	-10.2815
ंघ	-10.2815
▁उपकरण	-10.2818
79	-10.2822
▁शिकार	-10.2824
▁भु	-10.2826
▁wife	-10.2832
▁tech	-10.2832
MC	-10.2842
▁पारी	-10.2843
▁फीसदी	-10.2844
▁उनमें	-10.2844
▁yuddh	-10.2845
क्क	-10.285
▁वैज्ञानिक	-10.285
down	-10.2861
▁2005	-10.2861
▁जिंदगी	-10.2864
▁खंड	-10.2866
cel	-10.2866
This	-10.2868
▁सारा	-10.2872
pper	-10.2873
▁आउट	-10.2877
▁daily	-10.288
लाई	-10.2881
▁medical	-10.2883
63	-10.2885
▁ट्विटर	-10.2885
▁अवैध	-10.2885
▁मृतक	-10.2885
ांक	-10.2891
▁easy	-10.2897
▁दौड़	-10.29
▁पैसा	-10.2908
▁begin	-10.2908
▁House	-10.2909
▁सीधे	-10.2912
▁directed	-10.2914
▁क्रम	-10.2917
▁ऊर्जा	-10.2924
▁dead	-10.2926
▁occasion	-10.2927
▁self	-10.2932
▁ऑफिस	-10.2935
▁गुजर	-10.2936
▁Party	-10.2939
59	-10.2943
▁पुल	-10.2947
▁आत्म	-10.2948
▁gain	-10.2952
▁रिश्ते	-10.2953
▁camp	-10.2957
▁race	-10.2962
▁request	-10.2962
▁happy	-10.2969
▁गुप्ता	-10.2969
▁confirmed	-10.2969
▁शुभ	-10.2969
Q	-10.2973
▁फाइनल	-10.2974
▁pressure	-10.2974
▁आवास	-10.2979
▁scheme	-10.2981
▁विशेषज्ञ	-10.2983
01	-10.2984
▁white	-10.2986
▁customers	-10.2989
▁stock	-10.2998
jit	-10.3
▁Android	-10.3002
SC	-10.3009
cho	-10.301
fin	-10.3015
ê	-10.3015
▁समुद्र	-10.3017
▁Women	-10.3018
मय	-10.3018
▁Shri	-10.3022
▁effect	-10.3023
▁addition	-10.3025
▁खड़ा	-10.3025
▁park	-10.3026
▁(2	-10.3027
▁गाड़ी	-10.3033
▁kaaran	-10.3037
▁biggest	-10.3038
▁programme	-10.3043
gram	-10.3045
ND	-10.3046
74	-10.305
▁training	-10.3052
▁मॉडल	-10.3053
▁घु	-10.3054
▁maintain	-10.3054
▁Today	-10.3058
▁fourth	-10.3059
▁हिमाचल	-10.306
ɛ	-10.3067
well	-10.307
69	-10.3073
▁dan	-10.3075
▁असल	-10.3077
ेंडर	-10.3079
▁प्रेस	-10.3079
▁karyakram	-10.3082
▁रुक	-10.3086
▁reduce	-10.3095
▁खुशी	-10.3097
▁proper	-10.311
डब्ल्यू	-10.311
▁Covid	-10.3111
▁सैनिक	-10.3114
81	-10.3115
▁Ben	-10.3116
▁study	-10.3118
▁तैनात	-10.3122
ung	-10.3125
FC	-10.3125
▁दायर	-10.3126
▁ham	-10.3127
▁दूध	-10.3127
▁whole	-10.3136
▁दुर्	-10.3145
▁एजेंसी	-10.3146
▁आरोपियों	-10.3149
▁perfect	-10.3151
▁कस	-10.316
▁वास्तव	-10.3162
म्भ	-10.3167
&	-10.3169
▁donon	-10.3171
▁मेडिकल	-10.3173
▁कार्यकर्ताओं	-10.3175
▁छात्रा	-10.3175
▁rhaa	-10.3176
▁निर्धारित	-10.3178
▁mag	-10.318
▁हवाई	-10.318
▁Sar	-10.3183
डेंट	-10.3186
▁page	-10.3189
maker	-10.319
▁followed	-10.3194
print	-10.3204
▁sun	-10.3205
▁भले	-10.3206
▁wanted	-10.3208
pen	-10.3208
Â	-10.3213
▁संदर्भ	-10.3216
▁संबोधित	-10.3216
45	-10.3218
▁provided	-10.3219
▁रास्ते	-10.3226
▁+	-10.3227
▁opportunity	-10.3229
▁mode	-10.3239
शंकर	-10.3242
▁तत्काल	-10.3243
▁संग्रह	-10.3261
▁धो	-10.3263
▁व्यक्त	-10.3264
▁पहाड़	-10.3264
abhi	-10.3264
▁deep	-10.3266
▁related	-10.3267
▁श्रृंखला	-10.327
▁banaaya	-10.3271
▁apana	-10.3272
▁व्यवहार	-10.3274
▁प्रतिक्रिया	-10.3276
▁Read	-10.3277
vaad	-10.3282
▁App	-10.3287
▁फसल	-10.3295
▁उन्	-10.3297
▁Em	-10.3297
▁योगी	-10.3299
यंत्र	-10.3303
▁boy	-10.3303
▁हित	-10.3309
▁विराट	-10.3311
RC	-10.3311
க	-10.3312
▁दोपहर	-10.3316
▁discuss	-10.3318
▁निश्चित	-10.3321
▁एशिया	-10.3323
▁thank	-10.3327
▁हिंसा	-10.3327
▁500	-10.3331
▁संपत्ति	-10.3337
play	-10.3338
▁measure	-10.3339
▁त्रि	-10.3341
▁response	-10.3342
rup	-10.3348
▁प्रशिक्षण	-10.3353
▁मतदान	-10.3356
khar	-10.3357
▁कवि	-10.3363
board	-10.3364
▁Che	-10.3366
▁भय	-10.337
दो	-10.3375
▁अहमद	-10.3375
▁establish	-10.3381
▁घरेलू	-10.3381
▁हाथों	-10.3384
षा	-10.3391
▁giving	-10.3393
▁vaali	-10.3405
▁2004	-10.3407
▁36	-10.3407
▁coll	-10.341
▁double	-10.3415
▁degree	-10.3417
▁मजदूर	-10.3418
ridge	-10.342
▁हथियार	-10.3427
▁$1	-10.3428
ेक्स	-10.3428
▁cannot	-10.3431
▁professional	-10.3432
▁sell	-10.3435
akon	-10.3438
▁उसको	-10.3441
▁बनाकर	-10.345
▁pair	-10.3452
शिप	-10.3454
61	-10.3455
▁भग	-10.3457
जनक	-10.3458
▁समझा	-10.3459
▁बीते	-10.3461
▁इच्छा	-10.3472
बद्ध	-10.3472
▁रज	-10.3472
कर्मियों	-10.3473
▁परिसर	-10.3478
▁फायदा	-10.348
▁Chris	-10.3485
▁आधिकारिक	-10.3489
▁तीनों	-10.3503
▁स्टोर	-10.3504
▁AI	-10.3505
▁custom	-10.3509
▁जिसने	-10.3509
फॉर्म	-10.3515
▁hair	-10.3515
▁बरामद	-10.3525
पात	-10.3526
▁Bengal	-10.3527
▁kid	-10.3528
गंज	-10.353
▁vikas	-10.3534
▁Vijay	-10.3539
८	-10.354
▁television	-10.3543
▁पाई	-10.3544
▁feed	-10.3544
▁Cor	-10.3546
▁व्यवसाय	-10.3548
▁gla	-10.3549
▁33	-10.3552
▁York	-10.3552
▁answer	-10.3555
▁Her	-10.3556
▁General	-10.3556
वृत्त	-10.3564
▁Kan	-10.3573
▁fee	-10.3574
▁प्रबंध	-10.3578
▁नज़र	-10.358
▁बजाय	-10.3583
▁Real	-10.3584
ology	-10.3585
▁rakhaa	-10.3585
▁investment	-10.3585
▁महत्व	-10.3589
dhu	-10.3589
▁रखें	-10.3592
▁मिलती	-10.3595
▁इन्हें	-10.3596
▁सक्रिय	-10.3603
▁तत्व	-10.3603
▁common	-10.3605
▁Ver	-10.3606
घर	-10.3607
—	-10.3608
▁Microsoft	-10.3609
▁आकर	-10.3622
▁चलने	-10.3623
▁अवधि	-10.3624
▁संदेश	-10.3624
▁रहेंगे	-10.363
▁language	-10.3632
▁oil	-10.3639
▁मानना	-10.3642
▁expert	-10.3647
▁पड़ी	-10.3648
▁गंगा	-10.3651
▁हां	-10.3654
▁published	-10.3657
▁Kha	-10.3659
▁कमजोर	-10.366
▁खेला	-10.3665
▁जाएं	-10.3668
ज्ञ	-10.3669
▁Shar	-10.3685
▁अंतर्राष्ट्रीय	-10.369
RA	-10.3691
▁रोकने	-10.3695
इयों	-10.3702
▁हिंदू	-10.3703
▁failed	-10.3703
▁गौरतलब	-10.3708
▁बेस	-10.3708
▁pace	-10.3712
ER	-10.3712
सिंह	-10.372
▁vyutpatti	-10.372
▁बीमार	-10.3722
▁न्यूज	-10.3728
▁audience	-10.3738
▁sambandh	-10.3738
▁कार्यों	-10.374
▁पढ़ें	-10.374
ular	-10.3741
▁धार्मिक	-10.3741
▁उचित	-10.3743
▁filed	-10.3745
▁हादसे	-10.3746
▁specific	-10.3747
▁फ्रांस	-10.3751
▁town	-10.3752
वंश	-10.3753
▁समीक्षा	-10.3763
▁logon	-10.3764
▁Board	-10.3771
▁चेहरे	-10.3773
▁बीमारी	-10.3777
▁चुनौती	-10.3779
▁उपचार	-10.3779
endra	-10.3781
▁कल्याण	-10.3785
▁Central	-10.3789
शाली	-10.3791
▁tarah	-10.3792
▁ended	-10.3792
▁interesting	-10.3796
▁सिस्टम	-10.3803
▁आसानी	-10.3808
वॉ	-10.3812
▁Tha	-10.3813
▁प्ल	-10.3813
▁अंदाज	-10.3813
ऊ	-10.3814
▁दाम	-10.3815
box	-10.3817
▁Hindu	-10.3819
▁लोकप्रिय	-10.3821
lum	-10.3821
▁चलता	-10.3822
डीए	-10.3824
▁विधि	-10.3826
ठे	-10.3829
▁dashak	-10.3831
▁via	-10.3832
▁division	-10.3833
▁talent	-10.3836
▁collect	-10.3839
▁जिम्मेदारी	-10.384
▁multiple	-10.3848
▁जैन	-10.3851
08	-10.3858
▁इंतजार	-10.386
▁जापान	-10.3869
च्या	-10.3872
▁daughter	-10.3874
26	-10.3875
▁मिलेगी	-10.3878
यें	-10.3879
▁East	-10.3879
▁hotey	-10.388
▁friend	-10.388
IM	-10.3883
▁नाग	-10.3884
▁निर्माता	-10.3884
▁opt	-10.3885
BC	-10.3888
▁झु	-10.3888
▁कहने	-10.3889
▁type	-10.3894
ल्क	-10.3901
▁driver	-10.3902
▁शॉ	-10.3906
▁वकील	-10.3907
▁खेले	-10.3907
▁Mark	-10.3908
▁clean	-10.3908
▁began	-10.391
▁extend	-10.3912
▁batting	-10.3913
▁लड़ाई	-10.3914
▁send	-10.3917
▁reached	-10.392
▁प्रतिबंध	-10.3924
▁लगने	-10.3925
▁घूम	-10.3925
मिन	-10.3931
mination	-10.3934
▁प्रवक्ता	-10.3937
▁From	-10.3939
▁highest	-10.3939
▁laa	-10.3939
▁gaanv	-10.3941
▁either	-10.3944
▁पेट्रोल	-10.3945
▁अशोक	-10.3946
मंडल	-10.3952
▁पेड़	-10.3957
▁समाधान	-10.3959
▁Health	-10.3961
▁cup	-10.3962
▁34	-10.3962
CA	-10.3968
▁बिक्री	-10.3972
▁kill	-10.3973
▁व्युत्पत्ति	-10.3974
▁रखे	-10.3982
▁संभाल	-10.3995
जु	-10.3995
▁write	-10.3995
▁Australian	-10.4007
CC	-10.4008
▁running	-10.4015
▁updated	-10.4016
▁prevent	-10.4018
▁killed	-10.4023
▁treatment	-10.4025
▁Trump	-10.4027
▁janwari	-10.4027
▁हेतु	-10.403
▁छूट	-10.4032
▁बोले	-10.4038
▁फंस	-10.4041
▁Val	-10.4044
▁कॉल	-10.4048
▁बंध	-10.4051
▁implement	-10.4062
▁fine	-10.4079
▁संकट	-10.4079
▁gre	-10.4082
▁figure	-10.4084
▁स्वामी	-10.4085
▁मोहम्मद	-10.4085
▁तू	-10.4087
▁टॉ	-10.409
▁कमरे	-10.409
▁अजय	-10.4091
▁मौजूदा	-10.4092
ात्मक	-10.4095
▁credit	-10.4099
▁accept	-10.4102
▁Gra	-10.4108
arch	-10.411
▁cru	-10.4114
▁wish	-10.4114
▁परीक्षण	-10.4117
▁starting	-10.4125
▁contain	-10.4126
DA	-10.4126
७	-10.4127
ulation	-10.4131
▁notice	-10.4131
▁kewal	-10.4135
deep	-10.4137
▁green	-10.4137
▁गाने	-10.414
▁युग	-10.4141
▁Mon	-10.4146
▁टाइम	-10.4147
▁involved	-10.4148
▁नै	-10.4149
▁खूबसूरत	-10.415
▁sar	-10.4151
▁managed	-10.4158
▁speed	-10.4167
▁registered	-10.417
▁named	-10.4171
▁foot	-10.4172
▁जर्मन	-10.4173
▁pahala	-10.4177
▁broke	-10.4177
▁nine	-10.4177
▁recommend	-10.4186
▁khu	-10.4191
▁व्यक्तिगत	-10.4193
▁centre	-10.4195
rum	-10.4204
temp	-10.4205
डिया	-10.4207
ə	-10.4211
२	-10.4215
▁summer	-10.4216
▁योगदान	-10.4217
▁पाठ	-10.4222
▁factor	-10.4226
▁spread	-10.4232
▁कथा	-10.4232
▁sound	-10.4235
ken	-10.4236
▁इंसान	-10.4238
rang	-10.4241
▁tur	-10.4242
▁परेशानी	-10.4244
▁author	-10.4264
▁रहना	-10.4266
lik	-10.4267
▁अथवा	-10.4269
07	-10.4272
टेल	-10.4273
▁शीर्षक	-10.4273
ध्यक्ष	-10.4275
▁दिखाया	-10.4287
▁chunaav	-10.429
sky	-10.429
▁receive	-10.4296
▁मकान	-10.4298
▁तस्वीरें	-10.4299
▁rock	-10.4305
▁प्रियंका	-10.4311
▁उड़	-10.4311
पत्र	-10.4312
▁तनाव	-10.4314
▁कितने	-10.4318
▁una	-10.4319
त्मक	-10.4319
▁document	-10.4325
▁मुसलमान	-10.4332
▁central	-10.4333
▁Chinese	-10.4333
▁brother	-10.4336
▁workers	-10.434
▁मीटर	-10.4343
▁disc	-10.4343
range	-10.4344
▁turned	-10.4345
▁sheersh	-10.4346
▁anything	-10.4347
▁ऐतिहासिक	-10.4351
▁Get	-10.4355
▁refer	-10.4357
▁समस्याओं	-10.436
jee	-10.4361
▁रैली	-10.4363
▁फैल	-10.4368
▁nothing	-10.4368
ल्फ	-10.4372
▁इंटरनेट	-10.4373
▁chaar	-10.4378
▁डॉलर	-10.4378
▁Ven	-10.4378
▁lad	-10.438
▁मानसिक	-10.4385
▁ekal	-10.4387
▁श्रेणी	-10.4392
28	-10.4395
▁antarrashtriya	-10.4396
ES	-10.4397
▁हालात	-10.4399
▁नियुक्त	-10.4401
▁serious	-10.4404
▁मिश्र	-10.4411
▁जॉन	-10.4411
▁pustak	-10.4412
▁MP	-10.4413
▁solution	-10.4414
RS	-10.4426
09	-10.4427
▁explain	-10.4427
05	-10.4431
▁economic	-10.4436
ूंगा	-10.4437
▁David	-10.4438
▁please	-10.4439
▁प्रसिद्ध	-10.4448
▁juuna	-10.4448
▁appearance	-10.4449
▁Sports	-10.4463
tional	-10.4464
▁vigyaan	-10.4467
▁साहब	-10.447
▁सकें	-10.4476
▁sitambar	-10.4477
▁पोल	-10.4478
▁पटेल	-10.4478
▁खाते	-10.4482
500	-10.4483
▁octuber	-10.4483
clo	-10.4484
कृति	-10.4485
▁madhyam	-10.4486
▁prove	-10.4493
▁ग्ल	-10.4495
▁jaati	-10.4496
द्य	-10.4498
▁mahila	-10.4498
▁ठंड	-10.4501
▁middle	-10.4502
वेश	-10.4503
▁आपूर्ति	-10.4504
gro	-10.4506
▁slow	-10.4507
27	-10.4509
▁उपाय	-10.4517
श्त	-10.4521
▁investigation	-10.4521
▁Yo	-10.4522
▁तट	-10.4527
bul	-10.4527
▁साझा	-10.4527
▁style	-10.4532
▁Earlier	-10.4538
▁आखिरी	-10.4538
▁energy	-10.4548
▁winner	-10.4549
ncies	-10.4562
▁दृष्टि	-10.4565
वीर	-10.4566
▁टैक्स	-10.4566
▁मिलते	-10.4567
▁अन्त	-10.4569
point	-10.4577
ट्ठ	-10.4577
▁आईपीएल	-10.4578
▁क्वा	-10.458
▁Chennai	-10.4584
▁south	-10.4588
ization	-10.4589
▁James	-10.4591
▁सेंटर	-10.4594
▁Both	-10.4598
▁someone	-10.4599
▁मात्र	-10.4601
kumar	-10.4601
▁khela	-10.4603
35	-10.4606
▁Hyderabad	-10.4608
▁सफाई	-10.4617
cycl	-10.462
▁किरदार	-10.4621
▁carry	-10.4623
é	-10.4625
▁कथित	-10.4625
▁दौरे	-10.4632
wood	-10.4633
▁लुक	-10.4634
▁खाली	-10.4637
▁पदों	-10.4641
▁अभिनेत्री	-10.4642
▁allowed	-10.4643
▁contact	-10.4645
▁sea	-10.4646
ception	-10.4646
▁scheduled	-10.4647
▁carrier	-10.4651
▁मान्यता	-10.4651
nny	-10.4652
▁rich	-10.4656
▁hoti	-10.4656
▁consist	-10.4657
▁software	-10.4659
▁वर्षीय	-10.4662
▁broad	-10.4664
▁conference	-10.4665
ு	-10.4666
ृत	-10.467
▁बुला	-10.467
▁कार्यकर्ता	-10.4673
▁चर्च	-10.4674
▁khilaadi	-10.4677
वानी	-10.4677
90	-10.468
▁agast	-10.4684
06	-10.4689
▁plant	-10.469
▁सीबीआई	-10.4692
▁reportedly	-10.4698
▁खुलासा	-10.4702
▁ब्लॉग	-10.4703
▁witness	-10.4706
▁spend	-10.4707
▁रहेगी	-10.4708
▁बरस	-10.4709
▁nadee	-10.471
▁continued	-10.4715
▁उधर	-10.4717
▁glo	-10.4718
▁पदार्थ	-10.4724
▁pitch	-10.4726
▁Big	-10.4728
▁created	-10.473
▁required	-10.4732
▁स्थानों	-10.4733
▁पशु	-10.4734
▁पंच	-10.4738
▁युवाओं	-10.474
▁Royal	-10.4745
▁disease	-10.4749
▁बोला	-10.4751
▁Uttar	-10.4756
▁bowl	-10.4763
▁माहौल	-10.4764
▁replace	-10.4765
▁Service	-10.4767
ख़	-10.4769
▁देखना	-10.477
▁ग्रामीणों	-10.4771
▁themselves	-10.4774
▁टिप्पणी	-10.4775
▁prepare	-10.4776
▁मजबूर	-10.4776
▁Live	-10.4776
▁import	-10.4776
▁आकार	-10.4779
▁नियमित	-10.4781
▁वर्मा	-10.4781
▁खाद्य	-10.4781
▁julaai	-10.4785
▁ज़रूर	-10.4786
▁choice	-10.4788
▁transfer	-10.4795
▁इंजीनियर	-10.4796
janm	-10.48
▁adding	-10.4806
नारायण	-10.4811
▁antim	-10.4819
▁असम	-10.482
▁लगाई	-10.4821
▁रोहित	-10.4823
Z	-10.4826
▁नाराज	-10.4828
▁बुरा	-10.4831
▁Since	-10.4832
▁आधुनिक	-10.4833
▁पर्यावरण	-10.4833
▁bill	-10.4834
▁Iran	-10.4836
▁गुणवत्ता	-10.4836
▁looked	-10.4839
02	-10.4844
बीएस	-10.4858
▁सोने	-10.4862
▁ब्रह्म	-10.4867
ान्त	-10.4868
▁Code	-10.4869
▁Cho	-10.4871
▁maee	-10.4872
▁केजरीवाल	-10.4874
▁व्यापक	-10.4874
▁पुष्टि	-10.4875
HA	-10.4877
ग्राफ	-10.4887
▁कमेटी	-10.4888
▁practice	-10.489
▁code	-10.489
▁badal	-10.4896
▁लूट	-10.4897
▁mentioned	-10.4898
▁roman	-10.4901
▁अनिल	-10.4908
▁जुड़ी	-10.4913
▁lower	-10.4913
▁grand	-10.4918
▁activities	-10.4922
▁रेखा	-10.4926
▁effective	-10.4928
▁johnn	-10.4929
▁aprail	-10.4929
▁original	-10.4936
▁छोटा	-10.4936
acy	-10.4937
▁bowling	-10.4943
श्च	-10.4944
▁छत्तीसगढ़	-10.4946
▁kept	-10.4946
▁बचाने	-10.4948
▁कितनी	-10.4949
गाह	-10.495
▁दुर्घटना	-10.4954
▁जायेगा	-10.4955
▁navambar	-10.4956
▁कठिन	-10.4956
▁सक्षम	-10.4956
▁ट्रक	-10.4957
▁पुनर्	-10.4958
▁bag	-10.4959
▁पाँच	-10.4966
▁foreign	-10.4969
▁पटना	-10.498
क्व	-10.4983
He	-10.4989
▁damage	-10.4992
vish	-10.4992
▁जिनके	-10.5005
▁khilaf	-10.5007
▁example	-10.5012
▁ड्राइव	-10.5012
▁झूठ	-10.5017
where	-10.5018
▁Manchester	-10.5018
▁प्लान	-10.5019
▁नेशनल	-10.5023
▁बधाई	-10.5027
work	-10.5028
▁स्टे	-10.503
▁पुरानी	-10.503
क्की	-10.5033
▁2003	-10.5034
▁बढ़ती	-10.5039
▁sport	-10.504
झा	-10.5045
▁agree	-10.5053
▁Sabha	-10.5054
▁currier	-10.5064
▁shooting	-10.5064
▁blood	-10.5065
▁गठबंधन	-10.5067
▁Paul	-10.5076
▁जिलों	-10.5079
▁प्रतिभा	-10.5079
▁coronavirus	-10.5082
वासियों	-10.5087
▁अफ्रीका	-10.5094
▁natural	-10.5097
▁Gujarat	-10.5098
▁बांध	-10.5105
▁ग्रुप	-10.5114
body	-10.5115
▁environment	-10.5118
▁gone	-10.5119
▁Karnataka	-10.512
ivity	-10.512
▁2002	-10.512
▁finally	-10.5121
▁resident	-10.5123
RO	-10.5125
▁जला	-10.5128
▁battle	-10.513
▁पश्चिमी	-10.5131
▁मधु	-10.5132
▁सपा	-10.5132
▁टूर्नामेंट	-10.5138
▁setting	-10.5141
▁रुप	-10.5144
▁बाग	-10.5144
▁German	-10.5144
▁सूचीबद्ध	-10.5151
▁चेक	-10.5151
▁थोड़ी	-10.5153
▁मुंह	-10.5153
ordin	-10.5162
bound	-10.5176
▁Maharashtra	-10.5176
▁Narendra	-10.519
▁ज़ि	-10.5193
▁multi	-10.5195
▁अखबार	-10.5196
▁शब्दों	-10.5201
▁रोल	-10.5205
▁progress	-10.5208
▁railway	-10.5209
▁jaise	-10.521
▁mix	-10.5211
pradaan	-10.5212
▁victim	-10.5214
▁download	-10.5214
▁वायरस	-10.5215
▁Bharat	-10.5233
▁raised	-10.5236
▁पहुंचने	-10.524
▁authorities	-10.5242
▁nearly	-10.5243
▁Stadium	-10.5247
बाजी	-10.525
▁ICC	-10.5252
▁joined	-10.5256
▁कुं	-10.5258
▁इंटर	-10.526
▁अधिकांश	-10.5262
▁kendra	-10.5263
▁lack	-10.5267
▁fresh	-10.5273
▁जनरल	-10.5274
▁surprise	-10.5288
▁रोजगार	-10.5289
्रेट	-10.5289
▁इलाकों	-10.5292
▁इनकी	-10.5293
▁लॉन्च	-10.5294
न्ध	-10.5297
▁फ़िल्म	-10.5298
▁Secretary	-10.53
akshi	-10.5304
▁supply	-10.5308
▁रास्ता	-10.5308
▁उठाया	-10.5312
▁बिल्कुल	-10.5314
▁Samsung	-10.5317
▁Miss	-10.5319
RE	-10.532
29	-10.5321
▁CM	-10.5322
▁सम्मानित	-10.5323
▁क्लिक	-10.5323
▁श्रम	-10.533
▁web	-10.5331
▁दलित	-10.5332
▁itself	-10.5347
hood	-10.5352
▁badh	-10.5356
▁मेहनत	-10.5364
▁written	-10.5367
▁journey	-10.5375
▁पत्थर	-10.5375
▁गर्भ	-10.5377
▁instead	-10.5382
▁किताब	-10.5387
ऊं	-10.5397
▁सिटी	-10.5401
मुख	-10.5405
▁वित्तीय	-10.5406
minate	-10.5418
▁फोर	-10.5418
▁भो	-10.542
rated	-10.5424
▁फेसबुक	-10.5426
▁koee	-10.5426
▁north	-10.5427
▁Yadav	-10.5437
▁Gar	-10.5439
▁rise	-10.544
▁secure	-10.5443
▁respond	-10.5447
▁avoid	-10.5449
▁bahut	-10.5452
▁खेलने	-10.5453
▁sthaapana	-10.5455
▁कपड़े	-10.5456
▁2001	-10.5461
▁आशा	-10.5462
▁letter	-10.5466
▁ज्यादातर	-10.5468
▁scene	-10.5469
▁karati	-10.5472
▁गठन	-10.5472
▁पढ़ाई	-10.5472
▁Men	-10.5474
▁मारे	-10.548
▁Assam	-10.5484
▁आतंकी	-10.5484
▁किशोर	-10.5484
▁attention	-10.5489
▁Our	-10.549
▁employ	-10.5492
▁Var	-10.5492
gate	-10.5493
▁पृष्ठ	-10.5493
▁initial	-10.5496
▁CEO	-10.5499
्हा	-10.5499
ऋ	-10.5501
▁included	-10.551
▁जगत	-10.5512
▁jiska	-10.5513
circ	-10.5513
▁उत्साह	-10.5516
▁उद्	-10.5517
▁क्यू	-10.5517
▁माइ	-10.5522
▁ईश्वर	-10.5525
▁ज्योति	-10.5526
▁चढ़	-10.5529
cra	-10.5531
ا	-10.5532
▁material	-10.5537
atmak	-10.5539
▁Kashmir	-10.5541
CO	-10.555
▁Kerala	-10.5553
▁massive	-10.5558
zen	-10.5563
ically	-10.5564
▁किताबें	-10.5564
▁ट्रांस	-10.5567
▁enable	-10.5572
▁बीज	-10.5574
▁appeared	-10.5574
▁sold	-10.5576
▁वायु	-10.5577
▁डांस	-10.5582
▁tried	-10.5584
▁हंस	-10.5586
▁Business	-10.5588
▁suit	-10.5591
अलग	-10.5591
▁संस्करण	-10.5594
▁file	-10.5597
graph	-10.5597
मेट	-10.5597
▁franchise	-10.5598
▁जिम्मेदार	-10.5599
▁Under	-10.5601
▁disambar	-10.5606
▁drug	-10.5606
▁manager	-10.5606
▁छोड़कर	-10.5611
CP	-10.5612
▁highlight	-10.5613
▁आत्मा	-10.5615
▁भोपाल	-10.5616
▁mill	-10.5616
▁ठहर	-10.5617
▁Home	-10.5619
▁regarding	-10.5619
▁promise	-10.5622
▁Virat	-10.5623
▁expressed	-10.5623
ऑ	-10.5628
▁fill	-10.5629
▁Let	-10.5632
▁vartamaan	-10.5635
▁Comp	-10.5638
▁निशान	-10.5641
लाइन	-10.5653
▁कक्षा	-10.5653
भि	-10.5653
▁committee	-10.5666
TC	-10.5669
▁standard	-10.5672
▁ताकत	-10.5686
▁decade	-10.5688
▁kyonki	-10.5692
▁शूटिंग	-10.5692
script	-10.5693
▁इंडियन	-10.5694
▁Your	-10.5694
▁Olympic	-10.5698
▁Russia	-10.5707
▁knock	-10.5714
▁farmers	-10.5714
▁connection	-10.5716
▁तापमान	-10.5718
03	-10.5721
▁NBA	-10.5729
▁gun	-10.5731
room	-10.5736
▁advance	-10.5738
▁german	-10.5738
▁increased	-10.5741
बोध	-10.5742
▁Lok	-10.5746
योजन	-10.5747
▁install	-10.5752
▁drop	-10.5755
▁object	-10.5757
▁नीतीश	-10.5759
▁उक्त	-10.5761
▁नियमों	-10.5762
▁utpaad	-10.5764
▁अनुमान	-10.5768
▁अंतर्गत	-10.5773
▁true	-10.5774
▁prajaati	-10.5775
▁अंध	-10.5776
▁adhyayan	-10.5779
▁संचालन	-10.5781
▁Last	-10.5783
▁तथ्य	-10.5786
▁राह	-10.5788
▁तार	-10.579
▁ongoing	-10.5791
▁रणनीति	-10.5792
▁pahunch	-10.5793
▁parties	-10.5794
▁निशाना	-10.5802
▁धमकी	-10.5807
▁एसपी	-10.5812
▁लगाकर	-10.5816
▁active	-10.5817
▁heavy	-10.5818
▁dollar	-10.5824
▁वर्ल्ड	-10.5833
▁दर्शकों	-10.5838
्चर	-10.5839
▁गेम	-10.584
▁पड़ेगा	-10.5842
▁बराबर	-10.5846
▁देगा	-10.585
▁फरार	-10.5851
▁Israel	-10.5852
▁Rohit	-10.5855
▁conducted	-10.5859
▁लगती	-10.5864
▁गिरावट	-10.5869
▁नोटिस	-10.5874
▁आगामी	-10.5881
▁Over	-10.5887
isation	-10.5888
ग्राम	-10.5891
▁Yu	-10.5893
ë	-10.5894
▁धोनी	-10.5896
▁विज्ञापन	-10.5898
▁Watch	-10.5899
04	-10.59
▁Black	-10.5905
▁Windows	-10.5911
head	-10.5912
TE	-10.5919
▁मानते	-10.592
▁treat	-10.5935
▁complaint	-10.5937
▁lagaa	-10.5945
▁फेंक	-10.5946
NT	-10.5946
▁actually	-10.5947
▁ट्रैक	-10.5949
▁UFC	-10.596
▁jile	-10.5961
▁विशाल	-10.5965
▁वास्तविक	-10.5968
▁करार	-10.5973
▁लंबी	-10.5975
▁satra	-10.5975
▁चोर	-10.5977
▁drama	-10.5977
षित	-10.5979
PL	-10.5981
DC	-10.599
▁2024	-10.5992
▁parents	-10.5994
▁grant	-10.5995
▁remove	-10.5998
▁paper	-10.6002
ME	-10.6003
▁happened	-10.601
कॉम	-10.6011
▁Assembly	-10.6014
▁vaccine	-10.6019
▁purchase	-10.6022
▁internet	-10.6024
▁महाराज	-10.6033
▁बढ	-10.6034
▁offering	-10.6036
िस्तान	-10.6037
▁उत्पन्न	-10.6042
▁Supreme	-10.6047
▁vee	-10.6047
▁format	-10.6047
▁subject	-10.6056
▁collection	-10.6067
▁celebrate	-10.6069
▁plea	-10.6069
▁completed	-10.607
्ज़	-10.6071
▁शख्स	-10.6076
▁voice	-10.6076
▁किनारे	-10.6078
wise	-10.6083
▁MLA	-10.6087
▁baahar	-10.6089
▁चौहान	-10.6095
▁डेटा	-10.6101
▁electric	-10.6104
▁दस्तावेज	-10.6107
▁नेटवर्क	-10.6107
▁नवीन	-10.6108
▁Rajasthan	-10.6114
▁मिश्रा	-10.6116
▁prior	-10.6117
▁लिंक	-10.6119
bhav	-10.6122
▁पत्रकारों	-10.6123
్	-10.6128
▁पर्याप्त	-10.6128
▁दिये	-10.6134
▁jinhone	-10.6134
▁आराम	-10.6135
▁Bill	-10.6138
▁सैन्य	-10.6138
▁opinion	-10.6144
▁उत्पादों	-10.6146
▁एल्बम	-10.6157
▁झारखंड	-10.6171
▁London	-10.6174
ollywood	-10.6177
▁Council	-10.6177
▁dream	-10.6179
▁वेतन	-10.6183
NG	-10.6184
सीए	-10.6185
▁तिवारी	-10.6185
▁rather	-10.6185
▁fear	-10.619
▁कर्नाटक	-10.6198
▁domestic	-10.6206
▁सख्त	-10.6207
▁आँख	-10.6211
▁प्राकृतिक	-10.6214
▁नील	-10.6214
▁फैला	-10.622
▁खिला	-10.6221
▁varg	-10.6221
EC	-10.6222
▁soochi	-10.6222
▁arrive	-10.6226
▁unique	-10.623
▁goes	-10.6233
▁घेर	-10.6234
▁prakaashit	-10.6243
▁appeal	-10.6243
▁partnership	-10.6245
▁farwari	-10.6246
cious	-10.625
▁श्रीलंका	-10.6254
▁simple	-10.6254
▁trip	-10.6262
▁दाखिल	-10.6275
▁anyone	-10.6277
▁Just	-10.6279
▁आलोचना	-10.6283
▁Blue	-10.6285
▁Committee	-10.6287
▁legend	-10.6287
▁उपाध्यक्ष	-10.6293
▁produced	-10.6295
▁Who	-10.63
▁परन्तु	-10.6303
▁मुद्दों	-10.6306
5,000	-10.6307
▁physical	-10.6308
▁स्टेट	-10.6308
▁purush	-10.6312
trick	-10.6313
▁तिर	-10.6314
▁संक्रमण	-10.6324
▁location	-10.6324
▁यात्रियों	-10.6327
▁बॉक्स	-10.6329
▁pm	-10.633
▁अग्र	-10.6331
▁peace	-10.6335
▁sadak	-10.6338
▁edition	-10.6338
▁चैंपियनशिप	-10.634
▁महिलाएं	-10.6341
▁बजा	-10.6342
•	-10.6356
▁stories	-10.6358
31	-10.6359
spinner	-10.636
32	-10.6363
▁border	-10.6366
▁overall	-10.6369
▁loan	-10.637
▁अधिनियम	-10.6373
भाषा	-10.6377
▁consumer	-10.6377
▁सीजन	-10.6379
▁साइट	-10.6384
▁compared	-10.6387
▁injured	-10.6389
▁Mur	-10.6394
▁सन्	-10.6399
▁शहीद	-10.64
▁owner	-10.6402
▁additional	-10.6402
▁felt	-10.6406
▁अग्रवाल	-10.6408
▁safety	-10.6411
▁124	-10.6411
▁employees	-10.6413
▁click	-10.6413
▁Za	-10.6414
▁अक्षय	-10.6417
▁हिसाब	-10.6423
98	-10.6425
▁संविधान	-10.6425
▁quick	-10.6426
order	-10.6428
▁लागत	-10.643
▁clash	-10.643
▁bhaarat	-10.6435
▁काउंटी	-10.6436
▁रक्त	-10.6438
▁वार्ड	-10.6448
▁Asia	-10.6452
▁1990	-10.6452
96	-10.6452
▁रोशन	-10.6458
▁movement	-10.6459
▁बदमाश	-10.6463
▁allegedly	-10.6464
ological	-10.6466
▁sangrah	-10.6466
▁politics	-10.6469
▁तहसील	-10.6469
▁तारीख	-10.647
▁French	-10.6471
▁स्त्री	-10.6471
ŋ	-10.6472
▁दुर्लभ	-10.6472
ü	-10.6479
▁बच्ची	-10.6479
▁Justice	-10.6483
▁shoot	-10.6485
▁खतरा	-10.6487
नायक	-10.6488
▁wonder	-10.6492
▁मचा	-10.6502
▁society	-10.6504
!!	-10.6509
▁living	-10.6511
▁basis	-10.6515
▁presence	-10.6519
▁सुनील	-10.6521
▁बेहतरीन	-10.6526
▁economy	-10.6535
▁chhod	-10.6537
▁ग्राहकों	-10.6541
▁UK	-10.6542
▁ग्रहण	-10.6542
▁cell	-10.6543
▁Islam	-10.6543
poli	-10.6545
▁Indies	-10.6554
ाचार्य	-10.6558
▁परिवहन	-10.6562
▁scoring	-10.6562
aiss	-10.6568
▁Despite	-10.657
▁चुना	-10.6573
▁comfort	-10.6575
▁built	-10.6577
▁batsman	-10.6577
▁चाय	-10.6585
▁आबादी	-10.6585
▁fair	-10.6585
▁दीपक	-10.6597
▁विजेता	-10.6599
▁engage	-10.66
▁tele	-10.6602
keeper	-10.6604
▁प्रकृति	-10.6605
▁पेशेवर	-10.6612
▁street	-10.6623
▁सचिन	-10.6624
duction	-10.6624
▁cricketer	-10.6631
▁बचाव	-10.6632
▁catch	-10.6633
▁प्रांत	-10.6634
▁Kings	-10.6635
▁informed	-10.6644
▁अखिलेश	-10.6659
PO	-10.6659
▁flow	-10.6661
▁मुद्रा	-10.6664
zar	-10.6664
▁Why	-10.6671
▁tee	-10.6673
शाह	-10.6677
match	-10.6677
36	-10.6683
▁legal	-10.6683
▁military	-10.6689
▁राजीव	-10.6689
▁computer	-10.6692
▁immediately	-10.6695
▁madhya	-10.6698
▁detail	-10.6701
▁express	-10.6706
▁niyukt	-10.6711
▁अर्थव्यवस्था	-10.6714
▁trust	-10.6714
▁straight	-10.6715
▁300	-10.6719
▁बढ़ावा	-10.6723
▁समर्थक	-10.6726
▁सिनेमा	-10.6728
▁ज्	-10.673
▁संसाधन	-10.6733
स्को	-10.6733
▁beautiful	-10.6741
▁Bhu	-10.6744
view	-10.6745
▁uchch	-10.6751
▁regard	-10.6764
▁revenue	-10.6766
▁स्क्रीन	-10.6768
karta	-10.6775
ville	-10.6784
<	-10.6794
▁Michael	-10.6795
▁losing	-10.6796
▁परंपरा	-10.6797
▁नाटक	-10.6799
इंट	-10.6804
▁Post	-10.6807
▁attract	-10.681
ப	-10.6814
ட	-10.6816
▁चक्र	-10.6818
▁नक्सल	-10.6822
▁Check	-10.6833
▁color	-10.6844
▁daur	-10.6845
▁kick	-10.6847
▁wrong	-10.685
▁baind	-10.6851
▁paanch	-10.6855
▁announcement	-10.6863
▁इमारत	-10.6872
▁शुल्क	-10.6874
▁पीठ	-10.6876
▁लाइफ	-10.6878
▁लड़कियों	-10.6879
जन्म	-10.688
▁Port	-10.6886
▁throughout	-10.6889
ऊँ	-10.6892
▁यूनिवर्सिटी	-10.6893
▁Dhoni	-10.6898
र्ध	-10.6899
▁वैश्विक	-10.6899
▁alag	-10.69
▁medal	-10.6905
▁conduct	-10.6916
▁जागरूक	-10.6917
ाऊ	-10.6917
▁Russian	-10.6917
▁फ्री	-10.6917
▁दौरा	-10.6924
▁लिस्ट	-10.6925
व्ह	-10.693
▁uttari	-10.6932
▁ऑटो	-10.6936
▁skipper	-10.6936
▁&#124;	-10.6939
कर्मी	-10.6947
▁struggle	-10.6948
▁उत्तराखंड	-10.6949
▁कोलकाता	-10.6949
▁restrict	-10.6961
33	-10.6962
▁भरोसा	-10.6967
▁sanskaran	-10.6967
▁task	-10.6971
▁खींच	-10.6972
▁लगते	-10.6973
▁खड़ी	-10.6976
ेक्शन	-10.6976
▁शेर	-10.6978
▁विवरण	-10.6981
▁Galaxy	-10.6984
▁pratiyogita	-10.6984
▁संरक्षण	-10.6984
▁normal	-10.6998
▁स्वतंत्रता	-10.6998
▁सुझाव	-10.6998
power	-10.6999
▁1999	-10.6999
▁weekend	-10.7001
▁स्टेडियम	-10.7003
▁वितरण	-10.7005
▁पत्रिका	-10.7005
▁दिमाग	-10.7008
▁किलोमीटर	-10.7015
▁Speaking	-10.7022
▁रेड	-10.7027
▁वजन	-10.7027
▁योजनाओं	-10.7029
▁citizen	-10.7029
press	-10.7031
▁Although	-10.7034
▁Former	-10.7037
▁दीवार	-10.7038
▁flight	-10.704
▁एक्टर	-10.7041
▁युवती	-10.7041
▁घुस	-10.7045
▁dusare	-10.7047
▁ब्रिटेन	-10.7052
▁लंदन	-10.7055
▁providing	-10.7061
▁machine	-10.7068
▁प्रजाति	-10.7068
▁बुरी	-10.7071
▁Maha	-10.7071
▁maarg	-10.7071
▁खुले	-10.7074
▁People	-10.7075
▁खून	-10.7075
▁ब्रिटिश	-10.7078
▁क्षेत्रीय	-10.708
ர	-10.7092
▁chhote	-10.7092
▁else	-10.7094
▁Reddy	-10.7094
▁trend	-10.7101
▁बांग्लादेश	-10.7104
▁UP	-10.7114
▁budget	-10.7118
क्के	-10.7123
▁praarambhik	-10.7125
▁Korea	-10.7126
▁अंजाम	-10.7127
▁रद्द	-10.713
▁निधन	-10.7131
▁मंजूरी	-10.7132
▁isaki	-10.7132
▁chau	-10.714
▁न्यायाधीश	-10.7143
▁text	-10.7144
▁फुट	-10.7145
▁judge	-10.7148
ender	-10.7154
▁Telugu	-10.7157
▁sthaaniya	-10.716
▁cinema	-10.7161
▁जताई	-10.7164
▁command	-10.7165
▁महासचिव	-10.7168
▁गतिविधियों	-10.717
▁America	-10.7173
▁परंतु	-10.7173
stitute	-10.7176
▁स्वतंत्र	-10.718
▁counter	-10.7186
▁मुख्यालय	-10.7189
▁प्रतिनिधित्व	-10.719
▁jeetaa	-10.7192
▁कार्यवाही	-10.7194
▁पात्र	-10.7199
▁जितना	-10.7202
▁ओपन	-10.7204
▁मार्क	-10.7206
▁गहरा	-10.7212
▁temple	-10.7214
▁बुद्धि	-10.7215
▁उड़ान	-10.7217
▁क्रिया	-10.7225
▁necessary	-10.7237
▁जाहिर	-10.7239
▁samaapt	-10.724
▁हस्ताक्षर	-10.724
▁email	-10.724
▁Movie	-10.7242
tribute	-10.7243
▁राज्यपाल	-10.7249
▁मास्टर	-10.7252
▁dinn	-10.7254
▁welcome	-10.7254
▁पाठक	-10.7258
▁boost	-10.726
▁promote	-10.7261
▁cash	-10.7263
▁प्रगति	-10.7264
ꞌ	-10.7265
▁कोविड	-10.7272
▁प्राण	-10.7274
▁Chandra	-10.7279
▁चांद	-10.728
▁murder	-10.729
▁किन्तु	-10.7292
▁अकाउंट	-10.7294
पीएस	-10.7296
▁धन्यवाद	-10.7299
▁Madrid	-10.7299
TO	-10.7299
▁phase	-10.7301
▁हिन्दू	-10.7303
▁मार्केट	-10.7303
▁rival	-10.731
▁सम्बन्ध	-10.7313
▁aakar	-10.7316
▁कौशल	-10.7317
▁shop	-10.7318
▁ममता	-10.7325
▁payment	-10.7325
▁depend	-10.7328
▁contribute	-10.7336
भूमि	-10.7337
▁ऐप	-10.7339
▁शिमला	-10.7344
▁अभ्यास	-10.7346
▁अनुसंधान	-10.7351
▁पृथ्वी	-10.7351
▁Bengaluru	-10.7355
▁उपभोक्ता	-10.7362
▁वनडे	-10.7363
▁अरुण	-10.7368
▁वार्ता	-10.7371
▁quickly	-10.7373
▁dweep	-10.7374
▁Step	-10.7382
▁aayojit	-10.7385
▁मिशन	-10.7393
▁planning	-10.7399
▁निकट	-10.7403
▁सफेद	-10.7405
▁एक्सप्रेस	-10.7412
▁throw	-10.7413
▁crucial	-10.7415
▁मनाया	-10.7418
▁pretty	-10.7418
▁handle	-10.7435
▁opposition	-10.7439
▁fashion	-10.7443
▁size	-10.7443
▁senaa	-10.7445
▁jisak	-10.7446
▁Exp	-10.7453
▁radio	-10.7456
▁ढंग	-10.7461
▁विशिष्ट	-10.7465
▁हाँ	-10.747
▁शिविर	-10.747
▁पुस्तकें	-10.7471
▁अफसर	-10.7478
▁त्वचा	-10.7481
▁शर्त	-10.7483
▁उल्लेखनीय	-10.7487
▁मूर्ति	-10.7487
▁bund	-10.7489
▁राजेश	-10.749
▁हफ्ते	-10.7496
▁बच्चा	-10.7496
▁धारण	-10.7497
▁smart	-10.7498
▁completely	-10.75
▁Development	-10.7505
पीसी	-10.7506
▁इधर	-10.7515
ா	-10.7516
▁administration	-10.7521
▁kalaa	-10.7527
▁prabhaav	-10.7527
▁Grand	-10.7529
▁separate	-10.7531
वंत	-10.7533
▁THE	-10.7538
▁चमक	-10.7538
▁औसत	-10.754
▁प्रयुक्त	-10.7547
▁मनोज	-10.755
▁ऋण	-10.7553
▁फार्म	-10.7558
▁vaalaa	-10.7558
▁टक्कर	-10.756
▁बेटा	-10.7561
▁School	-10.7563
▁कैंसर	-10.7571
▁उल्लेख	-10.7576
▁शांत	-10.7582
▁YouTube	-10.7587
▁चाहिये	-10.7598
▁peshevar	-10.76
▁aich	-10.7605
▁मशहूर	-10.7606
▁लंबा	-10.7606
▁Alex	-10.7612
▁स्वरूप	-10.7612
▁spirit	-10.7615
▁sense	-10.762
▁European	-10.7621
▁petition	-10.7624
▁डिजिटल	-10.763
▁शैली	-10.7634
▁jabaki	-10.764
▁सर्वश्रेष्ठ	-10.7641
▁चेतावनी	-10.7652
▁Gold	-10.7654
▁मंडी	-10.7659
▁snaatak	-10.7661
▁purpose	-10.7661
▁doubleu	-10.7665
▁Kolkata	-10.7671
▁cities	-10.7672
▁हाईकोर्ट	-10.7672
▁लाया	-10.7677
▁crowd	-10.7685
▁discussion	-10.769
▁आदर्श	-10.769
एनए	-10.769
▁dress	-10.7695
India	-10.7697
▁shock	-10.7703
▁easily	-10.7708
▁मारपीट	-10.7715
▁isamen	-10.7716
▁exchange	-10.7719
▁संवाददाता	-10.7723
▁पवित्र	-10.7725
▁shift	-10.7725
▁husband	-10.7728
▁Ltd	-10.7731
▁adhyaksh	-10.7732
▁Film	-10.7733
▁hundred	-10.7734
▁probably	-10.7734
▁केरल	-10.7739
phone	-10.774
▁difference	-10.7749
▁badey	-10.7753
▁कामयाब	-10.7754
▁ऐलान	-10.7766
घात	-10.7771
▁प्रत्याशी	-10.7777
▁प्राचीन	-10.7779
▁kanada	-10.7783
▁anusaar	-10.7788
इंग	-10.7803
▁Nav	-10.7811
▁shatabdi	-10.7813
▁हुये	-10.7815
▁डूब	-10.7816
▁दूसरों	-10.7822
▁तुम्हारे	-10.7824
▁colour	-10.7824
▁निर्भर	-10.7833
▁परमाणु	-10.7835
▁करवाया	-10.7836
▁आशंका	-10.7839
▁स्वच्छ	-10.7841
बर्ग	-10.7841
▁इंस्टाग्राम	-10.7843
▁क्लास	-10.7843
▁Out	-10.7844
▁ब्लॉक	-10.7844
▁स्नातक	-10.7848
▁farm	-10.7855
▁श्रद्धा	-10.7855
▁commission	-10.7859
▁लिमिटेड	-10.7864
▁मुकाबला	-10.7869
▁Park	-10.7872
▁blue	-10.7879
▁बाढ़	-10.7881
▁Other	-10.7883
▁तारीफ	-10.7884
▁शाहरुख	-10.7886
▁status	-10.7886
▁सपना	-10.7895
▁दृश्य	-10.7901
▁150	-10.7905
▁ज़्यादा	-10.7909
▁crime	-10.7915
▁micro	-10.7915
▁XI	-10.7922
▁द्वीप	-10.7922
ुअल	-10.7924
▁शारीरिक	-10.7926
▁स्वस्थ	-10.7927
▁artist	-10.793
▁theatre	-10.7931
▁लोकतंत्र	-10.7936
▁मिट्टी	-10.7941
▁ब्लैक	-10.7943
▁तर्क	-10.7945
▁increasing	-10.796
▁जयपुर	-10.7966
▁essential	-10.7966
▁हृदय	-10.7966
▁दर्शा	-10.7966
▁kissy	-10.797
▁मंगल	-10.7975
▁वर्णन	-10.7976
▁direction	-10.798
▁aind	-10.7984
▁अमृत	-10.7985
▁शाखा	-10.7989
▁Update	-10.7993
▁Japan	-10.8
▁तिथि	-10.8001
▁उर्फ	-10.8006
▁remember	-10.801
▁prakaar	-10.8011
▁हिरासत	-10.8012
▁कनाडा	-10.8012
▁largest	-10.8023
▁फायदे	-10.8026
▁occur	-10.8028
▁कपिल	-10.8031
▁wall	-10.8033
▁Association	-10.8037
▁गेट	-10.8037
▁Every	-10.8037
▁भूख	-10.8038
▁भाषण	-10.8039
▁organization	-10.8051
▁impressive	-10.8053
▁lose	-10.8055
▁First	-10.8066
▁विवेक	-10.8072
▁सदन	-10.8077
▁उद्घाटन	-10.8078
▁1980	-10.8078
▁अर्जुन	-10.8083
▁इंडस्ट्री	-10.8083
▁प्रभु	-10.8085
▁Europe	-10.8087
▁expand	-10.8091
▁लड़के	-10.8092
▁टेक	-10.8094
▁लेंगे	-10.8099
▁Ahmed	-10.8105
▁छाप	-10.8105
▁चिकित्सक	-10.8111
tric	-10.8115
▁stress	-10.8117
▁1996	-10.8125
▁equal	-10.8129
▁संस्कार	-10.8136
▁sthaapit	-10.8146
▁आरक्षण	-10.8147
▁choose	-10.8151
▁bru	-10.8156
▁Free	-10.8156
▁उल्लंघन	-10.8157
▁भट्ट	-10.8169
▁लिहाज	-10.8174
▁pratyek	-10.8183
▁प्रौद्योगिकी	-10.8184
▁अतिथि	-10.8187
▁तरीका	-10.8189
▁निराश	-10.8189
▁newyork	-10.819
▁शुक्ल	-10.819
ம	-10.8192
▁Muslim	-10.8192
▁धूम	-10.8193
▁violence	-10.8206
▁NFL	-10.8208
▁dikhaai	-10.821
▁स्मार्टफोन	-10.8212
▁लहर	-10.8216
▁quote	-10.8216
▁सकेंगे	-10.8216
▁सागर	-10.823
▁virus	-10.8231
▁Power	-10.8239
▁giant	-10.8242
▁White	-10.8243
▁मोटर	-10.8245
गांव	-10.8246
place	-10.8249
▁advantage	-10.8249
▁सूत्र	-10.8249
▁monitor	-10.8249
▁दिलचस्प	-10.8251
▁साउथ	-10.8251
▁प्रोजेक्ट	-10.8253
▁generation	-10.8257
▁vyakti	-10.8267
▁सीमित	-10.8269
▁आकाश	-10.8269
▁Asian	-10.8271
break	-10.8274
▁Research	-10.8277
▁francis	-10.8277
▁निर्वाचन	-10.8285
▁Smith	-10.8285
▁यात्री	-10.8287
▁1998	-10.8293
▁invite	-10.8298
▁यूरोप	-10.8304
प्रीत	-10.8307
▁एसोसिएशन	-10.8308
▁exercise	-10.8312
▁startup	-10.8315
▁wedding	-10.8316
▁ब्रांड	-10.8334
▁अरविंद	-10.8342
▁कॉन्	-10.8343
▁बच्चन	-10.8344
▁rid	-10.8353
▁tahat	-10.8354
▁प्रेरित	-10.8356
▁festival	-10.8362
▁टॉप	-10.837
▁associate	-10.8372
▁अधीक्षक	-10.8376
▁leaving	-10.8376
▁thousand	-10.8378
▁स्कोर	-10.8379
▁panel	-10.8381
▁लक्ष्मी	-10.8388
मणि	-10.8394
▁leey	-10.8407
▁karein	-10.8416
▁संचालित	-10.8418
▁Nepal	-10.8425
▁आत्महत्या	-10.8436
▁nature	-10.844
▁declared	-10.8446
▁आमतौर	-10.8464
▁गणेश	-10.847
▁Institute	-10.8474
▁minute	-10.8475
▁caught	-10.8476
▁initiative	-10.8478
▁emerge	-10.8481
▁सिद्धांत	-10.8487
▁एंटी	-10.8489
▁इस्तीफा	-10.849
▁facing	-10.8493
▁Nadu	-10.8494
▁bhoomika	-10.8494
▁मालूम	-10.8502
▁amid	-10.8505
▁syn	-10.8505
▁dropped	-10.8506
▁पर्यटन	-10.8508
▁accident	-10.8512
▁प्रावधान	-10.8514
▁Green	-10.8519
▁कंप्यूटर	-10.8534
▁सकारात्मक	-10.8534
▁fifth	-10.8534
▁Education	-10.854
▁agreement	-10.8545
▁teacher	-10.8547
▁टु	-10.855
▁items	-10.8562
▁category	-10.8571
▁शर्म	-10.8575
▁खारिज	-10.8577
ानंद	-10.8581
▁identified	-10.8583
▁traffic	-10.8587
▁हैदराबाद	-10.8587
▁reveal	-10.8588
▁haalaanki	-10.8589
▁त्याग	-10.859
▁hearing	-10.8591
house	-10.8595
एसआई	-10.8599
▁vibhinn	-10.8599
▁प्रतीक	-10.8602
▁सांस्कृतिक	-10.8607
▁encounter	-10.8607
▁British	-10.8609
▁capacity	-10.8618
▁शेख	-10.8618
▁चढ़ा	-10.8619
▁shaadi	-10.8623
▁participate	-10.8624
▁reserve	-10.8626
▁professor	-10.8632
भूषण	-10.8634
▁निवास	-10.8648
पंथ	-10.8665
▁missing	-10.8666
▁समाजवादी	-10.8667
▁कालेज	-10.8667
▁दिक्कत	-10.8671
▁civil	-10.8673
▁delay	-10.8673
▁basic	-10.868
▁annual	-10.8686
▁जरुर	-10.8691
▁चेन्नई	-10.8691
▁ख़बर	-10.8692
▁सोनिया	-10.8696
▁College	-10.87
dicate	-10.8703
▁Jesus	-10.871
▁स्रोत	-10.8715
▁शिवसेना	-10.8716
▁ट्रंप	-10.8717
▁Series	-10.873
த	-10.8733
▁सहमति	-10.8742
▁predict	-10.8742
▁Ethics	-10.8743
▁Hospital	-10.8747
▁draft	-10.8747
▁Afghanistan	-10.8749
▁Please	-10.8749
▁british	-10.8749
▁संशोधन	-10.8755
▁surface	-10.8757
▁ticket	-10.8759
▁मतदाता	-10.876
▁दोबारा	-10.8764
▁Final	-10.8765
▁राजकुमार	-10.8765
▁slo	-10.8766
▁sustain	-10.877
▁मध्यप्रदेश	-10.8772
▁Telangana	-10.8776
▁तुम्हें	-10.8776
▁राकेश	-10.8784
▁opponent	-10.8786
फील्ड	-10.8788
▁अनुकूल	-10.8788
▁promotion	-10.8789
▁विद्या	-10.8794
▁traditional	-10.8797
▁शुद्ध	-10.8801
▁pratinidhitva	-10.8813
▁दैनिक	-10.8813
▁viral	-10.8813
चन्द्र	-10.8823
▁Another	-10.8826
▁whi	-10.8832
▁investors	-10.8836
▁alongside	-10.8837
▁मनीष	-10.8852
▁weapon	-10.8853
▁usake	-10.8854
▁excellent	-10.8857
▁स्टाफ	-10.886
[	-10.8865
▁मस्जिद	-10.8865
▁बचपन	-10.8872
▁beginning	-10.888
▁निर्यात	-10.888
▁अगली	-10.8881
▁student	-10.8882
▁cancer	-10.8884
▁संपादक	-10.8891
▁Washington	-10.8893
▁haih	-10.8895
▁aitihaasik	-10.8899
▁France	-10.8903
▁व्यक्तियों	-10.8903
▁ओलंपिक	-10.8905
▁Phil	-10.8908
▁नियुक्ति	-10.8911
▁मुकदमा	-10.892
कृष्ण	-10.892
▁Krishna	-10.8931
▁ausat	-10.8931
▁guide	-10.8936
sert	-10.8936
▁construction	-10.8937
▁Thank	-10.8938
▁मुद्दा	-10.8943
▁किस्म	-10.8959
▁Two	-10.8959
▁passenger	-10.8966
▁इंजन	-10.897
ibility	-10.8973
▁District	-10.8975
▁विस्फोट	-10.8983
▁इलेक्ट्र	-10.8987
▁infrastructure	-10.8987
▁महीनों	-10.8988
▁Capital	-10.899
▁Though	-10.8994
▁चार्ज	-10.9
▁decide	-10.9001
▁यूरोपीय	-10.9003
▁बाबू	-10.9008
▁संसार	-10.901
मैं	-10.9012
▁method	-10.9019
▁प्रोफेसर	-10.9028
▁Corporation	-10.903
▁अनुरोध	-10.904
▁सिविल	-10.9041
▁wild	-10.9044
ntegr	-10.9051
▁दिग्गज	-10.9066
▁favourite	-10.9069
▁discover	-10.9078
DNPA	-10.9079
▁खिताब	-10.9081
▁फॉर	-10.9082
▁Barcelona	-10.9085
▁angreji	-10.9087
▁jump	-10.909
▁schedule	-10.9095
▁settle	-10.9096
▁सर्विस	-10.9108
▁मृत	-10.9117
▁Trans	-10.9123
**	-10.9123
▁संतोष	-10.9126
▁विद्युत	-10.9132
▁Standard	-10.9147
▁शुरु	-10.915
ి	-10.9156
भोग	-10.9156
▁respectively	-10.9167
▁blog	-10.9171
▁frame	-10.9171
▁lekhak	-10.9171
▁ब्रेक	-10.9176
▁lift	-10.9179
▁Railway	-10.9191
ل	-10.9193
▁studio	-10.9197
▁जबरदस्त	-10.9199
▁evidence	-10.9204
▁न्यूजीलैंड	-10.9206
▁thrill	-10.921
▁बुलाया	-10.9212
▁प्रकट	-10.9214
▁तीसरी	-10.9217
▁storage	-10.9223
▁definitely	-10.9225
▁executive	-10.9227
▁female	-10.9227
▁baby	-10.923
▁families	-10.9234
ı	-10.9234
▁retail	-10.9234
▁मुफ्त	-10.9236
▁famous	-10.9238
▁culture	-10.9238
▁Class	-10.924
▁transport	-10.9245
▁dance	-10.9248
▁Parliament	-10.9251
▁register	-10.9253
▁चीज़	-10.9255
▁leadership	-10.9256
▁नींद	-10.9258
▁यूनियन	-10.9267
▁chalaa	-10.927
▁विरुद्ध	-10.9271
▁अग्नि	-10.9272
▁वारदात	-10.9275
▁gho	-10.928
▁producer	-10.9281
▁confidence	-10.9282
▁मुझसे	-10.9286
*	-10.9286
▁PTI	-10.9295
▁animal	-10.9295
▁bol	-10.9303
▁population	-10.9304
▁कल्पना	-10.9304
▁beyond	-10.9306
▁doubt	-10.9306
▁कार्यकाल	-10.9306
▁अनिवार्य	-10.9308
▁sarkaar	-10.9311
▁चीजें	-10.9312
▁kalakar	-10.9312
▁गोल्ड	-10.9318
▁दिव्य	-10.9318
▁infection	-10.9321
▁शपथ	-10.9321
▁दीपिका	-10.9321
▁अपेक्षा	-10.9323
▁speech	-10.933
▁Brazil	-10.9332
▁प्रताप	-10.9337
ు	-10.9339
▁सिन्हा	-10.9345
▁Republic	-10.9363
▁संकल्प	-10.9363
▁photograph	-10.9363
▁Paris	-10.9366
▁पंडित	-10.9367
▁अकेले	-10.9378
▁powerful	-10.9387
▁भ्रम	-10.9394
▁organisation	-10.9401
▁writing	-10.9407
▁अमिताभ	-10.9411
IANS	-10.9412
ன	-10.9413
▁browser	-10.9413
▁balance	-10.9425
▁अंग्रेज	-10.9434
▁crisis	-10.9435
▁रुख	-10.9436
▁इसीलिए	-10.9442
▁इकाई	-10.9443
▁modern	-10.9447
▁entertainment	-10.9451
▁स्थिर	-10.9458
▁ग्राहक	-10.9461
▁reflect	-10.9462
▁लक्षण	-10.9465
▁सूख	-10.9467
▁japan	-10.9473
▁अभिनय	-10.9475
▁निगरानी	-10.9487
▁यूक्रेन	-10.9487
▁पर्वत	-10.9497
▁pravesh	-10.9498
▁प्रार्थना	-10.9502
▁सुरेश	-10.9507
▁गूगल	-10.9509
▁admitted	-10.9513
▁स्मृति	-10.9513
वुड	-10.9514
▁अमरीका	-10.9516
ऐ	-10.9526
▁determine	-10.9529
▁married	-10.9531
▁adopt	-10.9534
▁Bihar	-10.9538
▁commercial	-10.9542
▁शेष	-10.9542
▁मेट्रो	-10.9546
burg	-10.9553
▁निरीक्षण	-10.9553
▁जमानत	-10.9566
▁अज्ञात	-10.9569
▁mental	-10.9571
▁journalist	-10.9571
▁चरित्र	-10.9574
▁रवाना	-10.9576
▁व्रत	-10.9577
▁trouble	-10.9583
▁द्वितीय	-10.9585
▁injuries	-10.9587
▁द्वार	-10.959
▁निर्मित	-10.9608
▁carried	-10.9617
▁चंडीगढ़	-10.9625
▁extremely	-10.9632
▁simply	-10.9637
▁observe	-10.9641
▁becoming	-10.9642
▁headline	-10.9644
▁arrest	-10.9647
▁compete	-10.9653
▁route	-10.9654
▁kabhi	-10.9659
▁कब्जे	-10.9659
▁corner	-10.9663
▁cookie	-10.9666
▁फीचर	-10.9666
▁गैंग	-10.9671
▁विपरीत	-10.9675
▁praise	-10.9677
▁पोस्टमार्टम	-10.9677
▁Army	-10.9681
▁हनुमान	-10.9682
▁स्वर्ण	-10.9683
▁veteran	-10.9691
प्ला	-10.9693
▁manufacture	-10.9705
▁गौतम	-10.9705
▁यौन	-10.9721
▁superstar	-10.9722
▁floor	-10.9723
ोत्सव	-10.973
▁इंदौर	-10.9732
▁pratishat	-10.9732
▁meater	-10.9748
▁knowledge	-10.9757
▁यूजर्स	-10.9762
▁jinamen	-10.9771
▁samudaay	-10.9773
▁चावल	-10.9781
▁sought	-10.9782
▁अब्दुल	-10.9785
▁रमेश	-10.9785
▁क्रांति	-10.9786
▁conversation	-10.9787
▁स्पेशल	-10.9789
▁drink	-10.9789
▁eventually	-10.9792
▁lockdown	-10.9792
▁जहाज	-10.9792
▁playoff	-10.98
▁profit	-10.9805
▁औद्योगिक	-10.9817
▁Chelsea	-10.9819
▁variant	-10.9828
▁solid	-10.9829
▁विद्यार्थियों	-10.9831
▁कमांड	-10.9834
▁Express	-10.9837
▁प्रारंभिक	-10.9837
▁वातावरण	-10.9842
▁creating	-10.9843
कुमार	-10.9844
▁Salman	-10.9849
▁clip	-10.9853
▁relative	-10.9856
▁वसूल	-10.986
▁शतक	-10.9862
▁shut	-10.9863
▁imarat	-10.9865
▁Science	-10.987
‘	-10.9871
▁describe	-10.9877
▁कैबिनेट	-10.9877
▁aabaadi	-10.9884
▁opportunities	-10.9891
▁कागज	-10.9894
▁डाउनलोड	-10.9895
▁न्यूज़	-10.9901
▁association	-10.9902
▁illegal	-10.9902
▁डायरेक्टर	-10.9909
▁बलात्कार	-10.9909
▁सावधान	-10.9916
▁enhance	-10.9921
▁defence	-10.9931
▁reaction	-10.9933
▁Product	-10.9942
▁भंडार	-10.9946
aeye	-10.9947
▁Ukraine	-10.9956
▁धरती	-10.9956
▁एकमात्र	-10.9965
▁Further	-10.997
▁suspect	-10.9974
▁प्रेरणा	-10.9977
▁सीज़न	-10.9977
▁जोखिम	-10.9981
▁trailer	-10.9984
▁रेडियो	-10.9984
▁स्वाद	-10.9991
▁विविध	-10.9996
▁कब्जा	-11.0005
▁parishad	-11.0007
▁बढ़ोतरी	-11.0024
▁Andhra	-11.0028
duct	-11.0028
▁proceed	-11.0029
▁तीसरा	-11.0031
▁सफर	-11.0033
▁शताब्दी	-11.004
▁Internet	-11.0049
▁birthday	-11.0055
▁फीस	-11.0056
▁yourself	-11.0061
▁correct	-11.0065
स्तरीय	-11.0093
▁outfit	-11.0094
▁कैरियर	-11.0099
रक्षक	-11.01
▁marriage	-11.0101
▁pranali	-11.0103
▁ग्रीन	-11.0113
▁yuva	-11.0116
▁editor	-11.0118
▁ऋषि	-11.012
▁सहारा	-11.0123
▁संरचना	-11.0127
▁बिजनेस	-11.0132
▁flood	-11.0135
▁saarvajanik	-11.0146
▁ऑपरेशन	-11.0154
▁कलेक्टर	-11.0154
▁मोर्चा	-11.0156
▁Video	-11.0161
▁adhikansh	-11.0163
▁उदय	-11.0164
▁halanki	-11.0165
▁टकरा	-11.0167
▁हड़ताल	-11.0173
▁punar	-11.0176
▁segment	-11.0187
▁window	-11.0196
▁independent	-11.0201
▁पूंजी	-11.0209
▁shabd	-11.0214
▁proposed	-11.0216
▁sleep	-11.0216
▁repeat	-11.0221
▁tennis	-11.0225
▁vidyalaya	-11.023
▁aspect	-11.0233
▁सूरज	-11.0239
▁ministry	-11.024
▁अवश्य	-11.024
▁समझौते	-11.024
▁airport	-11.024
▁vyaktigat	-11.0259
▁चेयरमैन	-11.0264
▁इंटरव्यू	-11.028
▁sandarbh	-11.0295
▁temperature	-11.0309
▁virtual	-11.0314
▁हिस्सों	-11.0317
▁edge	-11.0333
▁अफगानिस्तान	-11.0334
▁लाइसेंस	-11.0334
▁proposal	-11.0338
▁advise	-11.0349
▁brief	-11.0352
▁कैमरा	-11.0356
▁गुस्सा	-11.0358
▁ceremony	-11.036
▁चीफ	-11.0363
▁consult	-11.0365
▁आश्चर्य	-11.0367
▁constant	-11.0372
▁डीजल	-11.0377
www	-11.039
▁विधेयक	-11.0394
▁कृपया	-11.0397
▁weather	-11.0397
▁इमरान	-11.0399
▁संक्रमित	-11.0399
▁historic	-11.0406
▁basketball	-11.0406
▁produce	-11.0409
▁fuel	-11.0412
▁पेंशन	-11.0419
▁income	-11.0426
▁प्रसन्न	-11.0431
▁usually	-11.0443
▁विस्तृत	-11.045
600	-11.0452
▁primary	-11.0458
▁पर्यटक	-11.046
▁premium	-11.0463
▁राज्यसभा	-11.0468
▁जस्टिस	-11.047
▁प्रदूषण	-11.0472
▁stadium	-11.0485
▁cloud	-11.0495
▁assembly	-11.0514
▁Deputy	-11.0519
▁celebration	-11.0524
▁जिक्र	-11.0534
▁nyu	-11.0545
▁पुराना	-11.0547
▁व्यस्त	-11.0549
▁अयोध्या	-11.0551
▁element	-11.056
▁चेहरा	-11.0561
▁पिछली	-11.0561
▁secretary	-11.0566
▁चौथे	-11.0566
▁oopar	-11.0572
▁swatantra	-11.0576
▁structure	-11.0581
▁responsible	-11.0586
▁शिखर	-11.0586
▁कानपुर	-11.0589
▁जन्मदिन	-11.0591
▁syndicated	-11.0594
▁सऊदी	-11.0594
▁Public	-11.0596
▁सैकड़ों	-11.0601
▁survey	-11.0606
▁लघु	-11.0606
▁Additional	-11.0613
▁facilities	-11.0613
▁audio	-11.0615
▁Technology	-11.0616
▁कंट्रोल	-11.0616
▁terror	-11.063
▁likhaa	-11.0634
▁sthal	-11.0639
▁अपडेट	-11.0641
▁पार्षद	-11.0643
▁Odisha	-11.0651
▁amazing	-11.0656
▁technical	-11.0671
▁decline	-11.0673
You	-11.0677
▁africa	-11.0678
▁खतरनाक	-11.0688
▁ब्याज	-11.0703
▁भरपूर	-11.0704
▁edited	-11.0706
▁तलाक	-11.071
▁एयरपोर्ट	-11.0713
▁अधिकतम	-11.0717
▁Steve	-11.0717
▁अभिषेक	-11.0724
▁patrika	-11.0729
▁प्रोग्राम	-11.073
clusion	-11.0734
▁examination	-11.0744
▁सेहत	-11.0751
▁महामारी	-11.0751
▁सर्वोच्च	-11.0756
▁आदत	-11.0772
▁athlete	-11.0787
▁प्रदर्शित	-11.0787
▁urged	-11.0787
▁चोपड़ा	-11.0797
▁ब्राह्मण	-11.0805
▁chunaa	-11.0814
▁छुट्टी	-11.0815
▁रिजर्व	-11.082
▁Special	-11.0822
▁सुन्दर	-11.083
▁Chopra	-11.0833
▁नजदीक	-11.0835
▁चक्कर	-11.084
▁भड़क	-11.0853
▁सबूत	-11.0856
▁सीनियर	-11.0858
▁पिछड़	-11.0858
प्रकाश	-11.0859
▁महंगाई	-11.0866
▁श्याम	-11.0868
▁बुजुर्ग	-11.0871
▁प्राइवेट	-11.0876
▁Bangalore	-11.0881
▁संदिग्ध	-11.0891
▁शुक्र	-11.0903
▁झील	-11.0913
▁Biden	-11.0918
▁Jammu	-11.0925
▁finance	-11.0925
▁tulanaa	-11.0927
▁sahayak	-11.0932
▁जरिये	-11.0932
.......	-11.0934
▁उपन्यास	-11.0935
▁recruit	-11.094
://	-11.094
▁favorite	-11.0943
▁डाक्टर	-11.0946
▁उद्यम	-11.0956
▁although	-11.0958
▁ड्रेस	-11.0968
▁personnel	-11.0968
▁ghoshana	-11.0973
▁इंटरनेशनल	-11.0976
▁गुलाब	-11.0977
▁label	-11.0979
▁qualify	-11.0994
▁desire	-11.0997
▁उतना	-11.1
▁encourage	-11.1007
▁BCCI	-11.1012
▁हालाँकि	-11.1015
▁complex	-11.1025
▁पाठ्यक्रम	-11.1033
▁puuraa	-11.1041
▁शीघ्र	-11.1043
▁pahaad	-11.1048
▁committed	-11.1056
▁Liverpool	-11.1059
▁terrorist	-11.106
▁vibhaag	-11.1072
▁रकम	-11.1074
▁ढूंढ	-11.1077
▁स्मार्ट	-11.108
▁स्टैंड	-11.108
▁mahatvapurna	-11.1085
▁submitted	-11.1088
▁न्यूनतम	-11.109
▁located	-11.109
▁हरकत	-11.1091
▁अमीर	-11.1094
▁सपने	-11.1094
▁कायम	-11.1095
▁secret	-11.1097
▁रांची	-11.1098
▁जितनी	-11.1099
▁परिस्थितियों	-11.1102
▁मुकेश	-11.1108
▁Security	-11.1109
▁jisane	-11.1114
ुद्दीन	-11.1117
▁contribution	-11.1124
▁शुभकामना	-11.1127
▁planned	-11.1135
▁exclusive	-11.1143
▁resolution	-11.1143
▁involve	-11.1153
▁कंपनियां	-11.1158
▁safal	-11.1167
▁Entertainment	-11.1169
▁Finance	-11.1174
▁ullekh	-11.1177
क्षेत्र	-11.1182
▁आश्वासन	-11.1185
▁हार्दिक	-11.1185
▁शुरूआत	-11.1186
▁ढेर	-11.1188
▁Work	-11.1203
▁yesterday	-11.1214
▁Affairs	-11.1219
▁बनर्जी	-11.1219
▁नमक	-11.1221
ॉर्न	-11.1222
mouth	-11.1224
▁विनोद	-11.1229
▁scale	-11.1231
▁aadhar	-11.1232
▁समर्पित	-11.1235
▁पुनः	-11.1238
▁लाइव	-11.1246
▁राजनेता	-11.1246
▁severe	-11.1261
▁operating	-11.1264
▁विश्लेषण	-11.1267
▁margin	-11.1272
▁मायावती	-11.1272
▁relief	-11.1272
▁समझौता	-11.1272
▁लटक	-11.1275
▁communication	-11.1278
▁Medical	-11.1278
▁दुश्मन	-11.1288
▁Dream	-11.1288
▁confirm	-11.1291
▁मनमोहन	-11.1291
▁deploy	-11.1294
▁साजिश	-11.1296
▁देखभाल	-11.1312
▁फांसी	-11.1312
▁breath	-11.1315
▁व्याख्या	-11.132
▁mahilaaon	-11.1323
▁influence	-11.1334
▁length	-11.1334
$	-11.1335
▁neeche	-11.1336
▁sakate	-11.1337
▁criminal	-11.1339
▁kaanoon	-11.1339
▁Trophy	-11.1342
▁responsibility	-11.1342
▁अध्यापक	-11.1342
▁सिफारिश	-11.1347
▁maximum	-11.135
known	-11.1357
▁उन्होने	-11.136
▁निपटने	-11.1368
▁receiving	-11.1376
▁टेलीविजन	-11.1376
▁analysis	-11.1382
▁twice	-11.139
▁खतरे	-11.1395
season	-11.1398
▁दुष्कर्म	-11.1401
▁excited	-11.1401
▁strategy	-11.1403
▁निरंतर	-11.1411
▁आदित्यनाथ	-11.1414
▁withdraw	-11.1415
▁नरेन्द्र	-11.1416
▁Latest	-11.1425
▁faith	-11.1425
▁allegations	-11.1436
▁Haryana	-11.1436
▁sensor	-11.1441
▁Mohammad	-11.1447
▁activity	-11.1459
▁plus	-11.1468
generated	-11.1472
▁jinhen	-11.1476
SHRI	-11.1479
▁Messi	-11.1488
▁विष्णु	-11.149
▁ज्ञापन	-11.1495
▁पैमाने	-11.1501
–	-11.1502
▁न्यूयॉर्क	-11.1506
▁बतौर	-11.1506
▁नृत्य	-11.1506
▁Music	-11.1511
▁Ashwin	-11.1512
▁science	-11.1515
▁आकर्षित	-11.152
▁निम्नलिखित	-11.152
▁birth	-11.1528
▁त्योहार	-11.1536
▁sankhya	-11.1542
▁sangathan	-11.1545
▁netritva	-11.1545
▁विफल	-11.157
=	-11.157
▁jisase	-11.1572
▁शौक	-11.1574
▁confident	-11.1575
▁तमिलनाडु	-11.1575
▁रुचि	-11.1576
▁switch	-11.158
▁brilliant	-11.1583
▁Economic	-11.1588
▁Jordan	-11.1594
▁सलाम	-11.1597
▁beauty	-11.1599
▁sexual	-11.1627
▁अस्तित्व	-11.163
▁हादसा	-11.1635
▁Click	-11.1635
▁Arsenal	-11.1638
▁plot	-11.1638
▁महात्मा	-11.1641
▁पश्चात	-11.1641
▁सुभाष	-11.1642
▁गतिविधि	-11.1662
▁exciting	-11.1663
▁जनसंख्या	-11.1666
▁समृद्ध	-11.1666
▁entry	-11.1666
▁तुम्हारी	-11.1671
▁ईमानदार	-11.1677
appropriate	-11.1679
▁Canada	-11.168
▁अंडर	-11.1681
ाध्य	-11.1681
▁hastakshar	-11.1696
▁jilaa	-11.171
▁बिंदु	-11.1713
घाट	-11.1713
▁combine	-11.1726
▁संपन्न	-11.1729
▁samanya	-11.173
▁चूंकि	-11.1735
▁कृपा	-11.1735
▁वार्षिक	-11.1738
▁cloth	-11.1747
▁Before	-11.1749
▁chikitsa	-11.1754
▁बुनियादी	-11.1754
aught	-11.1763
▁मनोरंजन	-11.178
▁ठाकरे	-11.1788
▁absolute	-11.1796
▁स्टील	-11.1796
▁जॉर्ज	-11.1802
▁नामांकन	-11.1819
▁मुलायम	-11.1827
▁varnan	-11.183
▁Election	-11.1833
|	-11.1835
▁आरंभ	-11.1841
▁धूप	-11.1844
▁umr	-11.1845
▁rescue	-11.1848
▁कोतवाली	-11.185
▁thus	-11.1851
▁detect	-11.1853
▁fruit	-11.1856
▁यातायात	-11.1867
▁resources	-11.1867
▁negative	-11.1872
▁Global	-11.1887
▁client	-11.1887
▁अजीब	-11.1888
▁रफ्तार	-11.1892
▁Democrat	-11.1895
▁पब्लिक	-11.1895
▁silver	-11.1904
▁mistake	-11.1904
▁Club	-11.1907
▁afford	-11.1907
▁CBI	-11.1909
▁AEW	-11.1912
▁batsmen	-11.1938
▁dismissed	-11.194
▁तस्कर	-11.1941
▁अकादमी	-11.1949
▁प्रतिष्ठा	-11.1952
▁लापरवाही	-11.1957
▁Control	-11.1967
▁लकड़ी	-11.1969
▁साइकिल	-11.1975
▁defense	-11.1976
▁कटौती	-11.198
▁पदाधिकारी	-11.1986
▁मुहैया	-11.2006
▁Governor	-11.2009
▁prastut	-11.2009
▁माइक्रो	-11.2013
▁परिचय	-11.2015
▁प्रिंस	-11.2015
▁venue	-11.2018
▁competitive	-11.2023
▁driving	-11.2023
▁उत्सव	-11.2024
▁उपायुक्त	-11.2026
▁रजिस्टर	-11.2027
▁khoj	-11.2032
▁favour	-11.2045
▁alawa	-11.2053
▁हिंदुस्तान	-11.2055
▁हंगामा	-11.2063
▁कैमरे	-11.2064
▁स्नान	-11.2071
▁explore	-11.2072
▁स्थायी	-11.2078
▁जनपद	-11.209
▁साधारण	-11.2098
▁नाबालिग	-11.2101
▁शासक	-11.2108
▁midfielder	-11.2113
ography	-11.2117
▁electronic	-11.2124
▁विलियम	-11.213
▁TechRadar	-11.2136
▁कार्तिक	-11.2136
▁दृष्टिकोण	-11.2139
▁OnePlus	-11.2147
▁बहादुर	-11.2165
▁exactly	-11.2165
▁religious	-11.2176
▁upgrade	-11.2176
▁सेवानिवृत्त	-11.2182
▁background	-11.2182
▁श्रीमती	-11.2188
▁lawyer	-11.2189
▁zone	-11.2192
▁रिसर्च	-11.2194
▁Saudi	-11.2197
▁फॉलो	-11.2201
▁worldwide	-11.2203
▁भौतिक	-11.2206
▁george	-11.2208
▁पीढ़ी	-11.222
▁acquire	-11.222
▁वाणिज्य	-11.2232
▁अंश	-11.225
▁Christian	-11.2255
▁साढ़े	-11.2258
▁approved	-11.2261
▁corporate	-11.2261
आउट	-11.2269
▁Arjun	-11.2273
▁डेविड	-11.2279
▁affair	-11.2282
▁संदेह	-11.2282
▁ब्यूरो	-11.2291
▁संस्कृत	-11.2292
friendly	-11.2319
▁australia	-11.232
▁janganana	-11.232
▁Chairman	-11.2323
▁नेहरू	-11.2324
▁प्लास्टिक	-11.2329
▁पुष्प	-11.2329
▁आंतरिक	-11.2341
▁प्राधिकरण	-11.235
▁नियंत्रित	-11.2359
▁Season	-11.2365
▁rahate	-11.238
▁Netflix	-11.2382
▁nagarpalika	-11.2382
▁आदिवासी	-11.2394
▁भोजपुरी	-11.2397
▁herself	-11.2406
▁kshetron	-11.2409
▁knew	-11.2415
▁sansthaan	-11.2421
▁घोटाले	-11.2421
ानुसार	-11.2421
▁commitment	-11.2424
▁jheel	-11.2427
▁appointed	-11.2433
▁Center	-11.244
▁पेशकश	-11.2454
वर्धन	-11.246
2,000	-11.2462
▁manufacturing	-11.2463
▁मंजिल	-11.2463
adharit	-11.2464
▁sarvshreshth	-11.2469
दायक	-11.2473
▁आमंत्रित	-11.2475
▁villium	-11.2478
▁घंटों	-11.2484
▁venture	-11.2493
▁उन्हीं	-11.2499
▁नोएडा	-11.2499
▁operate	-11.2501
▁Besides	-11.2511
▁olympic	-11.252
▁रिजल्ट	-11.2532
▁नगरपालिका	-11.2538
▁possess	-11.2541
▁संभावित	-11.2541
▁दुःख	-11.2541
▁europeeya	-11.2556
▁बौद्ध	-11.2556
▁चपेट	-11.2568
▁रहस्य	-11.2569
▁showcase	-11.2575
▁pariyojana	-11.2593
▁Sanjay	-11.2593
▁bodies	-11.2596
▁उन्नत	-11.2596
▁governor	-11.2611
▁obvious	-11.2617
▁variety	-11.2617
▁newspaper	-11.262
▁नवाज	-11.2624
▁झटका	-11.2629
▁yojana	-11.2644
▁जीएसटी	-11.2669
▁प्रिंट	-11.2675
▁vaapas	-11.2678
▁मछली	-11.2681
crypt	-11.2681
▁hyee	-11.2681
▁Prasad	-11.2691
▁मेजबान	-11.2693
▁Challenge	-11.2696
Source	-11.2696
▁Daniel	-11.2696
▁denied	-11.27
▁university	-11.2709
▁वास्तु	-11.2721
▁श्रेय	-11.2724
▁धातु	-11.2727
▁यकीन	-11.2727
▁adapt	-11.2728
▁हुसैन	-11.273
▁tomorrow	-11.273
▁रणबीर	-11.2736
▁अंतरिक्ष	-11.2736
▁duniya	-11.2742
▁शरद	-11.2747
▁sevaanivritt	-11.2749
▁रत्न	-11.2752
▁equipment	-11.2758
▁vijeta	-11.2761
▁doosara	-11.2764
▁honour	-11.2767
▁पारंपरिक	-11.2779
▁coast	-11.2785
▁प्रीमियर	-11.2786
▁वैक्सीन	-11.2786
▁aksar	-11.2795
▁आंकड़ों	-11.2804
▁storm	-11.2805
▁क्रेडिट	-11.2807
▁struck	-11.2814
▁राजमार्ग	-11.2817
▁recall	-11.2821
#	-11.2823
▁laptop	-11.2832
front	-11.2833
▁तुर्की	-11.2835
▁Great	-11.2842
▁climate	-11.2845
▁samarthan	-11.2845
▁ड्यूटी	-11.2848
▁saptah	-11.2848
▁pratham	-11.2848
▁परमेश्वर	-11.2857
▁आचार्य	-11.286
▁खैर	-11.2868
▁पार्टनर	-11.2895
source	-11.2897
▁activist	-11.2901
▁निर्मल	-11.2907
▁साहस	-11.291
▁राजकीय	-11.291
▁Limited	-11.2929
▁Plus	-11.2931
▁nimnalikhit	-11.2932
▁बस्ती	-11.2933
▁मुखर्जी	-11.2935
▁संवेदनशील	-11.2938
▁nideshak	-11.2938
▁सामूहिक	-11.2942
▁एसडीएम	-11.2942
▁पायलट	-11.2942
▁sometimes	-11.2945
▁Bowl	-11.2946
▁Angeles	-11.2954
▁isaliye	-11.2954
▁प्रत्यक्ष	-11.2954
class	-11.2969
▁combination	-11.2973
▁निकाय	-11.2978
▁इलाहाबाद	-11.2979
▁बेरोजगार	-11.2986
▁bottom	-11.2995
▁shreni	-11.3008
wicket	-11.3029
▁debate	-11.3036
▁WhatsApp	-11.3039
▁पुणे	-11.3045
claim	-11.3051
▁emotional	-11.3052
▁collaboration	-11.3055
▁वाराणसी	-11.3059
▁facility	-11.3078
▁sharp	-11.3089
▁medicine	-11.3094
▁शोषण	-11.31
▁उत्कृष्ट	-11.3106
▁destroy	-11.311
▁पैकेज	-11.3113
▁मद्देनजर	-11.3122
▁Management	-11.3126
▁soochibaddh	-11.3132
▁बीसीसीआई	-11.3135
▁visual	-11.3139
▁एक्टिव	-11.3154
▁राजपूत	-11.3158
▁ठोस	-11.3167
▁unbeaten	-11.317
▁sammelan	-11.3183
▁संचालक	-11.3187
▁ज्ञात	-11.3192
▁rapid	-11.32
▁finger	-11.3205
▁कंगना	-11.3209
▁ultimate	-11.3212
▁विद्वान	-11.3212
▁शत्रु	-11.3212
▁चैंपियन	-11.3222
▁Company	-11.3225
▁George	-11.3229
▁license	-11.3229
▁ख्याल	-11.3229
▁consecutive	-11.3232
▁आशीर्वाद	-11.3232
▁spokesperson	-11.3241
▁dedicated	-11.3251
▁lambe	-11.3254
▁Information	-11.3258
▁प्रशंसा	-11.3264
▁समीप	-11.3273
▁व्यावसायिक	-11.3284
▁prakaash	-11.3287
▁havaai	-11.33
▁तूफान	-11.3303
▁हॉस्पिटल	-11.3316
▁assault	-11.3316
▁awareness	-11.332
▁आंध्र	-11.3323
▁FIR	-11.3323
poorv	-11.3334
▁california	-11.3339
पश्चिम	-11.3342
▁cooperation	-11.3342
▁guidelines	-11.3342
▁अधीन	-11.3343
▁श्रीवास्तव	-11.3346
▁मैसेज	-11.3349
▁नाकाम	-11.3358
▁अन्दर	-11.3363
▁संजीव	-11.3363
▁truth	-11.3369
▁आंकड़े	-11.3375
▁नौसेना	-11.3375
▁transaction	-11.3395
▁भूकंप	-11.3398
▁रघु	-11.3421
▁honest	-11.3422
▁तुलसी	-11.3425
baare	-11.3427
▁इत्यादि	-11.3431
▁नैतिक	-11.3434
▁जताया	-11.3435
▁suspended	-11.3451
▁challenging	-11.3458
▁vistaar	-11.3458
▁sudden	-11.3458
▁कनेक्शन	-11.3458
▁prasiddh	-11.3464
▁विद्यार्थी	-11.3467
▁प्रतिदिन	-11.3474
▁smooth	-11.3481
▁Djokovic	-11.3487
▁easier	-11.3491
▁Auto	-11.3493
50,000	-11.3498
▁संस्थापक	-11.3501
▁इराक	-11.3504
▁royal	-11.3505
▁आश्रम	-11.3514
▁worst	-11.3514
▁minimum	-11.3517
▁प्रतिस्पर्धा	-11.3517
▁Sachin	-11.3518
▁तीर्थ	-11.3525
▁Kenya	-11.3527
▁अक्षर	-11.3531
▁प्रशंसक	-11.3534
▁Foreign	-11.3541
निर्माण	-11.3549
▁Thomas	-11.3554
▁रिश्ता	-11.3554
▁अड्डे	-11.3554
▁distance	-11.3564
ॉन्ग	-11.3572
▁absence	-11.3581
▁जागरण	-11.3614
▁रणवीर	-11.3624
▁holiday	-11.3631
▁shaahi	-11.3631
▁FIFA	-11.3638
▁ट्रैफिक	-11.3641
▁कुशल	-11.3642
@	-11.4529
“	-11.482
॥	-11.5561
ञ	-11.9151
‍	-12.4658
